<unk>	0
<s>	0
</s>	0
<pad>	0
aa	-0
de	-1
▁n	-2
oo	-3
▁k	-4
▁e	-5
▁m	-6
ee	-7
ii	-8
al	-9
▁w	-10
▁h	-11
ɓe	-12
on	-13
an	-14
in	-15
▁ko	-16
▁t	-17
▁ɗ	-18
di	-19
uu	-20
▁s	-21
▁l	-22
▁j	-23
ol	-24
am	-25
▁f	-26
re	-27
um	-28
▁ng	-29
▁g	-30
ar	-31
▁y	-32
en	-33
nde	-34
ng	-35
ɗo	-36
at	-37
▁A	-38
aw	-39
▁nde	-40
kk	-41
▁d	-42
▁o	-43
▁ɓe	-44
it	-45
▁won	-46
ji	-47
ɗe	-48
▁ma	-49
du	-50
ir	-51
la	-52
el	-53
▁b	-54
aan	-55
iy	-56
▁M	-57
▁ɓ	-58
▁p	-59
▁c	-60
ay	-61
▁K	-62
aɗ	-63
▁S	-64
aam	-65
▁le	-66
or	-67
ur	-68
▁in	-69
▁mb	-70
oon	-71
▁(	-72
le	-73
▁mum	-74
▁N	-75
▁haa	-76
nd	-77
een	-78
▁ina	-79
ti	-80
ul	-81
ɗi	-82
▁en	-83
aaw	-84
▁mo	-85
noo	-86
▁a	-87
eew	-88
▁nj	-89
▁de	-90
▁no	-91
▁Al	-92
ag	-93
im	-94
▁ka	-95
er	-96
▁ɗum	-97
▁fo	-98
▁he	-99
ah	-100
▁to	-101
ma	-102
to	-103
aar	-104
te	-105
▁taw	-106
aade	-107
▁H	-108
ono	-109
ab	-110
▁ñ	-111
dii	-112
▁J	-113
▁maa	-114
▁1	-115
gal	-116
is	-117
et	-118
▁B	-119
▁so	-120
▁waɗ	-121
tu	-122
kko	-123
▁ley	-124
▁F	-125
▁E	-126
▁nder	-127
aaɓe	-128
il	-129
aani	-130
ann	-131
ooɓe	-132
aal	-133
▁makko	-134
▁ha	-135
ri	-136
▁ɗe	-137
ko	-138
▁Alla	-139
▁Ko	-140
▁T	-141
▁heen	-142
un	-143
no	-144
ɓɓe	-145
▁O	-146
▁2	-147
▁goo	-148
▁fof	-149
▁leydi	-150
ta	-151
eer	-152
es	-153
uum	-154
anng	-155
ow	-156
ata	-157
▁G	-158
ey	-159
ala	-160
gol	-161
je	-162
▁r	-163
aaji	-164
▁oo	-165
og	-166
ed	-167
▁D	-168
▁wal	-169
tii	-170
tin	-171
▁wiy	-172
▁:	-173
ngal	-174
▁ne	-175
pp	-176
▁re	-177
▁W	-178
▁L	-179
ude	-180
dir	-181
annde	-182
▁al	-183
ka	-184
▁woni	-185
na	-186
▁I	-187
▁mi	-188
▁on	-189
taa	-190
om	-191
▁laam	-192
▁ɓur	-193
▁“	-194
▁noon	-195
▁C	-196
ani	-197
ba	-198
▁kadi	-199
▁maɓɓe	-200
imɓe	-201
oɗ	-202
iɗ	-203
▁kala	-204
gu	-205
aande	-206
kku	-207
▁ar	-208
oore	-209
uur	-210
▁walla	-211
▁ngal	-212
▁P	-213
ɓɓ	-214
jo	-215
uuji	-216
aay	-217
▁ɗi	-218
aaɗo	-219
▁yimɓe	-220
▁tan	-221
too	-222
cc	-223
oll	-224
▁ɗuum	-225
ndi	-226
ad	-227
oow	-228
mo	-229
▁maw	-230
▁Ɓ	-231
annd	-232
▁am	-233
▁ngam	-234
▁ɗo	-235
▁Y	-236
▁«	-237
ki	-238
eede	-239
▁si	-240
▁nd	-241
▁ngon	-242
as	-243
li	-244
ɓi	-245
▁Ɗ	-246
oor	-247
aas	-248
uɗ	-249
▁men	-250
▁wonde	-251
oy	-252
iin	-253
okk	-254
aggal	-255
▁ndee	-256
▁wi	-257
▁ƴ	-258
▁kono	-259
aama	-260
ati	-261
▁wonaa	-262
ank	-263
▁waaw	-264
▁Nde	-265
ƴƴ	-266
ere	-267
▁laa	-268
em	-269
▁dow	-270
ɗen	-271
▁min	-272
tor	-273
▁woo	-274
▁20	-275
oom	-276
ot	-277
aang	-278
▁So	-279
bb	-280
us	-281
▁ndi	-282
aŋ	-283
▁ɗem	-284
▁hay	-285
iri	-286
..	-287
▁te	-288
ele	-289
all	-290
abu	-291
af	-292
ondir	-293
ande	-294
tee	-295
▁kam	-296
ru	-297
ataa	-298
mb	-299
▁laamu	-300
ɗɗo	-301
▁»	-302
▁ñal	-303
▁su	-304
▁ɗee	-305
▁gooto	-306
da	-307
etee	-308
▁alaa	-309
▁hit	-310
▁feew	-311
kkunde	-312
▁jey	-313
▁huu	-314
▁rew	-315
aare	-316
aab	-317
ik	-318
▁dar	-319
--	-320
▁hitaande	-321
▁19	-322
▁nji	-323
▁ɓee	-324
▁yo	-325
ell	-326
▁heew	-327
mi	-328
ool	-329
▁hono	-330
▁hakkunde	-331
uul	-332
▁jog	-333
jj	-334
▁kon	-335
▁ann	-336
ngol	-337
▁sabu	-338
▁R	-339
tude	-340
▁keew	-341
▁yah	-342
▁ɗoo	-343
eeji	-344
▁jam	-345
din	-346
ew	-347
itii	-348
▁nii	-349
akk	-350
▁waɗi	-351
ndu	-352
▁neɗɗo	-353
tere	-354
▁tee	-355
▁ge	-356
▁maay	-357
▁caggal	-358
añ	-359
nnd	-360
▁mbaɗ	-361
ara	-362
▁win	-363
).	-364
ɗaa	-365
▁ɓuri	-366
▁ad	-367
▁,	-368
umm	-369
▁duu	-370
ut	-371
ngu	-372
aat	-373
ama	-374
ngo	-375
▁janng	-376
se	-377
▁ngol	-378
oowo	-379
▁ngoo	-380
▁ɗoon	-381
qu	-382
eeɓe	-383
▁Ab	-384
▁oon	-385
ɗin	-386
▁omo	-387
edde	-388
olle	-389
▁ji	-390
iima	-391
urit	-392
▁3	-393
tan	-394
uw	-395
▁bon	-396
ooji	-397
▁goɗ	-398
▁Kono	-399
▁mon	-400
▁di	-401
ulaar	-402
gg	-403
00	-404
ak	-405
ila	-406
si	-407
bu	-408
▁wiyi	-409
▁hannde	-410
ke	-411
eele	-412
▁U	-413
▁tawa	-414
▁moƴƴ	-415
▁ɗii	-416
aange	-417
▁golle	-418
▁geɗe	-419
▁way	-420
▁la	-421
▁tawi	-422
ooy	-423
uro	-424
amm	-425
▁koo	-426
aagu	-427
▁eɓe	-428
ni	-429
▁goll	-430
uus	-431
),	-432
ɗii	-433
iil	-434
dan	-435
ɗoo	-436
uritani	-437
▁ndeen	-438
ent	-439
uɓɓ	-440
▁ɗemngal	-441
annge	-442
▁.	-443
iis	-444
irde	-445
▁duuɓi	-446
anko	-447
atnoo	-448
...	-449
▁ke	-450
eere	-451
▁goong	-452
ooje	-453
▁joo	-454
▁nan	-455
nii	-456
▁haal	-457
agol	-458
▁huunde	-459
▁mbele	-460
▁def	-461
▁tawii	-462
fri	-463
▁les	-464
aano	-465
▁Ng	-466
oto	-467
ll	-468
▁nel	-469
▁Mb	-470
ini	-471
▁heɓ	-472
ud	-473
▁ndii	-474
▁mii	-475
▁mbaaw	-476
amma	-477
ulɓe	-478
▁hee	-479
▁Ɓe	-480
naaɓe	-481
▁hakk	-482
▁mbiy	-483
▁wuro	-484
anoo	-485
dude	-486
▁sah	-487
ali	-488
▁bannge	-489
▁4	-490
▁ɓen	-491
▁–	-492
▁nguur	-493
daa	-494
▁mumen	-495
so	-496
ñol	-497
▁toon	-498
▁gila	-499
▁hoore	-500
▁umm	-501
eeje	-502
▁ndu	-503
gi	-504
inoo	-505
▁ɓeen	-506
frik	-507
▁see	-508
duna	-509
▁kaal	-510
▁yiɗ	-511
▁lew	-512
▁laaw	-513
▁waawi	-514
▁ja	-515
▁5	-516
▁kaa	-517
▁Muritani	-518
▁201	-519
▁kuu	-520
ation	-521
▁hol	-522
inde	-523
▁hed	-524
▁et	-525
▁ñalnde	-526
aah	-527
▁fuɗ	-528
eerno	-529
ro	-530
ina	-531
ɗa	-532
▁ɗiɗi	-533
eey	-534
eejo	-535
▁Ñ	-536
.”	-537
▁yi	-538
▁sa	-539
▁du	-540
▁Bah	-541
go	-542
▁ngar	-543
aagal	-544
ra	-545
nu	-546
▁nguu	-547
▁gar	-548
iti	-549
▁yoo	-550
eh	-551
anii	-552
bi	-553
aaba	-554
▁tag	-555
alle	-556
▁kanko	-557
▁juu	-558
bbo	-559
innd	-560
▁yiy	-561
▁?	-562
aali	-563
▁yal	-564
ɗon	-565
▁ngo	-566
▁po	-567
▁fot	-568
▁feewi	-569
▁war	-570
▁leñol	-571
▁ɓal	-572
ndam	-573
ondiral	-574
▁mbi	-575
▁nokku	-576
▁aduna	-577
▁tuu	-578
ooni	-579
▁wel	-580
iino	-581
▁sar	-582
▁lewru	-583
taare	-584
naa	-585
nude	-586
▁Afrik	-587
▁ene	-588
aray	-589
iim	-590
▁too	-591
amadu	-592
taade	-593
▁laawol	-594
anndal	-595
▁Pulaar	-596
▁ɓey	-597
▁suu	-598
▁laaɓ	-599
▁Si	-600
▁ŋ	-601
▁fir	-602
ku	-603
iya	-604
▁Aamadu	-605
▁rennd	-606
▁woɗ	-607
▁An	-608
ino	-609
▁;	-610
tal	-611
▁6	-612
iiɗo	-613
----	-614
▁jaŋ	-615
▁pin	-616
▁holl	-617
▁Ɗum	-618
▁ngen	-619
▁sahaa	-620
▁Ina	-621
▁wonnoo	-622
▁dañ	-623
lo	-624
▁ta	-625
aana	-626
▁bat	-627
do	-628
agg	-629
▁ena	-630
aaɗe	-631
imm	-632
▁ɗemɗe	-633
iiw	-634
ce	-635
▁nod	-636
▁sif	-637
▁maj	-638
▁debbo	-639
▁waɗde	-640
ene	-641
▁!	-642
ci	-643
of	-644
▁joom	-645
▁gor	-646
▁ni	-647
▁mee	-648
ndii	-649
▁jokk	-650
diiɓe	-651
aari	-652
▁sibu	-653
▁nguurndam	-654
▁ngu	-655
sa	-656
▁juul	-657
aɓɓ	-658
anndu	-659
▁des	-660
oŋ	-661
▁galle	-662
▁ngoni	-663
▁gon	-664
▁haala	-665
aaf	-666
▁Caggal	-667
yam	-668
aaka	-669
inii	-670
▁naat	-671
▁fay	-672
uk	-673
▁rokk	-674
▁7	-675
ammadu	-676
▁Jom	-677
▁Am	-678
▁Hol	-679
me	-680
▁».	-681
tol	-682
▁fa	-683
ira	-684
os	-685
ya	-686
elle	-687
ɗu	-688
ne	-689
▁tes	-690
ankooɓe	-691
que	-692
▁ted	-693
▁Won	-694
▁diin	-695
▁ci	-696
▁tii	-697
▁"	-698
anɗe	-699
▁fe	-700
eende	-701
kooɓe	-702
▁ɓam	-703
▁doo	-704
▁amen	-705
ure	-706
▁hakkil	-707
arayse	-708
bin	-709
▁yee	-710
▁annd	-711
▁Is	-712
▁koy	-713
▁ti	-714
eteeɗo	-715
▁yon	-716
▁as	-717
000	-718
▁naam	-719
aati	-720
▁i	-721
▁naf	-722
br	-723
▁Mo	-724
▁foti	-725
▁Ceerno	-726
▁nden	-727
▁yet	-728
▁may	-729
▁jaŋde	-730
▁deftere	-731
gaal	-732
aandi	-733
▁-	-734
▁gorko	-735
ɗeele	-736
nooɓe	-737
▁Ar	-738
▁Ma	-739
iir	-740
▁200	-741
ana	-742
▁ɓes	-743
▁Ndeen	-744
awr	-745
▁hoor	-746
▁mawɗo	-747
▁wor	-748
▁kul	-749
▁jaw	-750
aɗa	-751
irɗe	-752
▁jooni	-753
ellit	-754
anndi	-755
▁8	-756
eno	-757
▁wiyde	-758
▁nat	-759
▁rewɓe	-760
▁ganndal	-761
▁ñaaw	-762
▁goonga	-763
▁jogii	-764
▁biy	-765
▁suk	-766
laam	-767
▁njog	-768
uun	-769
▁caɗ	-770
ari	-771
naange	-772
▁Nj	-773
enegaal	-774
▁ñaam	-775
”.	-776
anaa	-777
▁Mi	-778
▁teeŋ	-779
▁fedde	-780
aadi	-781
▁tati	-782
aak	-783
anke	-784
st	-785
▁yam	-786
uh	-787
▁ndiyam	-788
uuta	-789
▁faw	-790
▁Abdu	-791
▁eɗen	-792
ondi	-793
▁keɓ	-794
▁Muus	-795
▁ɓiy	-796
▁Um	-797
orii	-798
▁diine	-799
▁wul	-800
▁kamɓe	-801
▁pinal	-802
eeñ	-803
▁jee	-804
▁Laam	-805
▁se	-806
▁naw	-807
▁ngel	-808
▁Farayse	-809
▁nay	-810
aaj	-811
▁pot	-812
▁sukaaɓe	-813
ɗal	-814
▁miijo	-815
▁wood	-816
aag	-817
▁renndo	-818
▁winnde	-819
▁njiy	-820
bar	-821
▁ɓooy	-822
▁haɗ	-823
aañ	-824
▁innde	-825
▁laamɗo	-826
ant	-827
uɗo	-828
▁pe	-829
duɓe	-830
▁mah	-831
▁mil	-832
abi	-833
ans	-834
▁ƴet	-835
▁naange	-836
uɓe	-837
tir	-838
▁ƴeew	-839
aaki	-840
▁fii	-841
▁tesk	-842
▁kañ	-843
▁10	-844
▁Min	-845
laaji	-846
▁mbay	-847
▁ɗeen	-848
ulde	-849
▁jaɓ	-850
▁caɗeele	-851
erik	-852
▁Senegaal	-853
▁sal	-854
pit	-855
▁Fulɓe	-856
▁à	-857
▁hino	-858
▁com	-859
▁9	-860
▁Muusaa	-861
ammba	-862
uf	-863
ire	-864
opp	-865
min	-866
▁Say	-867
▁As	-868
iɗɗo	-869
▁wuur	-870
▁jeyaa	-871
alnde	-872
▁par	-873
ugg	-874
oof	-875
▁aɗa	-876
ter	-877
▁000	-878
▁yeeso	-879
ano	-880
iiɓe	-881
▁Nuw	-882
▁pol	-883
ha	-884
ŋe	-885
▁suudu	-886
▁kar	-887
tiima	-888
▁miij	-889
awma	-890
tinde	-891
▁wall	-892
▁nelaaɗo	-893
ori	-894
▁baɗ	-895
▁ɓer	-896
▁bal	-897
emmb	-898
▁Nel	-899
▁faam	-900
▁den	-901
▁njah	-902
▁keewɗe	-903
ammb	-904
▁u	-905
▁ngenndi	-906
▁heewi	-907
ppo	-908
aaɗi	-909
▁Fedde	-910
▁heewde	-911
▁nokk	-912
▁feewde	-913
ate	-914
▁an	-915
▁Sammba	-916
▁jaay	-917
oot	-918
▁kañum	-919
ten	-920
aangal	-921
▁Amerik	-922
udi	-923
▁Ɗuum	-924
mu	-925
▁kes	-926
▁Fuuta	-927
▁wayi	-928
ucc	-929
▁seer	-930
eru	-931
▁adii	-932
hu	-933
▁ñaw	-934
▁18	-935
anndir	-936
uɗal	-937
▁dog	-938
▁seeɗa	-939
ig	-940
▁gas	-941
▁ɓesngu	-942
ugol	-943
▁winndere	-944
ƴƴi	-945
▁leyɗeele	-946
ite	-947
aandu	-948
ƴe	-949
▁Kala	-950
kara	-951
▁ɗen	-952
▁En	-953
▁diiw	-954
amp	-955
▁Hay	-956
fi	-957
▁winnd	-958
▁wonande	-959
▁kay	-960
▁it	-961
allo	-962
ap	-963
▁hooreejo	-964
▁woodi	-965
▁batte	-966
▁jo	-967
▁sikk	-968
▁leyɗe	-969
tini	-970
▁waas	-971
▁fotde	-972
▁v	-973
▁konngol	-974
acc	-975
▁aade	-976
▁Iis	-977
amaan	-978
onng	-979
▁Muh	-980
▁baaba	-981
▁dew	-982
aango	-983
▁juuɗe	-984
▁dennd	-985
▁Nelaaɗo	-986
ɓo	-987
▁ud	-988
▁hare	-989
▁ñalawma	-990
ley	-991
diiɗo	-992
▁weey	-993
▁wiyetee	-994
▁pulaar	-995
▁sag	-996
▁add	-997
▁lee	-998
▁majje	-999
▁un	-1000
▁Mar	-1001
▁Waɗ	-1002
▁hir	-1003
▁tol	-1004
ine	-1005
aajo	-1006
▁taƴ	-1007
▁fulɓe	-1008
▁goɗɗe	-1009
▁ɗam	-1010
▁defte	-1011
▁toow	-1012
▁feere	-1013
▁keewɗi	-1014
▁goongɗin	-1015
▁goɗɗo	-1016
▁fen	-1017
▁jibin	-1018
▁mu	-1019
▁wii	-1020
▁nanng	-1021
kn	-1022
▁ɗaɓɓ	-1023
▁wol	-1024
bl	-1025
▁qu	-1026
▁Mali	-1027
▁yiɗde	-1028
▁hum	-1029
▁Ann	-1030
▁wiyee	-1031
▁ine	-1032
▁hi	-1033
▁To	-1034
▁wa	-1035
▁saf	-1036
▁wonnde	-1037
▁teddu	-1038
▁daar	-1039
aale	-1040
nooɗo	-1041
▁con	-1042
▁timm	-1043
itde	-1044
▁heewɓe	-1045
alf	-1046
aawo	-1047
taako	-1048
▁haɓ	-1049
▁konu	-1050
ulf	-1051
kin	-1052
ch	-1053
▁jipp	-1054
▁peew	-1055
inndi	-1056
▁ndew	-1057
▁yuɓɓ	-1058
▁njuɓɓ	-1059
▁li	-1060
atee	-1061
▁mbaawi	-1062
ال	-1063
▁tot	-1064
▁ceer	-1065
ill	-1066
▁binnd	-1067
▁yur	-1068
▁anndi	-1069
ɗam	-1070
uru	-1071
▁doole	-1072
▁miliy	-1073
orɗe	-1074
▁kis	-1075
▁ari	-1076
▁15	-1077
lle	-1078
tugol	-1079
eendi	-1080
▁gad	-1081
alla	-1082
▁lel	-1083
▁jom	-1084
▁ɗiin	-1085
▁Joo	-1086
▁lim	-1087
▁aadee	-1088
▁laabi	-1089
ge	-1090
▁na	-1091
▁hakkille	-1092
▁Oon	-1093
▁kaŋ	-1094
▁weeyo	-1095
▁jii	-1096
orde	-1097
▁miin	-1098
▁Iisaa	-1099
adi	-1100
▁bi	-1101
oode	-1102
tion	-1103
edd	-1104
▁kaɓ	-1105
▁ekn	-1106
ok	-1107
▁wona	-1108
▁maayo	-1109
▁miɗo	-1110
▁woto	-1111
▁majj	-1112
maa	-1113
▁biyeteeɗo	-1114
▁é	-1115
▁jaab	-1116
▁Le	-1117
▁fi	-1118
▁jawdi	-1119
▁11	-1120
▁yamir	-1121
ulfulde	-1122
▁Geno	-1123
....	-1124
▁Ibr	-1125
teer	-1126
▁12	-1127
islaam	-1128
iɓɓe	-1129
uut	-1130
▁mbel	-1131
▁yeew	-1132
▁nokkuuji	-1133
uɓ	-1134
ooɗo	-1135
tooɗo	-1136
aad	-1137
▁leƴƴi	-1138
ers	-1139
▁ball	-1140
jji	-1141
aaru	-1142
oli	-1143
▁balɗe	-1144
▁lom	-1145
▁Ala	-1146
▁baaw	-1147
▁mbo	-1148
▁kaaw	-1149
▁nganndu	-1150
eydi	-1151
tooɓe	-1152
▁mayre	-1153
▁Mis	-1154
▁Ha	-1155
▁aan	-1156
▁tuug	-1157
▁ce	-1158
▁All	-1159
▁Mammadu	-1160
▁har	-1161
▁sappo	-1162
▁ho	-1163
angu	-1164
▁De	-1165
▁darnde	-1166
▁Boo	-1167
▁yiɗi	-1168
fa	-1169
tat	-1170
▁kaw	-1171
ondiri	-1172
yi	-1173
eeki	-1174
▁nih	-1175
iraa	-1176
▁met	-1177
▁ter	-1178
▁Ɓeen	-1179
▁kaalis	-1180
▁wiɗ	-1181
--------	-1182
▁denndaangal	-1183
aahu	-1184
▁taar	-1185
▁mar	-1186
adde	-1187
▁loll	-1188
▁hade	-1189
ero	-1190
▁aay	-1191
iraaɗo	-1192
abb	-1193
rop	-1194
▁kee	-1195
▁tawnoo	-1196
▁haw	-1197
imoore	-1198
▁au	-1199
▁huutor	-1200
▁asamaan	-1201
gel	-1202
▁koll	-1203
kki	-1204
tuɗe	-1205
▁yan	-1206
▁fecc	-1207
▁Nuwaas	-1208
ndude	-1209
daade	-1210
ingol	-1211
▁wopp	-1212
AA	-1213
Al	-1214
▁tooñ	-1215
innde	-1216
res	-1217
iiɗe	-1218
▁leɓ	-1219
▁puɗ	-1220
ton	-1221
wo	-1222
▁kew	-1223
iraaɓe	-1224
▁mag	-1225
▁nduu	-1226
ɗɗe	-1227
▁14	-1228
ooro	-1229
és	-1230
▁jamma	-1231
▁sen	-1232
ɓii	-1233
▁kor	-1234
▁ngad	-1235
▁teeŋti	-1236
▁198	-1237
▁mawn	-1238
▁reen	-1239
ɓal	-1240
▁Moh	-1241
▁pelle	-1242
bbi	-1243
▁diiwaan	-1244
▁hoɗ	-1245
20	-1246
uma	-1247
tuɗo	-1248
▁Mbele	-1249
wal	-1250
▁ال	-1251
▁wak	-1252
▁yurm	-1253
ndo	-1254
▁naa	-1255
▁firti	-1256
kar	-1257
▁Allaahu	-1258
ou	-1259
oga	-1260
▁ɓiɓɓe	-1261
▁hedde	-1262
▁17	-1263
▁etee	-1264
▁199	-1265
▁kuutor	-1266
▁ngonnoo	-1267
maan	-1268
doo	-1269
ɗum	-1270
▁woote	-1271
▁13	-1272
ran	-1273
ees	-1274
▁pay	-1275
▁Su	-1276
▁(1	-1277
▁ngannd	-1278
▁poti	-1279
tata	-1280
▁rut	-1281
▁ñande	-1282
▁jiy	-1283
▁njal	-1284
▁waawde	-1285
▁gure	-1286
▁Eɗen	-1287
▁holi	-1288
oraade	-1289
▁mawɓe	-1290
▁Ñalnde	-1291
ement	-1292
▁juulɓe	-1293
▁Annabi	-1294
▁bar	-1295
▁Sii	-1296
▁Baaba	-1297
▁maayde	-1298
▁Ji	-1299
▁uddi	-1300
irta	-1301
▁Pul	-1302
▁ndar	-1303
Ko	-1304
▁worɓe	-1305
▁ɗun	-1306
alfin	-1307
▁ki	-1308
▁ngoong	-1309
▁Ɓam	-1310
abit	-1311
▁nganndi	-1312
▁duɗal	-1313
ale	-1314
iyee	-1315
ɗor	-1316
▁oɗon	-1317
aara	-1318
▁fann	-1319
▁sago	-1320
▁mawnde	-1321
▁Saydu	-1322
▁و	-1323
anna	-1324
▁fow	-1325
▁Eɓe	-1326
▁cal	-1327
ngel	-1328
▁wee	-1329
▁cuu	-1330
▁»,	-1331
▁macc	-1332
▁gannde	-1333
▁faay	-1334
▁tiiɗ	-1335
▁Allah	-1336
▁naati	-1337
▁woɗɓe	-1338
▁sariya	-1339
▁wootere	-1340
▁addani	-1341
▁njo	-1342
aanu	-1343
ato	-1344
oni	-1345
oorka	-1346
▁paw	-1347
▁yot	-1348
ppi	-1349
▁dans	-1350
▁njuɓɓudi	-1351
▁dee	-1352
▁Arab	-1353
itik	-1354
▁Sal	-1355
▁daɗ	-1356
▁hul	-1357
▁heɓi	-1358
▁hoy	-1359
dagol	-1360
ondirde	-1361
▁ba	-1362
eddii	-1363
▁kaaƴe	-1364
▁cif	-1365
taani	-1366
▁keer	-1367
▁Ngen	-1368
▁Abdull	-1369
itaade	-1370
be	-1371
tre	-1372
▁iw	-1373
umma	-1374
▁Jallo	-1375
▁majji	-1376
▁waɗii	-1377
▁No	-1378
▁Haa	-1379
▁Ɓamtaare	-1380
▁jeyi	-1381
▁Q	-1382
▁toɗ	-1383
▁gite	-1384
▁ɓiɗɗo	-1385
ve	-1386
”,	-1387
▁janngin	-1388
▁jal	-1389
▁han	-1390
lii	-1391
▁annduɓe	-1392
aaɓ	-1393
ing	-1394
ood	-1395
kka	-1396
▁tigi	-1397
diin	-1398
▁yurmeende	-1399
▁dé	-1400
▁See	-1401
toy	-1402
▁inn	-1403
▁moo	-1404
▁pul	-1405
▁worgo	-1406
▁Omo	-1407
▁feeñ	-1408
sii	-1409
▁goɗɗi	-1410
▁ceerno	-1411
rude	-1412
tina	-1413
▁tamp	-1414
ita	-1415
▁jin	-1416
inaaɓe	-1417
dee	-1418
▁...	-1419
▁Abdul	-1420
▁langu	-1421
▁anndude	-1422
▁Umar	-1423
▁yaaf	-1424
▁semmb	-1425
▁ɓernde	-1426
▁neh	-1427
▁Hono	-1428
▁arti	-1429
▁tawo	-1430
ndiije	-1431
▁fit	-1432
ummb	-1433
uure	-1434
▁daw	-1435
ejj	-1436
naade	-1437
orgal	-1438
▁paam	-1439
▁ɗiɗo	-1440
iiƴ	-1441
ili	-1442
oyi	-1443
▁ndim	-1444
▁Laamɗo	-1445
▁Kan	-1446
▁wer	-1447
▁Joom	-1448
▁njiɗ	-1449
▁Ti	-1450
▁jamaanu	-1451
oog	-1452
▁16	-1453
▁kan	-1454
anndiraaɓe	-1455
uudu	-1456
▁waawaa	-1457
▁bay	-1458
▁non	-1459
▁rewo	-1460
▁son	-1461
▁Abuu	-1462
eeli	-1463
▁mbaɗi	-1464
hay	-1465
▁njet	-1466
▁mbiyi	-1467
▁moƴƴere	-1468
▁kisal	-1469
▁jagg	-1470
▁addan	-1471
▁diw	-1472
▁ngoongɗin	-1473
bo	-1474
atu	-1475
▁daande	-1476
▁Fir	-1477
▁Kon	-1478
jun	-1479
unoo	-1480
▁Aad	-1481
iyankooɓe	-1482
▁Orop	-1483
▁Nuwaasoot	-1484
imo	-1485
▁ballal	-1486
▁ngonka	-1487
app	-1488
ille	-1489
▁tawde	-1490
▁Taw	-1491
aggu	-1492
▁fam	-1493
▁yeru	-1494
ammed	-1495
▁pour	-1496
▁hakke	-1497
▁yar	-1498
▁leɓte	-1499
▁ɓaleeɓe	-1500
atno	-1501
▁few	-1502
▁ɗow	-1503
▁foo	-1504
▁heddii	-1505
▁Mal	-1506
laa	-1507
▁gee	-1508
▁politik	-1509
owitii	-1510
ée	-1511
▁im	-1512
anaade	-1513
tuɗi	-1514
▁sab	-1515
▁pr	-1516
iinde	-1517
▁anndaa	-1518
▁mawɗe	-1519
▁ƴellit	-1520
eene	-1521
otoo	-1522
▁muu	-1523
mba	-1524
▁Leydi	-1525
inaa	-1526
▁25	-1527
▁co	-1528
▁‘	-1529
▁yoga	-1530
▁jah	-1531
otooɓe	-1532
▁dental	-1533
▁Us	-1534
aamu	-1535
▁ngul	-1536
▁tugg	-1537
atal	-1538
▁njanng	-1539
▁fenaande	-1540
▁ƴiiƴ	-1541
oodi	-1542
▁mus	-1543
ga	-1544
nge	-1545
▁Maal	-1546
uuda	-1547
▁dii	-1548
▁jun	-1549
maani	-1550
ulaaɗo	-1551
uud	-1552
▁wondude	-1553
▁Fulfulde	-1554
▁Ne	-1555
ub	-1556
uɗi	-1557
▁ndokk	-1558
tooji	-1559
▁Yimɓe	-1560
▁ngalu	-1561
▁Room	-1562
▁jooɗ	-1563
▁maan	-1564
aabu	-1565
janna	-1566
▁daartol	-1567
▁miliyoŋ	-1568
▁ɗon	-1569
▁Sabu	-1570
▁laana	-1571
▁jan	-1572
▁moƴƴi	-1573
▁alm	-1574
ankaagal	-1575
▁fuɗɗii	-1576
id	-1577
▁us	-1578
▁Ah	-1579
▁cuk	-1580
▁mool	-1581
ental	-1582
anndo	-1583
▁njoo	-1584
▁far	-1585
▁sos	-1586
▁peeje	-1587
▁gall	-1588
▁ujun	-1589
op	-1590
▁Maw	-1591
▁new	-1592
▁haay	-1593
▁geɗal	-1594
▁jol	-1595
sp	-1596
▁Dem	-1597
aten	-1598
▁Alm	-1599
▁baŋ	-1600
▁njogii	-1601
irii	-1602
▁noddi	-1603
▁añ	-1604
▁njey	-1605
ité	-1606
▁El	-1607
▁maayi	-1608
▁wolde	-1609
▁que	-1610
iiji	-1611
ndiy	-1612
▁yahde	-1613
▁ngalaa	-1614
ela	-1615
toor	-1616
▁hirnaange	-1617
ehil	-1618
▁man	-1619
▁goomu	-1620
▁tonng	-1621
del	-1622
▁lebbi	-1623
▁junngo	-1624
▁cee	-1625
▁njeen	-1626
▁tawtor	-1627
▁ndañ	-1628
▁eɓɓ	-1629
uulal	-1630
▁doos	-1631
ooɗe	-1632
▁Kay	-1633
▁jay	-1634
tern	-1635
tagol	-1636
ujj	-1637
ɗude	-1638
▁hen	-1639
▁Li	-1640
tinii	-1641
▁Aadama	-1642
aɓ	-1643
▁kel	-1644
ooyre	-1645
▁Hannde	-1646
▁qui	-1647
ise	-1648
▁bakk	-1649
▁ɗiɗ	-1650
▁saab	-1651
▁Kam	-1652
▁heer	-1653
▁sakk	-1654
▁waɗa	-1655
▁yim	-1656
▁ré	-1657
▁fiy	-1658
0,	-1659
▁joof	-1660
▁luul	-1661
▁dille	-1662
▁fayti	-1663
ehey	-1664
▁jar	-1665
▁cap	-1666
▁Waɗde	-1667
▁koye	-1668
▁mbar	-1669
▁Kanko	-1670
san	-1671
▁197	-1672
▁ɓerɗe	-1673
▁21	-1674
▁Alaa	-1675
▁Asiis	-1676
anne	-1677
▁jim	-1678
▁mal	-1679
orgo	-1680
▁dam	-1681
▁Holi	-1682
▁Sih	-1683
▁Umaar	-1684
▁keewi	-1685
▁kawr	-1686
▁saɗ	-1687
▁Se	-1688
▁muus	-1689
▁196	-1690
▁binndi	-1691
▁gardagol	-1692
▁wayl	-1693
haa	-1694
▁Bar	-1695
naajo	-1696
▁ɗumen	-1697
▁ƴiiƴam	-1698
uy	-1699
eji	-1700
▁yahi	-1701
au	-1702
iila	-1703
▁wir	-1704
▁acc	-1705
▁yamiroore	-1706
▁ɗin	-1707
▁njoɓ	-1708
▁ɓurɗo	-1709
▁haalde	-1710
▁Nd	-1711
attan	-1712
▁cell	-1713
▁haaw	-1714
▁Sey	-1715
▁Ibraah	-1716
aand	-1717
nugol	-1718
▁hool	-1719
▁Ay	-1720
▁ron	-1721
tirde	-1722
uraana	-1723
▁ndaar	-1724
▁teddungal	-1725
he	-1726
▁ay	-1727
▁hor	-1728
ule	-1729
iida	-1730
▁per	-1731
▁haayre	-1732
▁Ƴ	-1733
tiri	-1734
▁Yah	-1735
▁Yero	-1736
▁koode	-1737
▁ngaal	-1738
▁tin	-1739
▁yonta	-1740
urs	-1741
uuhu	-1742
▁nafoore	-1743
▁ndimaagu	-1744
wol	-1745
▁sun	-1746
JK	-1747
eeri	-1748
urum	-1749
▁poo	-1750
▁wonti	-1751
irɗo	-1752
tunde	-1753
eten	-1754
▁kum	-1755
aasi	-1756
▁topp	-1757
ja	-1758
▁luur	-1759
▁laaɗe	-1760
ñc	-1761
ren	-1762
▁pecc	-1763
pe	-1764
tes	-1765
▁sok	-1766
▁ñaawoore	-1767
▁”	-1768
ons	-1769
▁Gel	-1770
▁fer	-1771
ññ	-1772
▁jon	-1773
▁ngonaa	-1774
kaaji	-1775
aambar	-1776
له	-1777
▁Wiy	-1778
▁Makk	-1779
▁suɓ	-1780
ane	-1781
▁sin	-1782
▁tuuba	-1783
leymaani	-1784
▁neɗ	-1785
▁Jah	-1786
▁yoɓ	-1787
diina	-1788
kadi	-1789
▁kal	-1790
JKM	-1791
▁koɗ	-1792
▁res	-1793
▁sur	-1794
dunoo	-1795
▁ndut	-1796
▁Njaay	-1797
▁ladde	-1798
nj	-1799
alif	-1800
▁kaay	-1801
▁)	-1802
▁taf	-1803
oya	-1804
▁tabit	-1805
▁waɗti	-1806
▁binndol	-1807
▁22	-1808
▁Aali	-1809
▁duum	-1810
den	-1811
▁gollal	-1812
▁go	-1813
▁bonannde	-1814
fol	-1815
ment	-1816
▁haali	-1817
▁jaɓɓ	-1818
."	-1819
taar	-1820
▁ñii	-1821
▁Joop	-1822
lif	-1823
oomu	-1824
▁cakk	-1825
▁onon	-1826
▁Aladiin	-1827
▁Sah	-1828
▁sir	-1829
aggudu	-1830
▁yaw	-1831
taaki	-1832
▁enen	-1833
▁bel	-1834
teede	-1835
▁jaaynde	-1836
ɗiɗi	-1837
taandu	-1838
▁humpit	-1839
▁ɓamtaare	-1840
unde	-1841
▁hoo	-1842
▁nge	-1843
▁yaaj	-1844
inkooɓe	-1845
▁Lislaam	-1846
inooɓe	-1847
▁ummii	-1848
hi	-1849
uɗe	-1850
▁yalti	-1851
llee	-1852
▁hawr	-1853
ngalteer	-1854
▁ngenndiije	-1855
lit	-1856
▁est	-1857
▁28	-1858
▁njeenaari	-1859
▁ɗof	-1860
▁30	-1861
▁Sar	-1862
▁mem	-1863
▁Bookara	-1864
▁ñi	-1865
▁miijooji	-1866
▁24	-1867
▁mawnude	-1868
▁goongɗinɓe	-1869
aaku	-1870
▁tata	-1871
▁meeɗaa	-1872
▁il	-1873
▁huuɓ	-1874
▁waasde	-1875
▁jeer	-1876
▁saare	-1877
▁yumma	-1878
ju	-1879
▁be	-1880
andir	-1881
▁suka	-1882
▁jib	-1883
alɓe	-1884
▁arii	-1885
▁ɓoor	-1886
▁Dental	-1887
▁winndannde	-1888
OO	-1889
iijo	-1890
ndir	-1891
▁muñ	-1892
uritan	-1893
▁kaŋŋe	-1894
——	-1895
ɗun	-1896
▁He	-1897
▁hun	-1898
▁une	-1899
ales	-1900
▁Nii	-1901
▁Nulaaɗo	-1902
▁mba	-1903
▁ɓuu	-1904
ɗaani	-1905
▁yaaw	-1906
alel	-1907
▁yeewtere	-1908
▁arab	-1909
ɓɓere	-1910
▁nana	-1911
▁faamde	-1912
▁heɓde	-1913
awna	-1914
oyde	-1915
▁Kadi	-1916
▁hebl	-1917
▁leɗɗe	-1918
▁Far	-1919
▁dey	-1920
▁Gila	-1921
▁nuun	-1922
▁capanɗe	-1923
▁fuɗnaange	-1924
▁boom	-1925
▁ton	-1926
uusuf	-1927
▁faggudu	-1928
».	-1929
ammadi	-1930
▁pi	-1931
▁terɗe	-1932
▁ligg	-1933
▁ngari	-1934
▁Usmaan	-1935
▁jogaade	-1936
▁ummorii	-1937
▁galleeji	-1938
19	-1939
uli	-1940
asiy	-1941
▁mbiyen	-1942
eewu	-1943
▁wut	-1944
▁juut	-1945
▁--------	-1946
▁Muhammadu	-1947
▁Mor	-1948
▁addi	-1949
▁Maa	-1950
taama	-1951
▁janngude	-1952
▁hel	-1953
▁nanndi	-1954
▁Yo	-1955
▁ciim	-1956
▁Goomu	-1957
▁/	-1958
faa	-1959
▁tagi	-1960
té	-1961
nga	-1962
▁tun	-1963
▁In	-1964
▁yedd	-1965
mere	-1966
oowal	-1967
▁bone	-1968
▁deeƴ	-1969
▁adan	-1970
▁Demmba	-1971
▁23	-1972
▁On	-1973
adii	-1974
awol	-1975
▁suw	-1976
▁ɗaa	-1977
▁Siin	-1978
▁his	-1979
ddi	-1980
▁Ib	-1981
tataa	-1982
▁feccere	-1983
▁kas	-1984
▁yer	-1985
▁Neɗɗo	-1986
▁waawa	-1987
▁Dow	-1988
▁wano	-1989
anooɓe	-1990
▁ƴetti	-1991
▁ɓaawo	-1992
▁Yuusuf	-1993
▁low	-1994
▁pal	-1995
▁geec	-1996
▁ooɗoo	-1997
tunoo	-1998
▁pool	-1999
▁teem	-2000
kor	-2001
raa	-2002
▁Abdel	-2003
▁hakkillaaji	-2004
ital	-2005
▁kol	-2006
▁laakara	-2007
▁ren	-2008
▁baas	-2009
▁Goo	-2010
▁Hammadi	-2011
Alla	-2012
▁duw	-2013
▁wonii	-2014
▁27	-2015
▁kil	-2016
▁Alii	-2017
oodere	-2018
ogg	-2019
▁wo	-2020
ques	-2021
uɗol	-2022
▁fell	-2023
▁laaɓi	-2024
une	-2025
▁je	-2026
▁Bur	-2027
antaa	-2028
▁hara	-2029
▁naal	-2030
▁fayde	-2031
▁mbaydi	-2032
sin	-2033
onoo	-2034
umaa	-2035
▁Alha	-2036
▁Daaw	-2037
▁Jooni	-2038
ɗee	-2039
▁saw	-2040
▁Bay	-2041
▁wondi	-2042
9,	-2043
▁fool	-2044
▁inɗe	-2045
▁rewi	-2046
▁Koorka	-2047
▁Kar	-2048
▁Siidi	-2049
eri	-2050
▁loow	-2051
▁henndu	-2052
▁Woto	-2053
▁nodd	-2054
▁Islaam	-2055
tani	-2056
iyanke	-2057
▁Fooyre	-2058
▁ɓalndu	-2059
▁joɗ	-2060
▁kit	-2061
▁pas	-2062
dinaa	-2063
▁tacc	-2064
▁yiil	-2065
▁kaŋko	-2066
▁kaayit	-2067
▁tar	-2068
▁Gine	-2069
▁simoore	-2070
▁Mus	-2071
▁kab	-2072
▁hiir	-2073
▁pine	-2074
▁gardiiɗo	-2075
baka	-2076
▁rokki	-2077
iif	-2078
▁sehil	-2079
▁car	-2080
▁jaa	-2081
▁dowla	-2082
▁winndi	-2083
▁sabaabu	-2084
▁gay	-2085
▁sell	-2086
tingol	-2087
▁keddii	-2088
▁cu	-2089
▁ɓad	-2090
▁duɗe	-2091
▁ngenndiy	-2092
▁0	-2093
iisa	-2094
▁ndon	-2095
▁yejj	-2096
▁ra	-2097
▁janngo	-2098
pte	-2099
▁jojj	-2100
▁nani	-2101
ism	-2102
▁me	-2103
▁jeeɗiɗi	-2104
▁joginoo	-2105
iyaa	-2106
▁gaa	-2107
▁hes	-2108
▁kii	-2109
▁haan	-2110
▁yeddooɓe	-2111
▁Mohammadu	-2112
tel	-2113
▁Sh	-2114
▁Ɗem	-2115
▁Laamu	-2116
▁jokki	-2117
▁nanondiral	-2118
▁fiɓ	-2119
rugol	-2120
▁ngoon	-2121
▁Muhammed	-2122
arab	-2123
▁wuu	-2124
▁Soh	-2125
▁ñaag	-2126
▁baŋŋe	-2127
▁waɗnoo	-2128
▁Alhajji	-2129
iral	-2130
ondire	-2131
ie	-2132
▁joy	-2133
▁dañde	-2134
▁Anngalteer	-2135
gom	-2136
▁mis	-2137
▁daaw	-2138
▁ree	-2139
eel	-2140
ère	-2141
▁pen	-2142
▁ñawu	-2143
▁ɓurɗe	-2144
▁jooɗii	-2145
▁Yeru	-2146
anaaɓe	-2147
▁sifaa	-2148
kule	-2149
▁don	-2150
▁yii	-2151
briil	-2152
▁aldaa	-2153
▁yamiri	-2154
uuba	-2155
lam	-2156
▁26	-2157
▁Ka	-2158
iɗɓe	-2159
anooma	-2160
▁fannu	-2161
▁koyɗe	-2162
?”	-2163
tam	-2164
▁wat	-2165
antee	-2166
▁fuu	-2167
fer	-2168
▁aw	-2169
▁lollirɗo	-2170
daani	-2171
▁ngoll	-2172
iɗo	-2173
uuɓi	-2174
hayɗi	-2175
▁ŋakk	-2176
▁gonɗo	-2177
▁semmbe	-2178
▁nguleeki	-2179
ux	-2180
oro	-2181
aahi	-2182
▁dokk	-2183
▁taarii	-2184
wi	-2185
▁Tijj	-2186
▁wiya	-2187
né	-2188
▁guur	-2189
ist	-2190
inal	-2191
▁saak	-2192
▁kalfin	-2193
uv	-2194
▁ju	-2195
▁lor	-2196
▁Tooro	-2197
1,	-2198
aami	-2199
▁cikk	-2200
▁afrik	-2201
▁nee	-2202
taali	-2203
ternet	-2204
▁joomum	-2205
▁yettii	-2206
aaje	-2207
▁Miɗo	-2208
▁mayri	-2209
ef	-2210
ang	-2211
ito	-2212
▁hucc	-2213
▁gootol	-2214
▁karall	-2215
▁aayeeje	-2216
▁Jam	-2217
▁Tes	-2218
IR	-2219
▁lo	-2220
inta	-2221
▁hawri	-2222
ces	-2223
ede	-2224
taaɓe	-2225
▁njokk	-2226
▁jayngol	-2227
oondi	-2228
▁anndir	-2229
uri	-2230
▁njiim	-2231
▁Joomiraaɗo	-2232
▁mun	-2233
▁heɓii	-2234
koo	-2235
irtee	-2236
▁iwdi	-2237
▁Ndeke	-2238
▁waktu	-2239
▁laamuuji	-2240
▁ummoraade	-2241
eddi	-2242
▁ganndo	-2243
▁ardiiɓe	-2244
ɗde	-2245
iyya	-2246
▁alla	-2247
▁sara	-2248
dun	-2249
▁maggal	-2250
▁Aan	-2251
▁njam	-2252
▁njii	-2253
▁waɗata	-2254
ré	-2255
▁fayi	-2256
uuna	-2257
▁kool	-2258
▁cuuɗi	-2259
▁lekki	-2260
▁njiɗi	-2261
orm	-2262
aalo	-2263
▁seed	-2264
▁pullo	-2265
▁teddin	-2266
▁maccuɓe	-2267
▁Ibraahiima	-2268
iyaŋ	-2269
naaje	-2270
▁hoto	-2271
▁subaka	-2272
▁100	-2273
▁jaag	-2274
▁juuti	-2275
▁imaamu	-2276
▁por	-2277
▁dag	-2278
irnoo	-2279
itani	-2280
▁Den	-2281
▁kitaale	-2282
yo	-2283
anti	-2284
anngal	-2285
ondira	-2286
▁reedu	-2287
todin	-2288
▁Joob	-2289
▁juɓɓ	-2290
▁Seek	-2291
▁jeew	-2292
▁pucc	-2293
aadibu	-2294
ɗuɓe	-2295
▁195	-2296
digal	-2297
▁Baal	-2298
▁magg	-2299
▁laamɓe	-2300
▁lesdi	-2301
In	-2302
▁•	-2303
taw	-2304
▁arde	-2305
▁kaɓirɗe	-2306
▁Te	-2307
▁wonɓe	-2308
▁cukalel	-2309
▁law	-2310
▁nattii	-2311
8,	-2312
mp	-2313
▁yeey	-2314
▁nation	-2315
▁Kayhayɗi	-2316
▁Nuwaadibu	-2317
▁aɓe	-2318
▁tuma	-2319
▁fawaade	-2320
aamb	-2321
emma	-2322
▁Ɗoon	-2323
▁gootal	-2324
dde	-2325
▁kir	-2326
diima	-2327
ooreejo	-2328
▁lislaam	-2329
▁Haw	-2330
▁gaw	-2331
mokar	-2332
▁damal	-2333
▁tuggi	-2334
▁annabi	-2335
▁Aljanna	-2336
▁faayiida	-2337
col	-2338
dere	-2339
▁feewn	-2340
▁lefol	-2341
iree	-2342
maaji	-2343
▁2019	-2344
▁sanne	-2345
▁mawngal	-2346
▁V	-2347
▁29	-2348
ofeere	-2349
▁ellee	-2350
▁haani	-2351
▁hoyre	-2352
AM	-2353
kii	-2354
▁aa	-2355
▁ro	-2356
▁Heen	-2357
▁Misira	-2358
AN	-2359
kke	-2360
oos	-2361
▁kaɗ	-2362
tonoo	-2363
▁himo	-2364
▁tuubakooɓe	-2365
ens	-2366
▁Waɗi	-2367
▁Ibrah	-2368
▁comci	-2369
aandaare	-2370
▁banndiraaɓe	-2371
ture	-2372
nal	-2373
▁pl	-2374
▁fil	-2375
▁tim	-2376
ungal	-2377
co	-2378
▁waɗaa	-2379
▁miliyaar	-2380
▁woy	-2381
▁Taal	-2382
eñ	-2383
kon	-2384
▁hokk	-2385
▁wonno	-2386
▁Abdullaay	-2387
EN	-2388
data	-2389
▁ɗaŋ	-2390
ammbar	-2391
▁ser	-2392
dinoo	-2393
▁ngoɗ	-2394
▁alkule	-2395
▁Mah	-2396
ɓere	-2397
abaaɓe	-2398
ƴƴe	-2399
▁moƴƴude	-2400
▁batu	-2401
▁ɓuuɓ	-2402
▁Tee	-2403
▁ndennd	-2404
uya	-2405
▁wayno	-2406
▁langue	-2407
uuli	-2408
▁Gor	-2409
▁daranii	-2410
▁Z	-2411
jal	-2412
▁Par	-2413
▁heb	-2414
▁yaha	-2415
anuuji	-2416
▁jogori	-2417
▁mbinnd	-2418
▁hoodere	-2419
uritaninaaɓe	-2420
taagu	-2421
▁ɓooyi	-2422
▁mbaadi	-2423
▁Madiina	-2424
les	-2425
▁gol	-2426
itere	-2427
▁saka	-2428
▁tele	-2429
▁ɗoof	-2430
▁Walla	-2431
▁mbaas	-2432
ndiyanke	-2433
AL	-2434
▁darii	-2435
est	-2436
▁noo	-2437
▁Mate	-2438
isaaji	-2439
▁teemedde	-2440
tuɓe	-2441
uddu	-2442
taake	-2443
ingiral	-2444
▁baawɗe	-2445
▁hakkeeji	-2446
iw	-2447
eendu	-2448
tinoo	-2449
▁aadi	-2450
toonde	-2451
▁jeegom	-2452
▁mbaawa	-2453
▁kabaaru	-2454
▁lowre	-2455
▁boowal	-2456
▁karallaagal	-2457
ett	-2458
▁do	-2459
21	-2460
amb	-2461
▁km	-2462
aanga	-2463
toowo	-2464
▁foof	-2465
▁ñam	-2466
▁Leñol	-2467
▁wuuri	-2468
▁tolnoo	-2469
So	-2470
▁doosɗe	-2471
DE	-2472
▁Ger	-2473
▁jot	-2474
▁sul	-2475
▁njar	-2476
▁Maalik	-2477
3,	-2478
5,	-2479
aane	-2480
▁gasa	-2481
▁cellal	-2482
aton	-2483
awree	-2484
ction	-2485
▁nayi	-2486
▁dawrugol	-2487
esa	-2488
▁Qur	-2489
▁hab	-2490
itiiɗo	-2491
▁ɓalli	-2492
▁ɓanndu	-2493
▁njiimaandi	-2494
▁lam	-2495
▁Kamɓe	-2496
▁ñalɗi	-2497
▁jibinaa	-2498
▁Mauritani	-2499
▁fal	-2500
diiji	-2501
oonde	-2502
ɗiima	-2503
▁Daar	-2504
▁Miin	-2505
▁ɓennu	-2506
........	-2507
▁Af	-2508
▁ŋg	-2509
▁hal	-2510
▁tam	-2511
▁faati	-2512
atnooɓe	-2513
▁wonaano	-2514
▁egg	-2515
▁meeɗ	-2516
▁mbaɗti	-2517
toto	-2518
noore	-2519
▁juur	-2520
▁kucc	-2521
▁takk	-2522
▁Pinal	-2523
▁Kuulal	-2524
▁Def	-2525
iyank	-2526
ortoo	-2527
Simoore	-2528
▁wondema	-2529
asi	-2530
▁ri	-2531
▁ref	-2532
hooɓe	-2533
▁baab	-2534
▁yiɗaa	-2535
▁siftor	-2536
▁ñaamde	-2537
0.	-2538
2,	-2539
ula	-2540
▁Esp	-2541
▁raf	-2542
▁Duɗal	-2543
▁rewrude	-2544
▁nganndaa	-2545
▁ع	-2546
madu	-2547
▁nehdi	-2548
▁wiyeteende	-2549
jii	-2550
▁Sen	-2551
▁japp	-2552
▁kulol	-2553
▁saabii	-2554
▁laamorgo	-2555
dal	-2556
▁dum	-2557
ongal	-2558
unna	-2559
tiiɗo	-2560
▁tuub	-2561
won	-2562
▁dan	-2563
angal	-2564
kaaru	-2565
▁kalif	-2566
▁mbaɗii	-2567
▁ɓurnoo	-2568
▁tagofeere	-2569
▁Ta	-2570
inke	-2571
nata	-2572
▁cof	-2573
taaji	-2574
▁peeñ	-2575
ations	-2576
▁njeey	-2577
yidinaa	-2578
▁mbaawaa	-2579
▁Ibrahiima	-2580
ink	-2581
sam	-2582
itoo	-2583
▁Mur	-2584
▁kulle	-2585
▁majjere	-2586
pr	-2587
ete	-2588
iilo	-2589
▁Nuuhu	-2590
▁yaltin	-2591
rata	-2592
▁Nda	-2593
▁weeɓ	-2594
▁njuul	-2595
▁wiɗto	-2596
▁ñalngu	-2597
▁langues	-2598
aake	-2599
▁ɗaɗ	-2600
▁hanki	-2601
aayo	-2602
▁huutoraade	-2603
ommb	-2604
tudi	-2605
▁Ham	-2606
▁2020	-2607
▁ñeeñ	-2608
▁naatde	-2609
▁bakkaat	-2610
6,	-2611
anee	-2612
▁rem	-2613
▁rokkude	-2614
▁ont	-2615
anooɗo	-2616
ais	-2617
ɗaade	-2618
▁Misra	-2619
▁ndeer	-2620
▁nguura	-2621
ellitaare	-2622
▁dingiral	-2623
▁winndude	-2624
4,	-2625
acce	-2626
▁fon	-2627
▁dañi	-2628
▁yiyde	-2629
asii	-2630
oggee	-2631
▁heɓɓ	-2632
▁moof	-2633
▁ngool	-2634
▁rewde	-2635
▁tedduɗo	-2636
▁Abd	-2637
▁Wol	-2638
▁mawɗi	-2639
▁daawal	-2640
par	-2641
aate	-2642
▁ndeke	-2643
▁Mawɗo	-2644
▁keewal	-2645
لي	-2646
▁Nan	-2647
▁Rew	-2648
▁kaan	-2649
atooɗo	-2650
itiiɓe	-2651
▁Makka	-2652
7,	-2653
▁hii	-2654
tooɗe	-2655
ulaagu	-2656
▁gonɗe	-2657
▁saanga	-2658
▁ɓeydoo	-2659
▁aar	-2660
▁pet	-2661
▁Ngam	-2662
▁kese	-2663
▁Moritani	-2664
▁tell	-2665
▁Ismaa	-2666
▁Sayyidinaa	-2667
▁cul	-2668
▁cuɓ	-2669
▁Ndakaaru	-2670
ngi	-2671
▁diis	-2672
▁mbiya	-2673
▁yowitii	-2674
▁heddiiɓe	-2675
▁sil	-2676
▁mooɓ	-2677
▁ardii	-2678
▁hankadi	-2679
▁Sa	-2680
▁um	-2681
▁kuuɓ	-2682
▁Gerees	-2683
inɗo	-2684
▁eɗe	-2685
▁geno	-2686
▁enɗam	-2687
▁duunde	-2688
▁jeewte	-2689
wa	-2690
ins	-2691
▁Daawuuda	-2692
2.	-2693
aba	-2694
▁ex	-2695
▁san	-2696
▁parti	-2697
▁politi	-2698
▁sahaaji	-2699
od	-2700
ber	-2701
▁or	-2702
▁ruɗ	-2703
▁yaa	-2704
tiino	-2705
▁mbaɗa	-2706
koraana	-2707
▁Ɓoggee	-2708
▁ɲ	-2709
inee	-2710
▁neɗɗaa	-2711
▁Abdullaah	-2712
son	-2713
▁cos	-2714
▁dim	-2715
danii	-2716
▁Ndee	-2717
8.	-2718
aangu	-2719
▁njaɓ	-2720
▁Hooreejo	-2721
▁weltaare	-2722
bal	-2723
nee	-2724
rii	-2725
iiɗi	-2726
▁aad	-2727
▁Haar	-2728
▁ɗann	-2729
▁Almaañ	-2730
▁Yoo	-2731
nement	-2732
▁Eehey	-2733
▁Tawree	-2734
▁Neene	-2735
▁maayɓe	-2736
▁peewal	-2737
▁demokar	-2738
▁bo	-2739
▁haɗi	-2740
etenoo	-2741
aaɗ	-2742
▁fee	-2743
▁saaw	-2744
▁Pullo	-2745
▁jowitii	-2746
▁nelaaɓe	-2747
▁Tijjaani	-2748
▁Man	-2749
▁hon	-2750
▁yumm	-2751
▁fiɓnde	-2752
.)	-2753
RE	-2754
med	-2755
row	-2756
ull	-2757
▁Ge	-2758
▁(19	-2759
▁dal	-2760
▁imm	-2761
▁loo	-2762
▁siy	-2763
▁Hamm	-2764
▁luut	-2765
▁fawii	-2766
▁kasoo	-2767
▁nanii	-2768
▁njill	-2769
pé	-2770
▁boni	-2771
▁Mannde	-2772
▁ngoongɗini	-2773
ranç	-2774
▁meh	-2775
▁yew	-2776
otaako	-2777
▁Tesko	-2778
▁diina	-2779
▁jamaa	-2780
▁minen	-2781
▁njiyaagu	-2782
taŋ	-2783
▁Saar	-2784
▁Aduna	-2785
▁catal	-2786
▁heeriinde	-2787
/0	-2788
▁50	-2789
owol	-2790
noowo	-2791
uunde	-2792
▁mball	-2793
▁toowɗo	-2794
▁ges	-2795
▁ndin	-2796
▁riiw	-2797
▁ñaan	-2798
▁koorka	-2799
▁maccuɗo	-2800
dam	-2801
▁el	-2802
▁ara	-2803
▁gal	-2804
▁hujj	-2805
▁tuugn	-2806
▁joɗnde	-2807
▁moƴƴo	-2808
5.	-2809
boo	-2810
▁bun	-2811
▁teeme	-2812
▁*	-2813
jju	-2814
uko	-2815
▁pir	-2816
▁Juul	-2817
itiima	-2818
▁Faati	-2819
▁wonata	-2820
▁woodani	-2821
▁woodnoo	-2822
3.	-2823
▁pa	-2824
▁fin	-2825
irigi	-2826
▁hiɓe	-2827
▁joop	-2828
ataake	-2829
inooɗo	-2830
▁ngesa	-2831
eeruuji	-2832
ŋk	-2833
sik	-2834
yee	-2835
nooɗe	-2836
ŋaaji	-2837
▁njot	-2838
annduɗo	-2839
isation	-2840
jom	-2841
▁Oo	-2842
▁abb	-2843
▁sel	-2844
aneede	-2845
ngooji	-2846
▁njaaw	-2847
▁fotaani	-2848
▁(2	-2849
agge	-2850
▁dun	-2851
▁hikka	-2852
aŋk	-2853
iiko	-2854
▁taan	-2855
▁adun	-2856
▁ngumm	-2857
▁tinnd	-2858
▁wasiy	-2859
▁Gelaajo	-2860
▁dillere	-2861
fe	-2862
iɗen	-2863
▁ndun	-2864
▁haɓde	-2865
▁kuule	-2866
tit	-2867
ette	-2868
▁Aay	-2869
▁cer	-2870
▁yow	-2871
▁bism	-2872
▁kebl	-2873
▁yani	-2874
▁lannd	-2875
▁sinno	-2876
▁suwee	-2877
▁warde	-2878
▁pellit	-2879
oƴ	-2880
masii	-2881
▁firo	-2882
▁bonde	-2883
age	-2884
jir	-2885
iifa	-2886
teeji	-2887
▁natal	-2888
▁Gar	-2889
▁fiɗ	-2890
▁gah	-2891
▁kaaɗ	-2892
▁tato	-2893
▁nuunɗal	-2894
▁mas	-2895
▁yiɗnoo	-2896
vi	-2897
com	-2898
▁Maam	-2899
▁suur	-2900
ɗtirde	-2901
oir	-2902
▁of	-2903
▁Kol	-2904
▁ndiin	-2905
▁ngati	-2906
▁ciftor	-2907
▁ɓurnde	-2908
vers	-2909
▁alk	-2910
▁gañ	-2911
▁الله	-2912
tindii	-2913
▁jogor	-2914
▁baawɗo	-2915
▁kawgel	-2916
▁jeyaaɗo	-2917
▁internet	-2918
cce	-2919
▁La	-2920
▁Ɗo	-2921
duɗo	-2922
usay	-2923
ŋɗin	-2924
▁hiis	-2925
▁Mariy	-2926
▁tolno	-2927
▁kattan	-2928
jin	-2929
▁feññ	-2930
▁nate	-2931
▁wela	-2932
▁mawni	-2933
▁ngalaano	-2934
.»	-2935
▁ou	-2936
▁woon	-2937
masiihu	-2938
▁koninkooɓe	-2939
if	-2940
oyii	-2941
▁Kor	-2942
▁jul	-2943
ƊO	-2944
bbil	-2945
▁194	-2946
▁ngay	-2947
▁Yuusufa	-2948
▁kaayitaaji	-2949
anndaa	-2950
▁jojjanɗe	-2951
▁31	-2952
ɗoon	-2953
nguuji	-2954
▁ngopp	-2955
▁culture	-2956
▁Manndelaa	-2957
▁Sileymaani	-2958
9.	-2959
:1	-2960
aayre	-2961
▁juum	-2962
▁ñiiɓ	-2963
▁ɗacc	-2964
▁Ñande	-2965
▁Naange	-2966
dd	-2967
iilu	-2968
ataano	-2969
▁moƴƴe	-2970
▁juulde	-2971
▁haɗaani	-2972
▁hoohooɓe	-2973
fo	-2974
ɗuɗo	-2975
▁Suw	-2976
▁fet	-2977
▁pro	-2978
tenoo	-2979
▁polis	-2980
▁luulndo	-2981
▁Alkoraana	-2982
inj	-2983
▁fu	-2984
▁eɗi	-2985
▁mor	-2986
▁ndaɗ	-2987
▁ndema	-2988
▁baasal	-2989
▁gadano	-2990
mis	-2991
tiin	-2992
▁Dar	-2993
▁Ibnu	-2994
▁Ngal	-2995
▁roon	-2996
▁kuuɓal	-2997
▁mbaawka	-2998
man	-2999
wil	-3000
▁mom	-3001
▁mur	-3002
ès	-3003
éné	-3004
▁Di	-3005
▁Alh	-3006
deero	-3007
etaake	-3008
▁Mauritanie	-3009
▁Kuu	-3010
▁coñ	-3011
▁fun	-3012
▁muul	-3013
▁yahii	-3014
▁hiirde	-3015
▁helmere	-3016
▁fittaandu	-3017
uba	-3018
▁Bir	-3019
▁ɗuu	-3020
▁Laaw	-3021
▁ngañ	-3022
ŋkooɓe	-3023
▁haɗde	-3024
▁tawtoreede	-3025
1.	-3026
ON	-3027
upp	-3028
▁Me	-3029
▁tig	-3030
▁cood	-3031
▁goɗɗum	-3032
occ	-3033
inɗe	-3034
▁Lew	-3035
▁sey	-3036
▁maaɗa	-3037
▁seede	-3038
▁teewu	-3039
▁Almasiihu	-3040
aaro	-3041
sion	-3042
▁luu	-3043
▁aarab	-3044
uno	-3045
▁40	-3046
▁It	-3047
▁njee	-3048
▁maggol	-3049
lu	-3050
▁jih	-3051
▁sank	-3052
▁Mbaañ	-3053
antaagal	-3054
mun	-3055
aabi	-3056
dini	-3057
ñaal	-3058
uwtor	-3059
▁muuy	-3060
ataaɓe	-3061
▁almuu	-3062
▁tagoore	-3063
itu	-3064
▁Saw	-3065
▁ñen	-3066
urumdeero	-3067
!”	-3068
▁Mu	-3069
▁Jol	-3070
faaɓe	-3071
▁lugg	-3072
ireede	-3073
otonoo	-3074
▁wallitde	-3075
▁seernaaɓe	-3076
dé	-3077
lim	-3078
ɓin	-3079
ɗit	-3080
▁for	-3081
▁anndu	-3082
▁woɗnde	-3083
▁ndeeɗoo	-3084
yank	-3085
diino	-3086
▁sooy	-3087
▁maayii	-3088
anndiraaɗo	-3089
▁jokkondiral	-3090
▁JOO	-3091
addaa	-3092
▁daaɗe	-3093
▁maaje	-3094
▁Ɗemngal	-3095
▁ƴellitaare	-3096
Mb	-3097
▁Jaa	-3098
▁himm	-3099
▁wari	-3100
▁ɓiɗɓe	-3101
▁njeyaa	-3102
▁tooñooɓe	-3103
▁annabaaɓe	-3104
6.	-3105
▁cok	-3106
▁potal	-3107
▁puɗɗii	-3108
▁faandaare	-3109
▁ngootaagu	-3110
Hol	-3111
▁Il	-3112
uuje	-3113
▁jaar	-3114
▁keso	-3115
▁safr	-3116
▁tuum	-3117
▁naamnd	-3118
▁ɗeeɗoo	-3119
▁njulaagu	-3120
▁teemedere	-3121
4.	-3122
▁Ir	-3123
ppol	-3124
▁hari	-3125
▁ngas	-3126
▁pays	-3127
dinnde	-3128
▁haaju	-3129
▁jaaɓi	-3130
▁kuude	-3131
▁fuɗɗoo	-3132
▁Maamuudu	-3133
▁jeytaare	-3134
seig	-3135
▁Ɗee	-3136
tuuji	-3137
ummba	-3138
ungol	-3139
▁Koli	-3140
▁koko	-3141
▁ñaamo	-3142
▁dir	-3143
ɓiire	-3144
▁dill	-3145
▁ngun	-3146
anndee	-3147
▁jiɗɗo	-3148
▁fotnoo	-3149
▁Muritaninaaɓe	-3150
ca	-3151
▁vo	-3152
ires	-3153
▁faa	-3154
▁Tugg	-3155
▁dara	-3156
▁fewj	-3157
▁fiil	-3158
▁wutte	-3159
▁Murtuɗo	-3160
▁safaara	-3161
▁yaltude	-3162
Min	-3163
tum	-3164
uub	-3165
▁tum	-3166
▁kolo	-3167
▁faade	-3168
▁heege	-3169
ondirii	-3170
tiiɓe	-3171
▁jiidaa	-3172
▁tolnii	-3173
▁Haaruuna	-3174
▁wellitaare	-3175
/1	-3176
▁=	-3177
kos	-3178
▁we	-3179
▁Ley	-3180
▁miñ	-3181
▁ɓol	-3182
ilifaaɓe	-3183
cu	-3184
illa	-3185
▁Jal	-3186
eewal	-3187
▁Firawna	-3188
▁fannuuji	-3189
▁Sam	-3190
▁plus	-3191
▁ɓura	-3192
teende	-3193
▁Tawreeta	-3194
bre	-3195
▁Tag	-3196
▁Ahmed	-3197
tr	-3198
jam	-3199
▁aba	-3200
▁jiiɓ	-3201
▁sood	-3202
▁seedan	-3203
ƴa	-3204
arak	-3205
▁cen	-3206
▁dem	-3207
▁jaal	-3208
▁nande	-3209
▁biyetee	-3210
▁woodaani	-3211
▁ɓesnguuji	-3212
oh	-3213
-19	-3214
201	-3215
teeɓe	-3216
▁ceed	-3217
Ñalnde	-3218
▁dañii	-3219
▁halfin	-3220
▁njuulu	-3221
▁wiɗtooji	-3222
nda	-3223
iyoŋ	-3224
▁Bad	-3225
▁roŋ	-3226
iindi	-3227
ingal	-3228
sidaa	-3229
ɗinoo	-3230
▁famɗi	-3231
baruuji	-3232
▁ngaluuji	-3233
IN	-3234
▁ň	-3235
ammad	-3236
▁pell	-3237
▁Faran	-3238
▁Wonaa	-3239
▁naftor	-3240
▁ngondi	-3241
▁ɗiiɗoo	-3242
▁konuuji	-3243
▁Har	-3244
▁Ñal	-3245
▁tokoo	-3246
▁toɓɓe	-3247
▁ɓural	-3248
▁jaabii	-3249
har	-3250
▁da	-3251
▁Les	-3252
▁neene	-3253
▁fartaŋ	-3254
con	-3255
rel	-3256
▁ga	-3257
nama	-3258
▁tel	-3259
▁waaj	-3260
▁njoɓdi	-3261
▁Wolof	-3262
▁wolla	-3263
nit	-3264
anta	-3265
▁oto	-3266
▁ɓay	-3267
naaki	-3268
tanoo	-3269
▁Caam	-3270
▁laɓɓ	-3271
▁Gooto	-3272
▁gadan	-3273
▁mbela	-3274
▁ngaan	-3275
▁noddir	-3276
▁safalɓe	-3277
▁ujunnaaje	-3278
ada	-3279
▁piɗ	-3280
▁sol	-3281
nguɗi	-3282
▁idii	-3283
▁wonta	-3284
▁waɗeede	-3285
▁م	-3286
aawe	-3287
diri	-3288
▁tra	-3289
tungal	-3290
dinooɓe	-3291
▁heefer	-3292
▁Yahuuda	-3293
▁felliti	-3294
▁mbaylii	-3295
▁tedduɓe	-3296
ff	-3297
▁33	-3298
oroo	-3299
▁kun	-3300
tande	-3301
▁aada	-3302
▁jeya	-3303
▁Janng	-3304
▁ɓurɗi	-3305
▁hilifaaɓe	-3306
لم	-3307
jjo	-3308
▁Ke	-3309
▁ow	-3310
▁ut	-3311
abet	-3312
▁mud	-3313
▁mayru	-3314
▁maande	-3315
▁waɗtude	-3316
▁koloñaal	-3317
▁asamaanuuji	-3318
angol	-3319
▁noog	-3320
▁woɗɗi	-3321
▁nanngi	-3322
▁warngo	-3323
▁ɓeydii	-3324
▁miliyoŋaaji	-3325
__	-3326
cr	-3327
kis	-3328
dani	-3329
▁Ays	-3330
▁dol	-3331
▁ekk	-3332
▁علي	-3333
▁ardi	-3334
▁cuus	-3335
iyaaji	-3336
▁hojom	-3337
▁keeri	-3338
▁kuulal	-3339
▁Hakkunde	-3340
▁Mohammed	-3341
nir	-3342
oyr	-3343
yoo	-3344
▁Ɗoo	-3345
ɗorde	-3346
▁ndog	-3347
▁kuugal	-3348
▁tuggude	-3349
▁Jurumdeero	-3350
ello	-3351
▁tipp	-3352
▁sikki	-3353
▁gootel	-3354
▁jaayɗe	-3355
▁ruttii	-3356
ées	-3357
▁nul	-3358
naaɗo	-3359
▁jeey	-3360
▁Ñaaw	-3361
▁Kuɗol	-3362
▁Takko	-3363
▁kelme	-3364
▁sikke	-3365
▁jiyaaɓe	-3366
-1	-3367
ph	-3368
ƴi	-3369
add	-3370
▁Es	-3371
▁pu	-3372
▁Buu	-3373
hoore	-3374
tanii	-3375
▁Woni	-3376
▁kuɓɓ	-3377
▁Duuɓi	-3378
▁miskin	-3379
▁annoore	-3380
▁Ra	-3381
▁Mut	-3382
▁lay	-3383
▁rim	-3384
▁ñiŋ	-3385
unaas	-3386
▁comp	-3387
opeeje	-3388
▁mette	-3389
▁nguun	-3390
▁ɓaleejo	-3391
▁kabaruuji	-3392
irl	-3393
▁Con	-3394
▁ɓog	-3395
Eehey	-3396
totoo	-3397
▁2021	-3398
▁gasi	-3399
▁noow	-3400
ineede	-3401
ndaare	-3402
▁dowrow	-3403
▁'	-3404
dat	-3405
ora	-3406
▁36	-3407
▁Bak	-3408
▁Ɗeen	-3409
▁haray	-3410
▁kawri	-3411
▁teskaade	-3412
ES	-3413
▁ok	-3414
iidu	-3415
▁meeɗii	-3416
▁toɗɗii	-3417
▁yaltini	-3418
▁binndanɗe	-3419
yu	-3420
oori	-3421
▁Isr	-3422
▁ƴoƴ	-3423
▁tawee	-3424
▁tesku	-3425
ts	-3426
▁Aɗa	-3427
▁Bun	-3428
doore	-3429
▁nawi	-3430
▁ndiw	-3431
▁artir	-3432
▁jaɓde	-3433
▁sawru	-3434
▁tawaa	-3435
▁jibini	-3436
▁naatii	-3437
▁farayse	-3438
▁sifaaji	-3439
▁sehilaaɓe	-3440
apon	-3441
▁Son	-3442
muuji	-3443
▁hoɗɓe	-3444
totaako	-3445
▁waɗɗii	-3446
ern	-3447
▁Je	-3448
▁haŋ	-3449
torii	-3450
uunus	-3451
▁Naam	-3452
▁ɓurɓe	-3453
▁jebbil	-3454
▁poolgu	-3455
▁jappeere	-3456
▁kaaldigal	-3457
صل	-3458
waar	-3459
▁dool	-3460
▁sont	-3461
▁Miijo	-3462
▁ɗaŋre	-3463
▁haawnii	-3464
▁gollaade	-3465
▁Suleymaani	-3466
isi	-3467
itaa	-3468
ooru	-3469
————	-3470
▁Jey	-3471
jumaa	-3472
▁Linj	-3473
▁waal	-3474
▁ɗaan	-3475
▁uddit	-3476
▁Alasan	-3477
▁abriil	-3478
araa	-3479
uura	-3480
▁aux	-3481
niima	-3482
▁sett	-3483
irooje	-3484
tannde	-3485
▁jamɗe	-3486
▁jaɓii	-3487
▁wanaa	-3488
▁Wonande	-3489
50	-3490
DI	-3491
cti	-3492
▁cooy	-3493
ikiiɗe	-3494
▁jemma	-3495
▁saawiyee	-3496
▁kalfinaaɗo	-3497
Ng	-3498
aawu	-3499
▁mbon	-3500
▁teel	-3501
▁ngacc	-3502
▁tawata	-3503
▁allaaji	-3504
▁hollitii	-3505
▁hoolaare	-3506
▁waktuuji	-3507
his	-3508
sen	-3509
IRAA	-3510
oros	-3511
▁Haal	-3512
▁saay	-3513
▁banng	-3514
▁yahra	-3515
bariyee	-3516
▁Gelongal	-3517
iro	-3518
ukk	-3519
▁av	-3520
▁Moo	-3521
▁Wul	-3522
naaji	-3523
▁abada	-3524
▁kumpit	-3525
ura	-3526
▁ny	-3527
adak	-3528
▁all	-3529
▁ɓit	-3530
▁heed	-3531
▁Malal	-3532
▁sosiy	-3533
▁janngi	-3534
▁sulyee	-3535
▁wallit	-3536
▁ciimtol	-3537
▁Dowlaaji	-3538
ñam	-3539
▁ku	-3540
alaa	-3541
▁dot	-3542
▁ñaa	-3543
ngele	-3544
▁Dowla	-3545
▁paltoor	-3546
oyo	-3547
▁BA	-3548
uwar	-3549
▁عليه	-3550
▁kosam	-3551
▁salii	-3552
▁senngo	-3553
▁AN	-3554
▁ca	-3555
▁ht	-3556
▁pel	-3557
▁sof	-3558
tooje	-3559
▁Niis	-3560
▁sepp	-3561
▁kuɗol	-3562
▁maley	-3563
▁ngarii	-3564
▁njettii	-3565
▁yuɓɓinde	-3566
ŋŋ	-3567
ingu	-3568
▁boo	-3569
▁bonɗe	-3570
▁mbiɗo	-3571
▁wallif	-3572
▁wontii	-3573
▁warngooji	-3574
PM	-3575
bon	-3576
yaa	-3577
▁32	-3578
▁FƁ	-3579
ient	-3580
▁saa	-3581
▁ɗaw	-3582
MIRAA	-3583
iingu	-3584
▁Mahm	-3585
▁fawi	-3586
▁soom	-3587
▁Tummb	-3588
▁heddi	-3589
▁wuurde	-3590
▁Nuwaasot	-3591
);	-3592
iye	-3593
ence	-3594
▁Jaw	-3595
▁fat	-3596
▁yen	-3597
▁fuun	-3598
▁jime	-3599
▁kewu	-3600
▁gonɗi	-3601
▁wiyaa	-3602
atnooɗo	-3603
▁fartaŋŋe	-3604
▁miijaade	-3605
iɗa	-3606
▁May	-3607
▁yill	-3608
toobar	-3609
▁yitere	-3610
▁jeertin	-3611
▁jokkude	-3612
▁njoginoo	-3613
ég	-3614
aggi	-3615
▁fel	-3616
▁las	-3617
▁Mars	-3618
▁Sibu	-3619
▁njan	-3620
▁waasa	-3621
MIRAAƊO	-3622
▁Espaañ	-3623
▁tampere	-3624
▁kuudetaa	-3625
tati	-3626
▁dah	-3627
letee	-3628
ɗiiji	-3629
▁añɓe	-3630
▁bonn	-3631
▁gann	-3632
▁rafi	-3633
▁Ahmadu	-3634
▁Deftere	-3635
▁jeyaaɓe	-3636
▁ñalaande	-3637
▁yol	-3638
tiiji	-3639
▁Baab	-3640
▁fooɗ	-3641
▁fuɗɗor	-3642
▁kattanɗe	-3643
ui	-3644
ont	-3645
سلم	-3646
▁gi	-3647
enne	-3648
irdu	-3649
▁Ene	-3650
▁jaɓi	-3651
▁masi	-3652
▁mbii	-3653
▁Aarab	-3654
▁Suudu	-3655
▁Tabit	-3656
itaande	-3657
rançais	-3658
▁Pulaagu	-3659
7.	-3660
▁Na	-3661
eeru	-3662
▁soo	-3663
neeji	-3664
▁Hade	-3665
▁gaas	-3666
▁ɓeydi	-3667
▁miskineeɓe	-3668
lon	-3669
aŋke	-3670
▁cañ	-3671
▁yed	-3672
▁leur	-3673
▁noot	-3674
▁yuur	-3675
cation	-3676
▁nagge	-3677
▁timmi	-3678
▁jeyeede	-3679
آله	-3680
▁Ful	-3681
▁cii	-3682
▁Heew	-3683
▁Ngol	-3684
▁salm	-3685
▁wonan	-3686
▁alaano	-3687
▁humpito	-3688
▁waawnoo	-3689
▁heɓɓitii	-3690
▁pellital	-3691
▁sagataaɓe	-3692
▁gollotooɓe	-3693
▁noowammbar	-3694
▁Ndi	-3695
▁Yer	-3696
▁tuf	-3697
▁bayy	-3698
▁haɓɓ	-3699
eeteer	-3700
▁addude	-3701
▁leegal	-3702
▁yejjit	-3703
▁aljanna	-3704
▁teeŋtude	-3705
IM	-3706
kaa	-3707
▁Ben	-3708
▁jir	-3709
▁tou	-3710
taaɗo	-3711
▁Hakk	-3712
▁weli	-3713
oktoor	-3714
▁comme	-3715
▁depit	-3716
▁njejj	-3717
▁teemin	-3718
▁Ngenndiyanke	-3719
▁Im	-3720
nooɗi	-3721
▁aaye	-3722
▁jeen	-3723
▁وآله	-3724
▁Debbo	-3725
▁ngona	-3726
iyaŋkooɓe	-3727
▁jaagorɗe	-3728
Mi	-3729
dor	-3730
▁60	-3731
undu	-3732
▁Kaw	-3733
▁kur	-3734
▁pat	-3735
▁tab	-3736
oyraat	-3737
▁Alfaa	-3738
▁jeyanoo	-3739
▁saraaji	-3740
owl	-3741
vec	-3742
ven	-3743
▁huɓ	-3744
annga	-3745
▁ɓocc	-3746
▁وسلم	-3747
▁holli	-3748
▁waɗta	-3749
▁doggol	-3750
▁huuɓtan	-3751
▁daranaade	-3752
▁أ	-3753
cte	-3754
ɗir	-3755
▁‘’	-3756
▁Gay	-3757
▁Lam	-3758
dugol	-3759
▁leel	-3760
▁neɗɗ	-3761
annama	-3762
▁dente	-3763
▁juulɗo	-3764
▁tagopeeje	-3765
CO	-3766
see	-3767
▁at	-3768
aŋde	-3769
▁caf	-3770
nduɓe	-3771
▁Afri	-3772
▁Seyɗ	-3773
▁jaaj	-3774
▁Ƴeew	-3775
▁laawɗin	-3776
▁noogaas	-3777
▁fuɗɗoode	-3778
▁hollitde	-3779
▁JOOMIRAAƊO	-3780
nndo	-3781
dinde	-3782
▁Etee	-3783
▁Isra	-3784
▁ummo	-3785
▁yiyi	-3786
▁Ɗiin	-3787
▁haaɗi	-3788
ooninke	-3789
▁maayɗo	-3790
▁ñeeñal	-3791
▁aadaaji	-3792
▁jaambar	-3793
▁keddiiɗe	-3794
▁tonngoode	-3795
PR	-3796
▁sow	-3797
▁Diin	-3798
▁faab	-3799
oyaade	-3800
▁Dooro	-3801
▁Maruk	-3802
▁feeñi	-3803
▁naata	-3804
▁winndir	-3805
▁35	-3806
wole	-3807
▁500	-3808
▁Nji	-3809
▁heɓa	-3810
▁diƴƴe	-3811
▁gawri	-3812
▁nguru	-3813
▁tergal	-3814
uwarnama	-3815
seignement	-3816
ug	-3817
usi	-3818
▁37	-3819
▁ch	-3820
iidi	-3821
▁mbe	-3822
▁pit	-3823
neede	-3824
▁yiyl	-3825
▁hunuko	-3826
▁reende	-3827
▁oktoobar	-3828
▁fiɗtaandu	-3829
▁baabiraaɓe	-3830
▁huuɓtandinnde	-3831
SA	-3832
▁Ŋ	-3833
Jom	-3834
for	-3835
mar	-3836
ante	-3837
tira	-3838
▁lar	-3839
▁ubb	-3840
▁mbir	-3841
▁neen	-3842
▁njaw	-3843
inaama	-3844
otooɗo	-3845
▁diisn	-3846
▁lonng	-3847
▁ngoodi	-3848
▁wiyata	-3849
▁konnguɗi	-3850
ɓde	-3851
▁Mas	-3852
▁Jaaf	-3853
pulaar	-3854
▁artii	-3855
▁rokku	-3856
uurndam	-3857
▁majjum	-3858
▁dumunna	-3859
lay	-3860
▁45	-3861
itte	-3862
▁aaw	-3863
▁sat	-3864
▁Wuro	-3865
▁deen	-3866
aniiɗo	-3867
▁salaade	-3868
▁ɓataake	-3869
▁janngooɓe	-3870
▁feebariyee	-3871
pt	-3872
▁ɓii	-3873
▁mate	-3874
▁mber	-3875
ateeɗo	-3876
▁kammu	-3877
▁Faransa	-3878
▁kaawisaaji	-3879
▁jannginooɓe	-3880
ss	-3881
ace	-3882
mbo	-3883
toyi	-3884
▁ken	-3885
▁fagg	-3886
▁jaas	-3887
tondiral	-3888
▁Mahmuud	-3889
▁Ngenndi	-3890
▁Ngenndiije	-3891
mes	-3892
▁heɗ	-3893
Mbele	-3894
▁Doos	-3895
▁jiim	-3896
▁sifa	-3897
inoowo	-3898
▁Muttaar	-3899
▁famɗude	-3900
▁juulirde	-3901
iid	-3902
▁Go	-3903
itee	-3904
▁Han	-3905
▁lon	-3906
▁yool	-3907
akuuji	-3908
inooma	-3909
ukaaɓe	-3910
▁jaamb	-3911
▁ɗaɓɓi	-3912
▁Faatim	-3913
▁darnga	-3914
▁finnde	-3915
▁Daartol	-3916
▁kikiiɗe	-3917
▁maantin	-3918
▁ujunere	-3919
▁jannginoowo	-3920
up	-3921
▁Has	-3922
▁gul	-3923
▁Ɗii	-3924
taaka	-3925
▁Shee	-3926
▁rajo	-3927
▁ɓure	-3928
▁Paate	-3929
▁bannd	-3930
▁coñce	-3931
▁kawral	-3932
▁ɓurata	-3933
▁Jibriil	-3934
▁wallude	-3935
▁Gannduɗo	-3936
ème	-3937
▁38	-3938
ubli	-3939
▁Gey	-3940
▁Mbi	-3941
▁giɗ	-3942
▁mes	-3943
naaka	-3944
naako	-3945
▁fooli	-3946
▁julɓe	-3947
▁Tabital	-3948
▁X	-3949
▁lut	-3950
▁gaño	-3951
▁muum	-3952
▁siwil	-3953
aŋkooɓe	-3954
▁alanaa	-3955
▁yaltinde	-3956
iyankaagal	-3957
▁aarabeeɓe	-3958
30	-3959
isa	-3960
Holi	-3961
▁Com	-3962
dooje	-3963
giyya	-3964
atuuji	-3965
inaade	-3966
▁Golle	-3967
▁kanum	-3968
▁Quraana	-3969
▁gooŋɗin	-3970
▁goomuuji	-3971
aɓo	-3972
fes	-3973
rib	-3974
abil	-3975
book	-3976
▁Lih	-3977
▁piy	-3978
▁raw	-3979
inndu	-3980
jooji	-3981
▁Goll	-3982
▁caak	-3983
▁itti	-3984
▁jigg	-3985
▁toɗɗ	-3986
ration	-3987
▁njahi	-3988
▁pecce	-3989
▁yanti	-3990
▁ɗumɗoo	-3991
▁kaawnii	-3992
▁tiitoonde	-3993
ex	-3994
bel	-3995
yde	-3996
eema	-3997
orɗo	-3998
▁Kat	-3999
▁Tar	-4000
▁bol	-4001
▁Baydi	-4002
▁dewbo	-4003
▁naalankaagal	-4004
che	-4005
▁34	-4006
▁is	-4007
▁Abb	-4008
▁dur	-4009
▁fad	-4010
toode	-4011
▁Libi	-4012
▁cuur	-4013
▁gese	-4014
▁jamf	-4015
▁mbuu	-4016
▁lajal	-4017
▁pille	-4018
▁yiɗii	-4019
▁mbiyaa	-4020
▁laaɓtin	-4021
▁mbaɗata	-4022
▁nationales	-4023
az	-4024
yn	-4025
ort	-4026
uuru	-4027
▁kuɓ	-4028
▁yeh	-4029
irgal	-4030
▁Jibi	-4031
▁koɓe	-4032
dungal	-4033
▁mbayl	-4034
▁daraade	-4035
▁holliti	-4036
▁toɓɓere	-4037
▁Roomnaaɓe	-4038
men	-4039
muɓɓe	-4040
▁tiim	-4041
▁woor	-4042
▁ñall	-4043
inaajo	-4044
▁Yanti	-4045
▁heedi	-4046
▁ugiyya	-4047
▁aynaaɓe	-4048
▁mbinndi	-4049
▁tinaani	-4050
haaɗtirde	-4051
▁ɓooyaani	-4052
eli	-4053
tana	-4054
▁Per	-4055
irgol	-4056
tinaa	-4057
▁avec	-4058
▁capp	-4059
▁siim	-4060
▁woow	-4061
▁kaala	-4062
▁natti	-4063
▁deeƴre	-4064
▁manaam	-4065
▁golwole	-4066
▁naamnii	-4067
▁teskuya	-4068
AD	-4069
ue	-4070
ɓa	-4071
goo	-4072
aarn	-4073
▁paa	-4074
▁arta	-4075
▁barke	-4076
▁mudda	-4077
▁Aysata	-4078
▁Quraan	-4079
▁lomtii	-4080
▁kaawise	-4081
▁pulaagu	-4082
▁eɓɓaande	-4083
▁luulndii	-4084
▁fiyakuuji	-4085
▁jamirooje	-4086
▁q	-4087
ver	-4088
▁bee	-4089
▁ceŋ	-4090
▁Aten	-4091
▁ende	-4092
▁naaf	-4093
▁gacce	-4094
allaahi	-4095
eteende	-4096
▁teeminannde	-4097
ct	-4098
we	-4099
’’	-4100
aut	-4101
eraal	-4102
taaɗe	-4103
teeɗo	-4104
▁faal	-4105
▁kaɓɓ	-4106
▁tago	-4107
aayiil	-4108
itaare	-4109
▁njeew	-4110
▁njoor	-4111
▁seppo	-4112
▁wolof	-4113
▁dewgal	-4114
▁dolaar	-4115
▁falnde	-4116
▁lappol	-4117
OL	-4118
cci	-4119
ves	-4120
▁nano	-4121
taango	-4122
▁leppi	-4123
▁njaha	-4124
▁sadak	-4125
▁tokos	-4126
▁yiyii	-4127
▁Kummba	-4128
▁njillu	-4129
▁yaawde	-4130
▁diwooje	-4131
▁jeetati	-4132
▁waɗaani	-4133
▁neɗɗaagu	-4134
amo	-4135
nat	-4136
ines	-4137
tine	-4138
▁nja	-4139
▁Ɓee	-4140
aarii	-4141
▁Haam	-4142
▁noppi	-4143
Ganndal	-4144
▁juɓɓule	-4145
▁wiyeede	-4146
▁yontaaji	-4147
▁sariyaaji	-4148
gan	-4149
▁ye	-4150
diis	-4151
▁mof	-4152
▁Sank	-4153
▁kuur	-4154
▁Gorko	-4155
▁rokka	-4156
▁mboros	-4157
▁njogor	-4158
▁yolnde	-4159
▁yaafuya	-4160
▁yettaade	-4161
lé	-4162
mii	-4163
ɓol	-4164
▁Bo	-4165
▁Hab	-4166
unndi	-4167
▁maɓe	-4168
▁cette	-4169
alleeɓe	-4170
▁baagal	-4171
▁kalifu	-4172
▁teskii	-4173
▁woodde	-4174
▁almuudo	-4175
▁doosgal	-4176
ternation	-4177
tas	-4178
iisi	-4179
▁Wad	-4180
▁col	-4181
jiilo	-4182
▁waɗe	-4183
▁woot	-4184
▁Lewru	-4185
▁makka	-4186
▁yiɗɓe	-4187
▁mbiyata	-4188
▁fuɗɗiima	-4189
dr	-4190
▁46	-4191
▁Kh	-4192
▁nas	-4193
▁ran	-4194
▁ɗan	-4195
▁Geɗe	-4196
anooka	-4197
▁Annab	-4198
▁luure	-4199
▁marse	-4200
▁keewɗo	-4201
▁sarɗiiji	-4202
lel	-4203
▁Jo	-4204
▁Ɗi	-4205
akal	-4206
olli	-4207
raan	-4208
▁baa	-4209
▁buu	-4210
▁lan	-4211
▁sii	-4212
▁Abii	-4213
▁gumm	-4214
▁seyɗ	-4215
▁Barak	-4216
▁welde	-4217
▁hesere	-4218
▁jeenay	-4219
▁luural	-4220
▁mawnin	-4221
▁almuɓɓe	-4222
▁Suwoyraat	-4223
▁jahannama	-4224
nan	-4225
▁(4	-4226
▁Wi	-4227
empe	-4228
erec	-4229
▁puu	-4230
walla	-4231
▁toɓo	-4232
▁wull	-4233
aawiya	-4234
▁ganni	-4235
▁haalooɓe	-4236
▁heewaani	-4237
▁ngenndii	-4238
ppu	-4239
▁es	-4240
kina	-4241
▁ked	-4242
▁jang	-4243
▁Tawde	-4244
▁pucci	-4245
▁hinnde	-4246
▁woniri	-4247
▁yottii	-4248
▁haalata	-4249
▁njiɗnoo	-4250
▁ɗaɓɓude	-4251
oowa	-4252
undi	-4253
▁193	-4254
▁Abu	-4255
▁Mag	-4256
▁Maas	-4257
▁koɗo	-4258
▁nous	-4259
▁Afiri	-4260
▁ngara	-4261
▁feewnude	-4262
▁heefereeɓe	-4263
.📷	-4264
ram	-4265
say	-4266
▁sy	-4267
ddir	-4268
▁pam	-4269
▁pre	-4270
▁sor	-4271
torde	-4272
▁hump	-4273
▁bonɗo	-4274
▁jeeri	-4275
▁miɗen	-4276
▁welaa	-4277
▁niɓɓere	-4278
▁Pol	-4279
▁Tan	-4280
ɓinii	-4281
▁keed	-4282
▁yaak	-4283
▁arsik	-4284
▁kinɗe	-4285
▁njagg	-4286
▁wiyɓe	-4287
uutankooɓe	-4288
II	-4289
▁[	-4290
ral	-4291
arul	-4292
ooɗi	-4293
ordu	-4294
otde	-4295
▁gel	-4296
▁Ɓal	-4297
aawol	-4298
tique	-4299
torɗe	-4300
▁maaya	-4301
▁wooto	-4302
▁Nation	-4303
▁ittude	-4304
▁sunaare	-4305
▁hooreeɓe	-4306
▁jinnaaɓe	-4307
▁naamndii	-4308
................	-4309
AR	-4310
▁Ch	-4311
▁tr	-4312
iɗde	-4313
owal	-4314
▁Aam	-4315
▁ƴee	-4316
▁neli	-4317
▁tiiɗi	-4318
▁Ganndal	-4319
▁ngalɗoo	-4320
▁ɗanngal	-4321
▁senegaal	-4322
▁settaambar	-4323
ER	-4324
der	-4325
▁gu	-4326
ndal	-4327
▁Fon	-4328
▁Kur	-4329
▁pew	-4330
daama	-4331
itgol	-4332
▁Ndar	-4333
▁nayo	-4334
inaani	-4335
inguis	-4336
▁gannd	-4337
▁njuut	-4338
▁Ɗemɗe	-4339
▁yaajde	-4340
▁ɓennii	-4341
▁adannde	-4342
▁hareeji	-4343
▁tippudi	-4344
▁kuutoragol	-4345
bba	-4346
dana	-4347
▁pré	-4348
▁ɗal	-4349
▁amin	-4350
▁njeñ	-4351
meendi	-4352
▁njaɓɓ	-4353
▁wiyii	-4354
addaafi	-4355
iilirde	-4356
▁Bookar	-4357
▁loowdi	-4358
▁ñannde	-4359
▁Sukaaɓe	-4360
▁jihaadi	-4361
▁koreeji	-4362
▁naamnal	-4363
▁Banndiraaɓe	-4364
»,	-4365
▁ف	-4366
jel	-4367
oole	-4368
▁Muk	-4369
oogle	-4370
▁Maay	-4371
▁Nder	-4372
▁giɗo	-4373
▁ɓall	-4374
inooje	-4375
▁Galle	-4376
▁Maley	-4377
▁Sikke	-4378
▁heblo	-4379
▁maggo	-4380
▁milit	-4381
▁sanam	-4382
▁Niiseer	-4383
▁goɗngol	-4384
▁warhoore	-4385
▁guwarnama	-4386
▁70	-4387
▁Hi	-4388
ɗuɗe	-4389
▁duñ	-4390
▁kat	-4391
▁yay	-4392
ɗeeli	-4393
▁Elim	-4394
▁Jaal	-4395
▁pooɗ	-4396
▁wakk	-4397
▁almud	-4398
▁fitir	-4399
▁humam	-4400
▁njaaj	-4401
▁yaawi	-4402
▁mbaasa	-4403
▁otooji	-4404
▁waasɓe	-4405
▁musiɗɗo	-4406
▁wonaani	-4407
▁ƴettude	-4408
▁Kaddaafi	-4409
▁fulfulde	-4410
▁jawɗeele	-4411
▁tigirigi	-4412
▁diiwanuuji	-4413
▁Pe	-4414
aako	-4415
iiba	-4416
illi	-4417
itan	-4418
▁Taf	-4419
▁dis	-4420
▁jet	-4421
lagol	-4422
stitu	-4423
▁Alas	-4424
ngaagu	-4425
▁Tuure	-4426
▁muñal	-4427
▁sahre	-4428
▁wooda	-4429
▁laaɓal	-4430
▁ɓeeɗoo	-4431
▁yiyannde	-4432
▁huutoreede	-4433
aga	-4434
irɗi	-4435
ɗini	-4436
▁Ted	-4437
▁hew	-4438
tinee	-4439
▁kesi	-4440
▁njol	-4441
anooɗe	-4442
emmbol	-4443
minist	-4444
▁ndewi	-4445
▁njaaf	-4446
▁naamno	-4447
▁tataɓo	-4448
▁Badarul	-4449
▁suukara	-4450
▁ƴeewtin	-4451
kal	-4452
ɗto	-4453
woni	-4454
▁app	-4455
kkere	-4456
▁kiis	-4457
▁Itali	-4458
▁baali	-4459
▁kesal	-4460
▁nannd	-4461
▁konngi	-4462
▁njamndi	-4463
▁culturelle	-4464
nes	-4465
abba	-4466
edda	-4467
kaan	-4468
▁ber	-4469
▁ruu	-4470
balɓe	-4471
daare	-4472
▁haaj	-4473
▁kump	-4474
▁ngum	-4475
▁jagge	-4476
▁waɗan	-4477
▁Sankara	-4478
▁gonnooɗo	-4479
▁mooliiɓe	-4480
ps	-4481
ami	-4482
dia	-4483
ima	-4484
ères	-4485
▁Nas	-4486
▁hat	-4487
▁annde	-4488
▁cukko	-4489
▁ekkol	-4490
▁hajju	-4491
▁refti	-4492
▁tuddu	-4493
▁ndeenka	-4494
▁wooteeji	-4495
DA	-4496
▁{	-4497
---	-4498
awa	-4499
ble	-4500
lan	-4501
▁hu	-4502
▁Kul	-4503
▁Ndu	-4504
▁has	-4505
▁lab	-4506
▁Tawi	-4507
▁yooɓ	-4508
▁salli	-4509
▁woppi	-4510
▁commun	-4511
ngotooɗo	-4512
▁holliri	-4513
▁jaɓaani	-4514
▁jogiiɗo	-4515
▁dowlaaji	-4516
▁demokaraasi	-4517
▁miliyaaruuji	-4518
awu	-4519
int	-4520
vel	-4521
aado	-4522
ants	-4523
▁pos	-4524
▁sañ	-4525
▁tef	-4526
▁ɗaɗi	-4527
iyaaɓe	-4528
taagal	-4529
▁Diine	-4530
▁fuɗɗi	-4531
▁ñaama	-4532
▁ɓadii	-4533
illaaji	-4534
▁ontuma	-4535
▁ngardii	-4536
▁njaaweeki	-4537
WM	-4538
iɗɗi	-4539
▁Bal	-4540
▁ala	-4541
▁piɓ	-4542
tinta	-4543
ɗinde	-4544
▁jogi	-4545
▁2009,	-4546
▁dummb	-4547
▁yuɓɓin	-4548
▁Abdallaahi	-4549
gh	-4550
pen	-4551
waa	-4552
▁(3	-4553
▁1-	-4554
oraa	-4555
être	-4556
▁bur	-4557
▁eer	-4558
▁jof	-4559
▁sew	-4560
anngu	-4561
▁Pari	-4562
▁tijj	-4563
itagol	-4564
▁Muusa	-4565
▁arata	-4566
▁garɗo	-4567
aabawol	-4568
▁hattan	-4569
▁Israayiil	-4570
▁mbayliigu	-4571
▁bakkatuuji	-4572
ck	-4573
▁43	-4574
dent	-4575
teeɗe	-4576
▁Faal	-4577
▁Faat	-4578
▁Ngoo	-4579
▁jaaw	-4580
inaare	-4581
▁hulde	-4582
▁jooɗo	-4583
▁ɓenni	-4584
▁coftal	-4585
▁njalti	-4586
▁aljumaa	-4587
▁kollitii	-4588
▁persidaa	-4589
sir	-4590
ump	-4591
▁42	-4592
▁48	-4593
atoj	-4594
fici	-4595
▁San	-4596
▁tor	-4597
▁jala	-4598
▁jikk	-4599
▁jook	-4600
tungol	-4601
▁jimɗi	-4602
▁jinng	-4603
▁puccu	-4604
▁waɗee	-4605
inaango	-4606
▁addana	-4607
▁ngonti	-4608
▁Ɗumɗoo	-4609
▁jippini	-4610
▁haralleeɓe	-4611
ye	-4612
iss	-4613
Mate	-4614
oolo	-4615
▁Laa	-4616
▁ŋar	-4617
unndu	-4618
▁Etaa	-4619
▁Jaay	-4620
▁dall	-4621
▁huɓɓ	-4622
▁suus	-4623
▁Buubu	-4624
▁njaar	-4625
▁sarɗi	-4626
▁mawngu	-4627
▁kaliifa	-4628
▁nafooje	-4629
▁moƴƴaani	-4630
▁jannginde	-4631
▁keeweendi	-4632
iv	-4633
ddu	-4634
▁41	-4635
▁Fas	-4636
▁Jii	-4637
▁déc	-4638
▁dupp	-4639
▁raɓɓ	-4640
▁Jaŋde	-4641
▁alkam	-4642
▁entre	-4643
▁njooɗ	-4644
▁hollit	-4645
▁inniri	-4646
▁ndenndi	-4647
▁remooɓe	-4648
2)	-4649
hat	-4650
ind	-4651
▁47	-4652
aaya	-4653
hare	-4654
uddi	-4655
ures	-4656
▁189	-4657
▁ANC	-4658
▁joñ	-4659
▁Ɓur	-4660
runoo	-4661
▁aaya	-4662
▁goob	-4663
▁half	-4664
▁joyi	-4665
▁keɓa	-4666
inaaji	-4667
▁kaake	-4668
▁neldi	-4669
▁naamne	-4670
yankooɓe	-4671
▁français	-4672
▁hujjaaji	-4673
enseignement	-4674
▁39	-4675
▁?”	-4676
▁Ro	-4677
roit	-4678
▁ɓul	-4679
▁poof	-4680
iraama	-4681
▁Makki	-4682
▁tesko	-4683
▁koyngal	-4684
▁Mariyaama	-4685
▁taaniraaɓe	-4686
▁Gereesnaaɓe	-4687
UN	-4688
bbe	-4689
hee	-4690
ayɓe	-4691
▁Bel	-4692
▁ard	-4693
▁eew	-4694
▁jiɗ	-4695
▁Hare	-4696
▁ciif	-4697
▁daɓɓ	-4698
▁deƴƴ	-4699
▁ngee	-4700
▁puɗi	-4701
▁siif	-4702
▁this	-4703
ereeji	-4704
▁Moodi	-4705
▁golli	-4706
▁ngoƴa	-4707
▁Haayre	-4708
▁kollit	-4709
▁maggel	-4710
▁wonndi	-4711
▁waylude	-4712
▁Lislaamu	-4713
▁Yiilirde	-4714
▁ceertuɗi	-4715
▁humambin	-4716
▁naalanke	-4717
▁Ibraahiim	-4718
▁ngenndiyankooɓe	-4719
ks	-4720
ña	-4721
َا	-4722
▁80	-4723
▁UN	-4724
▁Saf	-4725
▁cew	-4726
naani	-4727
▁Enen	-4728
▁fait	-4729
▁fill	-4730
▁good	-4731
▁hebb	-4732
▁ɗimm	-4733
▁Maayo	-4734
▁baɗɗo	-4735
▁laaɓa	-4736
▁mbaal	-4737
▁Engele	-4738
▁haalan	-4739
▁keerol	-4740
▁lewndu	-4741
▁Almaami	-4742
▁Salannga	-4743
▁ب	-4744
jol	-4745
efti	-4746
ités	-4747
tori	-4748
▁Ine	-4749
▁Sin	-4750
elles	-4751
▁jiil	-4752
▁njim	-4753
▁seto	-4754
▁ɓeya	-4755
tamlam	-4756
▁nafata	-4757
▁gollude	-4758
▁jiyaaɗo	-4759
▁yantude	-4760
ago	-4761
olog	-4762
▁Ren	-4763
▁aaɓ	-4764
▁ger	-4765
▁Ajii	-4766
▁Tawa	-4767
▁baɗe	-4768
▁doga	-4769
▁woɗɗ	-4770
▁yank	-4771
▁Catal	-4772
▁Yumma	-4773
▁nodda	-4774
▁tammb	-4775
▁nguuri	-4776
▁njogit	-4777
▁teskiima	-4778
bah	-4779
imi	-4780
non	-4781
▁CO	-4782
iide	-4783
▁fus	-4784
▁ten	-4785
dotoo	-4786
▁keɓi	-4787
▁mari	-4788
▁ndaw	-4789
▁pagg	-4790
▁Ɓooy	-4791
aniiɓe	-4792
▁annda	-4793
▁mboɗo	-4794
▁telef	-4795
▁wadde	-4796
▁Juulɓe	-4797
▁Afriknaaɓe	-4798
LA	-4799
ard	-4800
urm	-4801
▁Ba	-4802
iina	-4803
ndee	-4804
ooba	-4805
orto	-4806
▁Rab	-4807
▁ker	-4808
arabe	-4809
▁Kaal	-4810
▁Sene	-4811
▁ɓakk	-4812
usayni	-4813
▁Pales	-4814
▁beeli	-4815
▁ordin	-4816
▁yurmo	-4817
▁Gorgol	-4818
▁fitina	-4819
▁goodal	-4820
▁ardaade	-4821
▁anndiraa	-4822
▁ceertuɗe	-4823
▁maayirɗe	-4824
cle	-4825
kit	-4826
ɗol	-4827
▁44	-4828
▁At	-4829
kiri	-4830
uwal	-4831
▁400	-4832
▁Gal	-4833
▁bir	-4834
▁gen	-4835
▁ɓaɗ	-4836
▁Aaye	-4837
▁Diis	-4838
▁Mbiy	-4839
▁dimo	-4840
▁mars	-4841
▁Japon	-4842
▁lelii	-4843
▁notre	-4844
▁toowde	-4845
▁fodoore	-4846
▁njeeygu	-4847
▁ummaade	-4848
▁laatiima	-4849
ooninkooɓe	-4850
UL	-4851
aya	-4852
kew	-4853
umi	-4854
▁2-	-4855
▁Ɗe	-4856
form	-4857
ooli	-4858
tant	-4859
éren	-4860
asiihu	-4861
▁Nuuru	-4862
▁Seeku	-4863
▁anndii	-4864
▁koolol	-4865
▁mbaɗaa	-4866
▁nanndu	-4867
▁teskaa	-4868
▁wondiiɓe	-4869
lew	-4870
▁Ob	-4871
aala	-4872
omaa	-4873
tane	-4874
▁Mbay	-4875
▁ndes	-4876
▁keɓii	-4877
▁maaki	-4878
▁maale	-4879
▁seeda	-4880
▁waalo	-4881
▁wanng	-4882
▁njiɗii	-4883
▁potnoo	-4884
▁waɗani	-4885
▁potaani	-4886
ondiraani	-4887
▁cappanɗe	-4888
▁ganndiraaɗo	-4889
aux	-4890
yel	-4891
iire	-4892
▁Cif	-4893
▁2013	-4894
▁Bakk	-4895
▁facc	-4896
▁gaañ	-4897
▁hello	-4898
▁njuum	-4899
▁haalii	-4900
▁jippii	-4901
▁ndaara	-4902
▁njooɗii	-4903
▁yontere	-4904
▁keeriiɗo	-4905
▁weeɓaani	-4906
▁maleykaaji	-4907
▁tuugnorgal	-4908
▁ummoriinde	-4909
En	-4910
org	-4911
til	-4912
ême	-4913
aaga	-4914
nere	-4915
okki	-4916
▁aut	-4917
▁arɓe	-4918
▁cate	-4919
▁werl	-4920
▁giɗli	-4921
▁hiisi	-4922
▁yahdu	-4923
▁anniya	-4924
▁bonnde	-4925
▁laaɓti	-4926
▁ngaari	-4927
▁ngarti	-4928
▁Maasina	-4929
▁piɗtaali	-4930
▁waawataa	-4931
dar	-4932
ESCO	-4933
iije	-4934
oton	-4935
▁Jak	-4936
naama	-4937
tirɗe	-4938
▁Siley	-4939
▁kilom	-4940
▁tumar	-4941
▁yuɓɓo	-4942
▁ndarii	-4943
▁golleeji	-4944
10	-4945
aɗi	-4946
mum	-4947
ndoo	-4948
oral	-4949
▁Dam	-4950
▁was	-4951
▁Araf	-4952
eeriya	-4953
▁arabe	-4954
▁jokku	-4955
▁adiiɓe	-4956
▁yahata	-4957
▁Burkina	-4958
▁jibineede	-4959
▁renndooji	-4960
per	-4961
▁Bat	-4962
▁Bon	-4963
▁Nig	-4964
▁nim	-4965
dataa	-4966
oondu	-4967
▁yaɓɓ	-4968
▁yuum	-4969
▁ɗaŋe	-4970
itiiɗi	-4971
▁suɓii	-4972
▁lannda	-4973
▁gadanal	-4974
▁garooji	-4975
▁heɓtude	-4976
▁gollooɓe	-4977
▁Annabiijo	-4978
NG	-4979
dda	-4980
hey	-4981
▁bil	-4982
▁pad	-4983
▁wos	-4984
▁elle	-4985
▁niɓɓ	-4986
▁tepp	-4987
▁yoor	-4988
▁ƴoog	-4989
▁ɓiyi	-4990
▁Sahre	-4991
▁laaci	-4992
▁sunna	-4993
▁ɓiyum	-4994
Masiihu	-4995
▁Ganndo	-4996
▁ƴeewde	-4997
▁kuutorɗe	-4998
ين	-4999
▁51	-5000
▁Aw	-5001
▁Gu	-5002
able	-5003
ɗɗal	-5004
▁Sud	-5005
▁dab	-5006
▁hep	-5007
▁Jaag	-5008
▁Kool	-5009
▁Saam	-5010
▁ngur	-5011
▁sato	-5012
▁soci	-5013
▁bonɗi	-5014
▁daari	-5015
▁gollo	-5016
▁kaali	-5017
▁Ajiiju	-5018
▁faandu	-5019
▁foolde	-5020
▁kiloom	-5021
▁laatii	-5022
▁mbuuɗu	-5023
▁miijii	-5024
▁ɓooyii	-5025
▁siftorde	-5026
are	-5027
owi	-5028
tar	-5029
▁uu	-5030
dira	-5031
ulal	-5032
▁Rajo	-5033
▁Toow	-5034
▁dogde	-5035
▁fijir	-5036
▁jikku	-5037
▁mabba	-5038
▁sosaa	-5039
▁totti	-5040
ankoore	-5041
▁toɗɗaa	-5042
▁daliilu	-5043
des	-5044
▁55	-5045
▁62	-5046
▁Re	-5047
inen	-5048
▁cel	-5049
iisee	-5050
nataa	-5051
tetee	-5052
umata	-5053
▁nduw	-5054
eteeɓe	-5055
iyaŋke	-5056
ndaade	-5057
▁Jowol	-5058
▁Kaaba	-5059
▁addii	-5060
▁mehre	-5061
▁ƴeewa	-5062
▁njiyii	-5063
▁Tuggude	-5064
▁nulaaɗo	-5065
▁taariik	-5066
▁ɓaleeri	-5067
▁fayndaare	-5068
5)	-5069
su	-5070
َّ	-5071
don	-5072
sey	-5073
▁56	-5074
▁Hu	-5075
/201	-5076
atif	-5077
awɗi	-5078
pres	-5079
▁Tig	-5080
▁dut	-5081
▁hur	-5082
naare	-5083
▁moni	-5084
▁sokl	-5085
aangol	-5086
ndugol	-5087
▁dewal	-5088
▁mbayi	-5089
▁parle	-5090
▁woɓɓe	-5091
▁Burkin	-5092
▁artude	-5093
▁rokkii	-5094
▁hollude	-5095
▁gaynaako	-5096
▁pittaali	-5097
▁mauritani	-5098
ayl	-5099
baa	-5100
ogo	-5101
omo	-5102
rik	-5103
▁Tum	-5104
deede	-5105
▁2011	-5106
▁itta	-5107
▁sujj	-5108
▁bolol	-5109
▁jaggi	-5110
▁ɗaɗol	-5111
▁Abbaas	-5112
▁Yuunus	-5113
▁kanndi	-5114
▁sankii	-5115
▁seerti	-5116
▁ñaagii	-5117
ɗiraagal	-5118
▁woppude	-5119
▁Linjiila	-5120
▁militeer	-5121
▁ɓeydaade	-5122
gy	-5123
▁Ce	-5124
...)	-5125
uwaa	-5126
▁Kal	-5127
▁cor	-5128
▁cuɗ	-5129
toyii	-5130
▁adda	-5131
▁horm	-5132
▁yaaɓ	-5133
▁ngoor	-5134
▁tedde	-5135
▁fellit	-5136
▁Muktaar	-5137
▁kaalata	-5138
▁ngelooba	-5139
▁taariindi	-5140
▁bonanndeeji	-5141
idi	-5142
▁Aa	-5143
tono	-5144
▁Fuɗ	-5145
▁Uni	-5146
▁boɗ	-5147
▁ceh	-5148
▁gom	-5149
roowo	-5150
▁huɗo	-5151
inndol	-5152
▁Ellee	-5153
▁Enndo	-5154
▁Pelle	-5155
▁hujja	-5156
▁maako	-5157
▁nduun	-5158
▁peewn	-5159
▁Hammee	-5160
▁ƴettii	-5161
▁Hammaat	-5162
▁haɓaade	-5163
▁laamaade	-5164
▁ngootiri	-5165
▁wonnooɓe	-5166
▁ƴellitde	-5167
▁seedantaagal	-5168
ND	-5169
▁Ni	-5170
▁ii	-5171
▁tu	-5172
abbi	-5173
aysi	-5174
jere	-5175
▁Ibl	-5176
▁Mbe	-5177
▁Yaz	-5178
▁cat	-5179
▁din	-5180
amako	-5181
▁2009	-5182
▁2012	-5183
▁FƁPM	-5184
▁Israa	-5185
▁calii	-5186
▁jawɗi	-5187
▁mbedd	-5188
▁rokkaa	-5189
▁goɗngal	-5190
▁waɗande	-5191
▁wiyaama	-5192
▁ɓamtude	-5193
▁koolaaɗo	-5194
Ar	-5195
▁Ki	-5196
iyel	-5197
▁300	-5198
▁Eli	-5199
▁Hal	-5200
▁ciy	-5201
▁ɗom	-5202
▁Kajj	-5203
anooɗi	-5204
▁jabet	-5205
▁mahde	-5206
▁njoof	-5207
▁Google	-5208
▁banndum	-5209
▁gondiiɓe	-5210
▁jaagorgal	-5211
MA	-5212
ott	-5213
pol	-5214
wel	-5215
éri	-5216
ɲum	-5217
▁SN	-5218
▁Pen	-5219
▁Por	-5220
▁kuf	-5221
ɗorɗe	-5222
▁2017	-5223
▁dogi	-5224
▁soof	-5225
anngoo	-5226
eteeɗe	-5227
▁duule	-5228
▁kelle	-5229
▁njiil	-5230
▁ñaami	-5231
▁huwtor	-5232
▁Muhammad	-5233
▁laaɓtunde	-5234
▁Jaafatooɗo	-5235
لا	-5236
ike	-5237
koy	-5238
ŋke	-5239
ooso	-5240
▁seŋ	-5241
aasam	-5242
dooɓe	-5243
▁kure	-5244
abilon	-5245
atooɓe	-5246
▁Waalo	-5247
▁wayde	-5248
▁waylo	-5249
▁Kawtal	-5250
▁fewndo	-5251
▁musiiba	-5252
▁ɓiyiiko	-5253
▁keddiiɗi	-5254
▁toppitii	-5255
ndiyankooɓe	-5256
▁kalifaandi	-5257
▁ñe	-5258
iyyu	-5259
ppii	-5260
▁Jel	-5261
▁jus	-5262
oktor	-5263
rewol	-5264
▁hers	-5265
▁ɗeɓi	-5266
anaama	-5267
▁2013,	-5268
▁Share	-5269
▁mbari	-5270
▁yanii	-5271
▁yimre	-5272
▁Elimaan	-5273
▁hisnude	-5274
▁manndaa	-5275
▁meeɗaani	-5276
▁Faatumata	-5277
▁Palestiin	-5278
▁إ	-5279
fde	-5280
ooŋ	-5281
▁90	-5282
amad	-5283
cien	-5284
ewal	-5285
▁Eji	-5286
▁Yon	-5287
▁cay	-5288
▁ɗoy	-5289
otono	-5290
▁Etas	-5291
▁Faray	-5292
▁Rewɓe	-5293
▁lommb	-5294
▁piiji	-5295
▁ɓurti	-5296
▁Huunde	-5297
▁waɗtii	-5298
▁weendu	-5299
▁yontii	-5300
▁Etasoni	-5301
▁winndaa	-5302
▁wooturu	-5303
▁yiilirde	-5304
▁hojomaaji	-5305
Ma	-5306
éc	-5307
bir	-5308
our	-5309
pul	-5310
insi	-5311
daagu	-5312
toyde	-5313
irooɓe	-5314
▁Minen	-5315
▁fetel	-5316
▁jaŋng	-5317
▁nawde	-5318
▁ñemmb	-5319
Quraana	-5320
▁conndi	-5321
▁tiiɗde	-5322
▁Babilon	-5323
▁tiindii	-5324
▁Haamiidu	-5325
▁Aarabeeɓe	-5326
▁politique	-5327
------------	-5328
▁mooɓondiral	-5329
▁ngoongɗinii	-5330
ɗɗ	-5331
iyu	-5332
war	-5333
hono	-5334
usal	-5335
▁Kab	-5336
▁doŋ	-5337
▁2014	-5338
▁aset	-5339
▁haaɗ	-5340
▁nees	-5341
▁ngit	-5342
▁taƴi	-5343
▁balle	-5344
▁takko	-5345
aaruuji	-5346
acebook	-5347
▁jeynge	-5348
▁laamii	-5349
▁njokki	-5350
▁Karallo	-5351
▁winnder	-5352
▁wiyooɓe	-5353
▁ɓurngal	-5354
▁haanirta	-5355
▁rawaandu	-5356
▁kelmeendi	-5357
va	-5358
ejo	-5359
ñal	-5360
ŋng	-5361
duɗe	-5362
mbre	-5363
▁Tii	-5364
▁ces	-5365
▁cog	-5366
▁été	-5367
aayaa	-5368
▁jill	-5369
▁vous	-5370
▁ŋabb	-5371
▁Musta	-5372
▁Siree	-5373
▁liɗɗi	-5374
▁yande	-5375
▁ɓurde	-5376
inndere	-5377
▁Goonga	-5378
▁Heewɓe	-5379
▁Barooɓe	-5380
▁Doktoor	-5381
▁Senegal	-5382
▁nayeejo	-5383
▁woɗɗude	-5384
▁yahrude	-5385
▁Burkinaa	-5386
▁Tigirigi	-5387
▁Nguurndam	-5388
▁depiteeji	-5389
▁njuuteendi	-5390
▁ngenndiyanke	-5391
▁hakkilantaagal	-5392
RI	-5393
kh	-5394
▁ي	-5395
fii	-5396
▁49	-5397
beer	-5398
noto	-5399
onel	-5400
▁Tab	-5401
leydi	-5402
tions	-5403
▁Irak	-5404
▁daña	-5405
▁halk	-5406
▁mbal	-5407
▁njen	-5408
▁teɓɓ	-5409
▁wara	-5410
ateeri	-5411
▁hayso	-5412
▁haŋki	-5413
▁masiŋ	-5414
▁walli	-5415
▁yahdi	-5416
▁yoɓde	-5417
▁Ngaawe	-5418
▁sakkit	-5419
▁yahnoo	-5420
▁Arafaat	-5421
▁hollirde	-5422
▁partiiji	-5423
emmbolinɗo	-5424
▁banngeeji	-5425
▁jokkondirde	-5426
bil	-5427
goll	-5428
iwal	-5429
▁Bas	-5430
▁Cal	-5431
▁Hir	-5432
▁Mes	-5433
▁New	-5434
▁mut	-5435
ammbi	-5436
▁Riis	-5437
▁caaɗ	-5438
▁ummor	-5439
anteeri	-5440
▁Gunaas	-5441
▁jannga	-5442
▁kuwtor	-5443
▁mawnii	-5444
▁noddude	-5445
▁desaambar	-5446
▁jeereende	-5447
▁kaalisaaji	-5448
▁ngannduɗaa	-5449
oi	-5450
oñ	-5451
kam	-5452
ore	-5453
ser	-5454
▁Ses	-5455
▁bew	-5456
▁cum	-5457
▁heñ	-5458
▁lat	-5459
▁2018	-5460
▁Jokk	-5461
▁deux	-5462
▁huli	-5463
▁meer	-5464
▁Tomaa	-5465
▁hulɓe	-5466
▁ɗamin	-5467
Lanndal	-5468
tinaani	-5469
▁asakal	-5470
▁heedde	-5471
▁mahngo	-5472
▁Pulaaku	-5473
▁janngii	-5474
▁limoore	-5475
▁ɓeydude	-5476
▁haajuuji	-5477
▁jinneeji	-5478
▁kumpital	-5479
▁kaawniiɗe	-5480
ɓre	-5481
▁Bil	-5482
▁Ngu	-5483
▁Pod	-5484
▁Ter	-5485
ɗunde	-5486
▁Paam	-5487
▁gaar	-5488
▁innir	-5489
▁kaɲum	-5490
▁meeɗi	-5491
▁njaab	-5492
versité	-5493
▁Heddii	-5494
▁juutde	-5495
▁lamɗam	-5496
▁noddii	-5497
▁toppit	-5498
▁heewnoo	-5499
▁ngolɗoo	-5500
▁nganndir	-5501
▁njeñtudi	-5502
▁waawaano	-5503
▁kuuɓtodin	-5504
▁binnditagol	-5505
ner	-5506
eera	-5507
ndan	-5508
oyta	-5509
oɗen	-5510
▁Arɗo	-5511
▁Batu	-5512
▁jeye	-5513
▁mbee	-5514
▁njon	-5515
▁peññ	-5516
iyeeji	-5517
umaaji	-5518
ɗingol	-5519
▁Diiso	-5520
▁Seydi	-5521
toraade	-5522
▁dokkal	-5523
▁jippin	-5524
▁woodno	-5525
▁AL	-5526
appa	-5527
eewa	-5528
ique	-5529
Ɗuum	-5530
▁Kaa	-5531
▁Sab	-5532
▁say	-5533
aɓere	-5534
toore	-5535
▁coom	-5536
▁joor	-5537
▁mbat	-5538
▁prés	-5539
▁Defte	-5540
▁duuɗe	-5541
eteendi	-5542
▁Bamako	-5543
▁naafig	-5544
▁ciftora	-5545
▁fijirde	-5546
▁ɗiɗmere	-5547
▁lislaamu	-5548
▁naalankooɓe	-5549
IS	-5550
Le	-5551
bam	-5552
▁1.	-5553
▁52	-5554
MJKM	-5555
endi	-5556
eria	-5557
▁Naj	-5558
▁gos	-5559
▁keb	-5560
▁mat	-5561
▁toɓ	-5562
aamee	-5563
niiɗo	-5564
taaɗi	-5565
ɗaaji	-5566
▁Baro	-5567
▁fota	-5568
▁resi	-5569
velopp	-5570
▁Daado	-5571
▁hurum	-5572
▁njuur	-5573
▁ndañii	-5574
ɓondiral	-5575
▁jogiiɓe	-5576
▁njaltin	-5577
▁njejjit	-5578
200	-5579
bnu	-5580
jet	-5581
▁(6	-5582
eewo	-5583
kala	-5584
▁Fer	-5585
▁kuɗ	-5586
▁daab	-5587
▁dowl	-5588
▁keɓe	-5589
abuuji	-5590
nguure	-5591
▁jimol	-5592
▁masla	-5593
▁naala	-5594
▁paayo	-5595
▁saabi	-5596
ondirta	-5597
ondirɗe	-5598
▁rewaani	-5599
▁winndii	-5600
▁yeruuji	-5601
▁yiyaani	-5602
▁Ɓuraana	-5603
▁ɓuraani	-5604
▁ɗerewol	-5605
▁Hitaande	-5606
▁mbaroodi	-5607
▁yettiima	-5608
▁jaambareeɓe	-5609
MI	-5610
hé	-5611
وا	-5612
and	-5613
tag	-5614
صلى	-5615
▁00	-5616
▁ru	-5617
▁ɓi	-5618
____	-5619
anno	-5620
▁Wal	-5621
▁ana	-5622
▁coo	-5623
aawna	-5624
danaa	-5625
eehey	-5626
onomi	-5627
▁saɗi	-5628
▁Tuggi	-5629
▁gasii	-5630
anndude	-5631
▁Afirik	-5632
▁yeewti	-5633
▁kareeli	-5634
▁keewnoo	-5635
▁haaleede	-5636
▁jotondiral	-5637
Nde	-5638
fin	-5639
pal	-5640
uka	-5641
▁CE	-5642
▁NG	-5643
aire	-5644
fuɓe	-5645
nuɗo	-5646
oyoo	-5647
▁191	-5648
▁Lik	-5649
▁boy	-5650
▁jel	-5651
▁los	-5652
▁luɓ	-5653
▁Firo	-5654
▁SNIM	-5655
▁Yoga	-5656
▁koni	-5657
▁suuɗ	-5658
▁yahr	-5659
awuuji	-5660
▁keɓat	-5661
▁kulee	-5662
▁seere	-5663
▁ɓeyda	-5664
teruuji	-5665
▁etaade	-5666
▁gootum	-5667
▁jaynge	-5668
▁weltii	-5669
▁cukaagu	-5670
▁suɓaade	-5671
▁yahdude	-5672
▁nokkuure	-5673
fr	-5674
kun	-5675
akdi	-5676
▁cow	-5677
▁nje	-5678
▁oor	-5679
▁seh	-5680
▁sud	-5681
▁the	-5682
▁2015	-5683
▁Sule	-5684
▁gagg	-5685
▁newn	-5686
▁teet	-5687
▁yooɗ	-5688
amaanu	-5689
▁tawat	-5690
▁ngadii	-5691
▁huɓeere	-5692
▁waɗooɓe	-5693
▁wiyatee	-5694
▁jaabawol	-5695
▁paayodin	-5696
▁renndini	-5697
4)	-5698
App	-5699
aro	-5700
bol	-5701
jaa	-5702
kil	-5703
pti	-5704
ril	-5705
tim	-5706
▁57	-5707
▁65	-5708
▁Apr	-5709
▁Dak	-5710
▁Gur	-5711
▁Mbo	-5712
▁War	-5713
▁haf	-5714
aafal	-5715
indir	-5716
▁hirj	-5717
▁lill	-5718
aandaa	-5719
pitaal	-5720
▁jumaa	-5721
▁ndewa	-5722
▁ƴeewi	-5723
▁Jiinge	-5724
▁Podoor	-5725
▁leepte	-5726
fulfulde	-5727
▁Mariyam	-5728
▁yiyeede	-5729
▁Facebook	-5730
▁jikkuuji	-5731
▁politigi	-5732
▁Faandaare	-5733
▁jowitiiɗe	-5734
▁neɗɗaagal	-5735
▁tuugnaade	-5736
0)	-5737
ih	-5738
pi	-5739
ñi	-5740
cal	-5741
nel	-5742
rit	-5743
▁Esk	-5744
▁Sil	-5745
▁fut	-5746
▁gum	-5747
▁her	-5748
▁lah	-5749
▁mot	-5750
agadu	-5751
embre	-5752
nooje	-5753
▁2008	-5754
▁haɗa	-5755
▁somp	-5756
ulaaɓe	-5757
uɓɓudi	-5758
▁Nokku	-5759
▁droit	-5760
▁wallu	-5761
▁yalta	-5762
▁yetti	-5763
daneeɓe	-5764
▁fooyre	-5765
▁liingu	-5766
▁njibin	-5767
▁tinndi	-5768
▁toowɗe	-5769
▁Yerusal	-5770
▁ndunngu	-5771
▁bonaande	-5772
▁neɗɗanke	-5773
▁nationale	-5774
3-	-5775
saa	-5776
▁54	-5777
Miin	-5778
orɓe	-5779
owte	-5780
usey	-5781
▁Jee	-5782
▁htt	-5783
▁hina	-5784
▁pouv	-5785
▁sarɗ	-5786
▁syst	-5787
▁ɓeyd	-5788
Ceerno	-5789
▁Ngaal	-5790
▁Parti	-5791
▁Rooso	-5792
▁Woodi	-5793
▁bommb	-5794
▁fuuta	-5795
▁mahdi	-5796
▁njooɓ	-5797
▁suwaa	-5798
▁Daande	-5799
▁gaddan	-5800
▁jarrib	-5801
▁mawndi	-5802
▁ɓooyde	-5803
▁ordinat	-5804
▁wonndude	-5805
▁yuɓɓinii	-5806
▁Ameriknaaɓe	-5807
3)	-5808
7)	-5809
eso	-5810
roŋ	-5811
uve	-5812
waɗ	-5813
akku	-5814
ente	-5815
koto	-5816
▁Naf	-5817
▁taa	-5818
▁tir	-5819
▁ɓor	-5820
ggere	-5821
tital	-5822
ɗaaki	-5823
▁dame	-5824
▁sipp	-5825
inndir	-5826
▁fuɗɗo	-5827
▁lomto	-5828
▁potɗo	-5829
▁premi	-5830
▁ruuhu	-5831
tinooma	-5832
▁Bahbah	-5833
▁gunaas	-5834
▁maanaa	-5835
▁ndewee	-5836
▁winndu	-5837
▁yarlit	-5838
▁Alaseri	-5839
▁almudɓe	-5840
▁haalani	-5841
▁ɓennuɗi	-5842
alfinaaɗo	-5843
▁jannguɓe	-5844
▁jooɗaade	-5845
▁keeriiɗe	-5846
yd	-5847
▁53	-5848
▁Tr	-5849
iste	-5850
▁bey	-5851
▁tro	-5852
▁ɓiɗ	-5853
▁jogo	-5854
▁kibb	-5855
▁même	-5856
▁sapp	-5857
▁être	-5858
aniima	-5859
ataako	-5860
pendan	-5861
tatnoo	-5862
tirgol	-5863
▁Jeeri	-5864
▁Ngati	-5865
▁Sesar	-5866
▁Seyku	-5867
▁finaa	-5868
▁lasli	-5869
▁waade	-5870
▁lomtin	-5871
▁heɓaani	-5872
▁moƴƴuɓe	-5873
▁ñaawoowo	-5874
▁ngaynaaka	-5875
▁wasiyaaji	-5876
év	-5877
dis	-5878
▁68	-5879
▁kh	-5880
▁من	-5881
deer	-5882
kewe	-5883
▁Kañ	-5884
▁Pro	-5885
annda	-5886
danoo	-5887
looji	-5888
nunoo	-5889
▁diff	-5890
▁paab	-5891
▁piil	-5892
▁ɗemɗ	-5893
alaata	-5894
itiino	-5895
▁Tuuba	-5896
▁garal	-5897
▁roŋki	-5898
▁yeddi	-5899
▁yooɗi	-5900
dinooɗo	-5901
▁tuugii	-5902
▁Kajjata	-5903
▁bonnude	-5904
▁gelooɗi	-5905
▁keneeli	-5906
▁saaysay	-5907
▁Sooninke	-5908
▁jeeyngal	-5909
▁mbiyetee	-5910
▁yottiima	-5911
▁wertaango	-5912
▁goongɗinɗo	-5913
▁hiirnaange	-5914
12	-5915
?"	-5916
EE	-5917
sar	-5918
▁3-	-5919
▁ab	-5920
atul	-5921
▁Ɓes	-5922
▁Jeer	-5923
▁Seer	-5924
▁Tigi	-5925
▁kann	-5926
▁koor	-5927
▁koɗi	-5928
▁mahi	-5929
▁ngan	-5930
▁paɗe	-5931
▁ronk	-5932
▁ɓami	-5933
iraani	-5934
itaire	-5935
▁Kalif	-5936
▁Wagadu	-5937
▁ceerti	-5938
▁mawngo	-5939
▁njiɗaa	-5940
▁sagata	-5941
▁timmin	-5942
▁wiynoo	-5943
▁wiɗtude	-5944
▁wonataa	-5945
▁mbaawnoo	-5946
ون	-5947
awi	-5948
cer	-5949
eec	-5950
oti	-5951
ret	-5952
dina	-5953
liis	-5954
▁yil	-5955
anngo	-5956
nirɗe	-5957
▁1989	-5958
▁maam	-5959
▁mais	-5960
▁njuu	-5961
▁ƴeeŋ	-5962
▁Hedde	-5963
▁Winnd	-5964
▁hiisa	-5965
▁imaam	-5966
▁ndool	-5967
▁neema	-5968
▁paami	-5969
indaade	-5970
▁haalaa	-5971
▁hoddir	-5972
▁koyɗol	-5973
▁ɓoggol	-5974
▁Dentuɗe	-5975
▁Konngol	-5976
▁addanii	-5977
▁telefoŋ	-5978
▁Seneraal	-5979
▁njaaraama	-5980
▁Anngalteernaaɓe	-5981
mon	-5982
moo	-5983
ord	-5984
wee	-5985
▁Ju	-5986
aafe	-5987
cole	-5988
feer	-5989
▁cla	-5990
▁ses	-5991
laamu	-5992
▁2016	-5993
▁géné	-5994
▁jalb	-5995
▁mbaa	-5996
▁ndef	-5997
▁ɓenn	-5998
▁ɗiɗm	-5999
▁2008,	-6000
▁Innde	-6001
▁Riisi	-6002
▁kuuge	-6003
▁pijir	-6004
▁reeni	-6005
▁tagɗo	-6006
▁ɓoggi	-6007
▁ciimti	-6008
▁kullon	-6009
▁naatni	-6010
▁ñaawde	-6011
▁linguis	-6012
▁Leyɗeele	-6013
▁haaldude	-6014
▁hiisiwal	-6015
▁ɓeydiima	-6016
▁noddaango	-6017
▁tawtoraama	-6018
▁------------	-6019
//	-6020
4-	-6021
Nj	-6022
ñe	-6023
sal	-6024
orɗi	-6025
▁Dim	-6026
▁Kaŋ	-6027
▁Sun	-6028
▁tem	-6029
ktaar	-6030
sions	-6031
▁Amin	-6032
▁sabb	-6033
▁suum	-6034
▁Amadu	-6035
▁gadii	-6036
▁maggu	-6037
▁minis	-6038
▁yahri	-6039
ondirɗi	-6040
▁heɓtin	-6041
▁jiiɓru	-6042
▁laaɓɗo	-6043
▁ndutto	-6044
▁werlaa	-6045
▁yooɗde	-6046
▁Maleyka	-6047
▁Naniraa	-6048
▁hoɗorde	-6049
▁nafataa	-6050
▁subalɓe	-6051
▁wontude	-6052
▁ɗereeji	-6053
▁mawninde	-6054
▁njettoor	-6055
▁seerndude	-6056
▁tabitinde	-6057
▁goongɗinde	-6058
AO	-6059
RA	-6060
TA	-6061
ler	-6062
sil	-6063
▁mé	-6064
ggal	-6065
▁Dan	-6066
▁Mon	-6067
▁Pur	-6068
▁Sim	-6069
▁jen	-6070
▁moy	-6071
▁nof	-6072
▁uur	-6073
▁Ɓey	-6074
▁cujj	-6075
▁huur	-6076
▁rewa	-6077
atenoo	-6078
partaa	-6079
usaynu	-6080
▁Fotde	-6081
▁Sayku	-6082
▁geɗel	-6083
▁heɓti	-6084
▁hokki	-6085
▁holla	-6086
▁makki	-6087
ankooje	-6088
▁Kuuɓal	-6089
▁Sudaan	-6090
▁UNESCO	-6091
▁cuurki	-6092
▁cuuɗii	-6093
▁tuundi	-6094
▁ustude	-6095
▁yaltii	-6096
▁artirde	-6097
▁batuuji	-6098
▁diineeji	-6099
▁ngonaani	-6100
▁goongɗini	-6101
▁sosiyatee	-6102
▁ballondiral	-6103
ŋƴ	-6104
://	-6105
aaŋ	-6106
iik	-6107
▁58	-6108
▁59	-6109
arba	-6110
▁Aɓe	-6111
▁Kis	-6112
▁pes	-6113
▁peŋ	-6114
▁ƴam	-6115
daaki	-6116
diise	-6117
gaaji	-6118
tidin	-6119
tiraa	-6120
uduur	-6121
yanke	-6122
▁Ciim	-6123
▁Ngar	-6124
▁Ngel	-6125
▁yoɓe	-6126
anaani	-6127
eriyaa	-6128
▁Ganaa	-6129
▁Hajji	-6130
▁cikki	-6131
▁faami	-6132
▁mboom	-6133
▁sirlu	-6134
▁Ibliis	-6135
▁anndin	-6136
▁diɗɗal	-6137
▁ngaska	-6138
▁dañaani	-6139
▁mettere	-6140
▁pelliti	-6141
▁fuɗɗorii	-6142
▁mbaɗaani	-6143
▁mbeleema	-6144
ho	-6145
vo	-6146
’:	-6147
▁64	-6148
anɓe	-6149
miin	-6150
olon	-6151
stan	-6152
uuɓe	-6153
▁Njo	-6154
▁Sag	-6155
▁Tur	-6156
▁Tuu	-6157
▁liɓ	-6158
▁éta	-6159
▁ɓin	-6160
daaji	-6161
▁Maar	-6162
▁feƴƴ	-6163
▁kuli	-6164
▁saha	-6165
▁wujj	-6166
▁ɗakk	-6167
▁Haala	-6168
▁Hoore	-6169
▁Misir	-6170
▁becce	-6171
▁dowri	-6172
▁hatoj	-6173
▁heddo	-6174
▁hoɗde	-6175
▁kaaɗi	-6176
▁heewii	-6177
▁njurum	-6178
▁tufnde	-6179
▁woyndu	-6180
▁ƴeewii	-6181
▁Dentuɗi	-6182
▁mbaɗnoo	-6183
▁janngini	-6184
▁seppooji	-6185
▁daraniiɓe	-6186
▁ɗaɓɓaande	-6187
▁humpitaade	-6188
▁Cemmbolinɗo	-6189
▁internation	-6190
▁muritaninaaɓe	-6191
CE	-6192
gar	-6193
soci	-6194
uktu	-6195
ɗiɗo	-6196
▁Hor	-6197
▁Las	-6198
▁Nay	-6199
▁bag	-6200
▁ful	-6201
▁pla	-6202
▁Ɓay	-6203
aahal	-6204
cteur	-6205
uulde	-6206
▁caab	-6207
▁korm	-6208
▁sarw	-6209
▁sera	-6210
▁yarl	-6211
taande	-6212
▁Feere	-6213
▁Obama	-6214
▁Ruuhu	-6215
▁Saali	-6216
▁dañal	-6217
▁daɗnd	-6218
▁jinne	-6219
▁jonte	-6220
▁komin	-6221
▁njedd	-6222
▁njiyl	-6223
▁njogi	-6224
▁sarde	-6225
▁wiide	-6226
▁Yaayaa	-6227
▁feewɓe	-6228
▁waɗtan	-6229
▁jaambur	-6230
▁Seyɗaane	-6231
▁ñawndude	-6232
▁ɓeydagol	-6233
▁laamaandi	-6234
▁ñenngotooɗo	-6235
Ina	-6236
bak	-6237
cro	-6238
yii	-6239
▁75	-6240
▁Ad	-6241
aayi	-6242
atik	-6243
jann	-6244
kuur	-6245
▁Ber	-6246
▁Dog	-6247
▁UPR	-6248
▁Yor	-6249
▁dev	-6250
▁oog	-6251
ateur	-6252
naaɗe	-6253
ŋeeji	-6254
▁Faso	-6255
▁Naaj	-6256
▁Oɗon	-6257
▁form	-6258
▁kalf	-6259
▁pers	-6260
▁rigi	-6261
▁wowl	-6262
▁ɓeto	-6263
anaaka	-6264
aɗeele	-6265
itaaji	-6266
orinoo	-6267
▁2014,	-6268
▁Worgo	-6269
▁baɗte	-6270
▁selli	-6271
▁yaaji	-6272
▁cuusal	-6273
▁mbabba	-6274
▁paamii	-6275
▁sikkaa	-6276
▁winnda	-6277
▁yaafoo	-6278
▁fitirla	-6279
▁nanataa	-6280
▁waɗaama	-6281
▁woɗeeɓe	-6282
▁Mohammad	-6283
▁ñaawooje	-6284
▁mbaɗatnoo	-6285
’,	-6286
cul	-6287
ide	-6288
lar	-6289
ayɗi	-6290
eeno	-6291
▁Gam	-6292
▁bas	-6293
▁hey	-6294
▁leñ	-6295
daaɓe	-6296
▁2010	-6297
▁Fira	-6298
▁harm	-6299
▁ɗiɗe	-6300
aruuji	-6301
énégal	-6302
▁coggu	-6303
▁darja	-6304
▁hasii	-6305
▁keeci	-6306
▁ngabb	-6307
▁wondu	-6308
anteeɓe	-6309
▁guurɗo	-6310
▁kewnoo	-6311
▁Mediina	-6312
▁jeyngol	-6313
▁tokooso	-6314
▁waawata	-6315
▁Ñalawma	-6316
▁nanondir	-6317
▁yaltinii	-6318
▁daraniiɗe	-6319
▁humambinn	-6320
▁pattamlam	-6321
▁reentaade	-6322
veloppement	-6323
cto	-6324
hol	-6325
mmb	-6326
oɗɓe	-6327
▁190	-6328
▁Mun	-6329
▁Nis	-6330
▁Woo	-6331
▁ruf	-6332
▁yir	-6333
▁Abel	-6334
▁Gise	-6335
▁Yeew	-6336
▁happ	-6337
▁lowe	-6338
▁seek	-6339
▁tout	-6340
▁ƴell	-6341
aninoo	-6342
annden	-6343
eteeɗi	-6344
▁hiɗen	-6345
▁joomi	-6346
▁ɓurii	-6347
▁gollii	-6348
▁muusɗe	-6349
▁waawii	-6350
▁Annduɓe	-6351
▁alkulal	-6352
▁arnooɓe	-6353
▁firtude	-6354
▁garooje	-6355
▁seerndi	-6356
▁neeniwal	-6357
▁yettoode	-6358
▁mbinndiin	-6359
5-	-6360
hon	-6361
▁1)	-6362
▁Pr	-6363
aawi	-6364
elee	-6365
▁Boy	-6366
▁dor	-6367
▁ɓet	-6368
niiɓe	-6369
▁Wood	-6370
▁fuɗɗ	-6371
▁kiir	-6372
anooki	-6373
▁Taali	-6374
▁dañaa	-6375
▁geese	-6376
▁joofi	-6377
▁nawaa	-6378
▁pawii	-6379
▁potɗe	-6380
▁taƴde	-6381
▁totta	-6382
▁yuurn	-6383
▁ɓayri	-6384
▁amerik	-6385
▁duwaaw	-6386
▁hollii	-6387
▁kaawis	-6388
▁eɓɓoore	-6389
▁kewkewe	-6390
▁njottii	-6391
▁wonduɓe	-6392
▁laaɓtuɗo	-6393
▁ruttaade	-6394
▁yejjitde	-6395
▁yottaade	-6396
▁naamnaade	-6397
▁ujunnaaji	-6398
▁jibinannde	-6399
▁ɓanndiraaɓe	-6400
UU	-6401
kr	-6402
▁Ci	-6403
elam	-6404
iyas	-6405
▁Bis	-6406
▁Ena	-6407
▁Ibn	-6408
▁Nou	-6409
▁aam	-6410
▁cil	-6411
▁eto	-6412
▁pus	-6413
▁wum	-6414
ambon	-6415
▁Keer	-6416
▁guri	-6417
▁kabr	-6418
▁kecc	-6419
▁nawa	-6420
▁njaŋ	-6421
▁tous	-6422
▁toɓɓ	-6423
▁colli	-6424
▁dokke	-6425
▁kayre	-6426
ereceen	-6427
tinooje	-6428
▁njaati	-6429
▁udditi	-6430
▁wakkil	-6431
▁yummum	-6432
▁Jeliyaa	-6433
▁geseele	-6434
▁ngannda	-6435
▁Tummbere	-6436
▁Winndere	-6437
▁janngina	-6438
▁woodanii	-6439
▁ñaawooɓe	-6440
▁Faatimata	-6441
▁binndaaɗe	-6442
▁jamanuuji	-6443
▁kiloomeeteer	-6444
:2	-6445
FP	-6446
ppa	-6447
▁Dr	-6448
aawa	-6449
niri	-6450
teno	-6451
▁186	-6452
▁Alf	-6453
▁and	-6454
▁caw	-6455
▁het	-6456
▁Kaaw	-6457
▁htnd	-6458
▁kamp	-6459
▁ƴiye	-6460
yaagal	-6461
▁April	-6462
▁ɓakdi	-6463
▁ɓayra	-6464
ddiwaar	-6465
tinoowo	-6466
▁Atensa	-6467
▁heɓata	-6468
▁heɓtii	-6469
▁kawtal	-6470
▁kesiri	-6471
▁waawɓe	-6472
▁Nigeria	-6473
▁haŋkadi	-6474
▁naamnde	-6475
▁neldude	-6476
▁ownooɓe	-6477
▁talaata	-6478
▁toownde	-6479
▁haalaani	-6480
▁jammaaji	-6481
▁yontaaɓe	-6482
▁alkamiisa	-6483
▁jokkondire	-6484
▁bayyinaango	-6485
):	-6486
An	-6487
ahe	-6488
ɓee	-6489
▁89	-6490
ndaa	-6491
onaa	-6492
ƴere	-6493
▁Ama	-6494
▁Ayy	-6495
▁Loo	-6496
▁bet	-6497
▁tal	-6498
intaa	-6499
▁lobb	-6500
▁nafa	-6501
▁ngoƴ	-6502
anndar	-6503
iniiɓe	-6504
niindi	-6505
▁faarn	-6506
▁leñam	-6507
▁Doosɗe	-6508
▁Laawol	-6509
▁araani	-6510
▁ngaandi	-6511
▁haalande	-6512
▁kaaɗtudi	-6513
▁keewaani	-6514
▁meeɗaano	-6515
▁waɗatnoo	-6516
▁janngirɗe	-6517
ib	-6518
ól	-6519
▁Ø	-6520
صلی	-6521
▁Da	-6522
▁Fe	-6523
cher	-6524
inɓe	-6525
▁Kas	-6526
▁Sor	-6527
▁bak	-6528
▁bam	-6529
▁ban	-6530
▁bor	-6531
▁ɓaw	-6532
▁ɓaŋ	-6533
ition	-6534
▁ceeɓ	-6535
▁yehi	-6536
▁Ñaab	-6537
datnoo	-6538
elaaji	-6539
▁jikke	-6540
▁moƴƴa	-6541
▁waali	-6542
▁yaafo	-6543
▁Ndennd	-6544
▁moolan	-6545
▁njeddi	-6546
▁offici	-6547
▁welsin	-6548
▁ɓooyɗo	-6549
cungaagu	-6550
▁Saharaa	-6551
▁penaale	-6552
▁pouvoir	-6553
▁tiiɗnde	-6554
▁tonngol	-6555
▁Seyɗanne	-6556
▁kibbital	-6557
▁reenooɓe	-6558
▁siftinde	-6559
▁ŋakkeende	-6560
نا	-6561
ENI	-6562
ame	-6563
ime	-6564
▁61	-6565
Miɗo	-6566
saan	-6567
tuno	-6568
▁Gaw	-6569
▁Sir	-6570
▁Wan	-6571
▁feŋ	-6572
▁woƴ	-6573
▁Fran	-6574
▁emin	-6575
▁jari	-6576
▁ndem	-6577
▁prop	-6578
▁puŋŋ	-6579
▁wono	-6580
itiiɗe	-6581
▁Hasan	-6582
▁belɗo	-6583
▁goobu	-6584
▁ittaa	-6585
▁jooma	-6586
▁julde	-6587
▁sirku	-6588
▁tamar	-6589
▁kuuraa	-6590
▁ngonno	-6591
▁punndi	-6592
▁heblude	-6593
▁meeteer	-6594
▁rajooji	-6595
▁safrude	-6596
▁anndinde	-6597
▁Tummbuktu	-6598
▁cikkatnoo	-6599
▁funnaange	-6600
▁culturelles	-6601
EL	-6602
lde	-6603
ree	-6604
ɗle	-6605
▁66	-6606
Woto	-6607
iyon	-6608
uule	-6609
▁Gas	-6610
▁Idr	-6611
▁Wah	-6612
▁Wat	-6613
▁len	-6614
ember	-6615
hedde	-6616
ortee	-6617
▁añam	-6618
▁farl	-6619
▁kewi	-6620
▁ngaa	-6621
Buduur	-6622
atojin	-6623
▁Persa	-6624
▁fotɓe	-6625
▁ndaña	-6626
▁njani	-6627
▁pooli	-6628
▁warii	-6629
▁yawti	-6630
▁yerɓo	-6631
▁Ɓaawo	-6632
senaaɓe	-6633
▁Taarii	-6634
▁hulɓin	-6635
▁keɓtin	-6636
▁kuɓɓam	-6637
▁woodii	-6638
▁funeeɓe	-6639
▁moƴƴiri	-6640
▁desammbar	-6641
▁haaɗtirde	-6642
▁sababuuji	-6643
▁tuubakiri	-6644
▁ummoriiɓe	-6645
▁Kalfinaaɗo	-6646
▁liggotooɓe	-6647
eem	-6648
era	-6649
ils	-6650
uld	-6651
yah	-6652
▁63	-6653
...”	-6654
anay	-6655
ehre	-6656
hats	-6657
immo	-6658
▁600	-6659
▁Jul	-6660
▁cun	-6661
tundi	-6662
▁1000	-6663
▁Deen	-6664
▁Guur	-6665
▁Jall	-6666
▁Macc	-6667
▁waañ	-6668
aakiri	-6669
▁jogoo	-6670
▁ngoow	-6671
▁njipp	-6672
▁yarde	-6673
oogirde	-6674
▁honɗun	-6675
▁hoorde	-6676
▁mawndu	-6677
▁tiiɗɗe	-6678
partaayd	-6679
▁karallo	-6680
▁ngartii	-6681
▁renndin	-6682
▁système	-6683
▁tawiino	-6684
▁ummanii	-6685
▁hoɗdiiɓe	-6686
▁ngonaano	-6687
▁yankooɓe	-6688
▁ngardiigu	-6689
▁Naajeeriya	-6690
▁pijirlooji	-6691
▁toppitaade	-6692
▁ل	-6693
Nel	-6694
aho	-6695
kel	-6696
tra	-6697
ɗem	-6698
▁Em	-6699
▁RF	-6700
▁ob	-6701
▁ur	-6702
ngar	-6703
siir	-6704
voir	-6705
yaŋk	-6706
égro	-6707
▁Bam	-6708
▁Juu	-6709
▁Mak	-6710
▁Saa	-6711
▁Sif	-6712
▁wil	-6713
irtaa	-6714
▁Aliw	-6715
▁Mbar	-6716
▁Meer	-6717
▁bayl	-6718
▁harb	-6719
▁hoɗi	-6720
▁jaaƴ	-6721
▁wune	-6722
▁ƴooŋ	-6723
▁Hayso	-6724
▁Hikka	-6725
▁Jamma	-6726
▁Waali	-6727
▁ainsi	-6728
▁fowru	-6729
▁gayni	-6730
▁njoyo	-6731
▁taƴre	-6732
▁timma	-6733
▁ɓamti	-6734
empeƴƴe	-6735
irlaaɓe	-6736
▁Aliyya	-6737
▁alɗuɓe	-6738
▁ngaddi	-6739
▁njimri	-6740
▁Linjiil	-6741
▁Muritan	-6742
▁ardinoo	-6743
▁fenooɓe	-6744
▁ngartam	-6745
▁yamirii	-6746
▁yettude	-6747
▁eeraango	-6748
▁firtaani	-6749
▁laataade	-6750
▁sakkitii	-6751
▁seertude	-6752
▁sanamuuji	-6753
▁wiyeteengo	-6754
2-	-6755
pu	-6756
bii	-6757
hab	-6758
▁Ec	-6759
ance	-6760
taas	-6761
uumo	-6762
▁Buk	-6763
▁Mad	-6764
▁Mba	-6765
▁fas	-6766
▁hin	-6767
annoo	-6768
boore	-6769
duuɓi	-6770
forme	-6771
▁nang	-6772
▁nguy	-6773
▁sinc	-6774
▁wata	-6775
▁ƴiiw	-6776
iranoo	-6777
▁Refti	-6778
▁cemmb	-6779
▁jiyɗe	-6780
▁leurs	-6781
▁naamn	-6782
▁sinnd	-6783
▁sosde	-6784
▁yonti	-6785
▁cosgol	-6786
▁daarti	-6787
▁njahii	-6788
▁toutes	-6789
▁Doosgal	-6790
▁Jamaanu	-6791
▁heɗaade	-6792
▁mawngol	-6793
▁Njuɓɓudi	-6794
▁puɗɗiima	-6795
▁seeraani	-6796
▁teddeendi	-6797
▁winndiyanke	-6798
óó	-6799
anu	-6800
ctu	-6801
▁3.	-6802
▁74	-6803
▁Ré	-6804
kkii	-6805
▁192	-6806
▁Cil	-6807
▁Dew	-6808
▁Jin	-6809
▁Mii	-6810
▁fur	-6811
▁keñ	-6812
▁oya	-6813
▁ɓat	-6814
ogere	-6815
reede	-6816
ɓaani	-6817
▁Galo	-6818
▁Gure	-6819
▁mbil	-6820
▁ngor	-6821
▁puuy	-6822
▁sosi	-6823
▁ɗaay	-6824
tangol	-6825
▁Hawaa	-6826
▁Miɗen	-6827
▁Pappa	-6828
▁fawde	-6829
▁nelal	-6830
▁puɗɗor	-6831
▁woniko	-6832
▁Tijjaan	-6833
▁battane	-6834
▁dariiɓe	-6835
▁gadanol	-6836
▁Baabaaɓe	-6837
▁adinooɓe	-6838
▁enternet	-6839
▁gannduɗo	-6840
▁jaabaade	-6841
▁sanɗaaji	-6842
▁saaysayeeɓe	-6843
gr	-6844
wu	-6845
ِي	-6846
fee	-6847
woo	-6848
yon	-6849
▁67	-6850
▁Or	-6851
▁Ri	-6852
anɗo	-6853
etta	-6854
iyal	-6855
maay	-6856
oowe	-6857
oɗoo	-6858
tino	-6859
▁Buh	-6860
▁Kum	-6861
▁Neh	-6862
▁Sok	-6863
▁Was	-6864
▁awo	-6865
▁buy	-6866
▁cir	-6867
▁jik	-6868
nirde	-6869
teeje	-6870
tiigu	-6871
▁Jaaw	-6872
▁baay	-6873
▁leep	-6874
▁2012,	-6875
▁Leyɗe	-6876
▁Maali	-6877
▁hawra	-6878
▁nebam	-6879
▁resde	-6880
▁wayɓe	-6881
dateeɓe	-6882
tanaade	-6883
▁doktor	-6884
▁faayre	-6885
▁kaaɗdi	-6886
▁wullit	-6887
▁ɗiɗaɓo	-6888
▁ceniiɗo	-6889
▁dariima	-6890
▁immorde	-6891
▁kewuuji	-6892
▁mbaɗtii	-6893
▁timmuɗo	-6894
▁yiytude	-6895
▁ɓaleere	-6896
▁ɓoornii	-6897
▁hoɗnooɓe	-6898
▁naatnude	-6899
▁ngurndan	-6900
▁woɗɗaani	-6901
▁jalaŋaaji	-6902
▁mawningol	-6903
▁nganndaano	-6904
▁yummiraaɓe	-6905
▁winnditaade	-6906
▁Eg	-6907
▁Ja	-6908
abbe	-6909
addo	-6910
ayel	-6911
oŋki	-6912
▁Dum	-6913
▁Gab	-6914
▁Ten	-6915
▁Wil	-6916
▁dak	-6917
▁tas	-6918
▁wur	-6919
ñcuru	-6920
▁ɓale	-6921
ateeɓe	-6922
oyeede	-6923
▁Laana	-6924
▁Mawɓe	-6925
▁Paris	-6926
▁arani	-6927
▁feeñn	-6928
▁juula	-6929
▁waraa	-6930
▁Kalifu	-6931
▁ndokki	-6932
▁waylii	-6933
▁wontaa	-6934
▁Asamaan	-6935
▁Simoore	-6936
▁jokkere	-6937
▁nanngaa	-6938
▁raneeɓe	-6939
▁maslahaa	-6940
▁yaakaare	-6941
▁semmbinde	-6942
▁dalillaaji	-6943
▁jokkondiri	-6944
AW	-6945
cé	-6946
els	-6947
iris	-6948
iyii	-6949
▁Sow	-6950
▁sem	-6951
▁tat	-6952
aador	-6953
diijo	-6954
tanaa	-6955
tinen	-6956
titii	-6957
wanaa	-6958
▁Amen	-6959
▁Ngon	-6960
▁Ummu	-6961
▁galo	-6962
▁ilam	-6963
▁lamp	-6964
▁ombo	-6965
▁puun	-6966
▁suko	-6967
▁ɗigg	-6968
ansuur	-6969
eleega	-6970
itaaki	-6971
▁bawɗi	-6972
▁haako	-6973
▁haale	-6974
▁jammb	-6975
▁jeece	-6976
▁mbeel	-6977
▁ngoɗɗ	-6978
▁teeru	-6979
▁wuddu	-6980
totooɗo	-6981
tunooɓe	-6982
▁Isaaga	-6983
▁Tuunus	-6984
▁Jaaynde	-6985
▁addanta	-6986
▁Arabooɓe	-6987
▁adunaaji	-6988
▁gollorɗe	-6989
▁hollirii	-6990
▁jaaraama	-6991
▁jippinii	-6992
▁yahdiiɓe	-6993
▁goongɗuɓe	-6994
▁ɓeynguure	-6995
▁hardaneeɓe	-6996
▁ngooroondi	-6997
▁Misiranaaɓe	-6998
As	-6999
Mar	-7000
tri	-7001
▁!”	-7002
▁(5	-7003
▁2)	-7004
▁71	-7005
▁72	-7006
▁78	-7007
▁vi	-7008
alde	-7009
amme	-7010
ilip	-7011
ogol	-7012
ussi	-7013
▁Key	-7014
▁Too	-7015
▁Wen	-7016
▁Wiɗ	-7017
▁imp	-7018
▁ñol	-7019
daaka	-7020
▁ibnu	-7021
▁moom	-7022
▁payi	-7023
▁wagg	-7024
ndooji	-7025
▁Hanki	-7026
▁Kacce	-7027
▁Moosi	-7028
▁dammb	-7029
▁mbooy	-7030
▁trans	-7031
Husayni	-7032
hatsApp	-7033
▁Farans	-7034
▁addata	-7035
▁jonnde	-7036
▁maaɗun	-7037
▁ngartu	-7038
▁suuɗii	-7039
▁ɓeydan	-7040
▁ɓurani	-7041
▁kampaañ	-7042
▁ndeelam	-7043
▁njogori	-7044
▁jinnaaɗo	-7045
▁mbelemma	-7046
▁mbeddaaji	-7047
▁ngenndiire	-7048
▁biyeteengal	-7049
▁fuutankooɓe	-7050
▁z	-7051
nɓe	-7052
ris	-7053
ron	-7054
▁6,	-7055
▁77	-7056
▁éc	-7057
Kala	-7058
aabe	-7059
aage	-7060
aasa	-7061
ches	-7062
dire	-7063
jiri	-7064
okku	-7065
▁Eey	-7066
▁sum	-7067
reejo	-7068
yaaji	-7069
▁Gall	-7070
▁Nden	-7071
▁Yaak	-7072
▁eɗum	-7073
▁fuku	-7074
▁rugg	-7075
▁tapp	-7076
dandir	-7077
▁Doole	-7078
▁darɗe	-7079
▁heewa	-7080
▁inter	-7081
▁kesam	-7082
▁limti	-7083
▁publi	-7084
▁Mayram	-7085
▁daarol	-7086
▁fotnde	-7087
▁hadiis	-7088
▁haɗata	-7089
▁jannde	-7090
▁leggal	-7091
▁tottii	-7092
▁Ɓesngu	-7093
▁Eeleega	-7094
▁anndini	-7095
▁tawaaka	-7096
▁ɓaleeje	-7097
ehilaagal	-7098
▁Yirlaaɓe	-7099
▁goobuuji	-7100
▁hiraande	-7101
▁hulɓinii	-7102
▁soklaaji	-7103
▁wiɗtooɓe	-7104
▁yiylaade	-7105
▁Jaaltaaɓe	-7106
▁Oropnaaɓe	-7107
15	-7108
RU	-7109
dou	-7110
hal	-7111
ktu	-7112
una	-7113
amed	-7114
bril	-7115
ccii	-7116
duɗi	-7117
rier	-7118
▁Alk	-7119
▁Hee	-7120
▁heƴ	-7121
▁lui	-7122
▁Ɓen	-7123
baajo	-7124
dirii	-7125
irnde	-7126
iyeer	-7127
leñam	-7128
▁(198	-7129
▁Caad	-7130
▁Siñc	-7131
▁acci	-7132
▁joli	-7133
▁ndan	-7134
▁ndoo	-7135
▁onko	-7136
▁siñc	-7137
▁tekk	-7138
▁yupp	-7139
otooɗe	-7140
▁Habii	-7141
▁Jaaɓi	-7142
▁ardin	-7143
▁dorog	-7144
▁eɓena	-7145
▁gaaci	-7146
▁autres	-7147
▁ndiwri	-7148
▁ngañgu	-7149
▁ngonii	-7150
▁njooɗo	-7151
▁yiiloo	-7152
▁Binndol	-7153
▁naatgol	-7154
▁saliiɓe	-7155
▁teleeji	-7156
▁waɗiino	-7157
▁ɗoyngol	-7158
▁anndunoo	-7159
▁fellitii	-7160
▁maayaani	-7161
▁ndiwoowa	-7162
▁neemaaji	-7163
▁teeŋtuɗe	-7164
▁Ñaawoore	-7165
▁Yerusalem	-7166
▁Winndannde	-7167
18	-7168
6)	-7169
ID	-7170
OM	-7171
ما	-7172
afi	-7173
lee	-7174
tab	-7175
ɓbe	-7176
▁69	-7177
▁73	-7178
▁ak	-7179
jeer	-7180
ɗuɗi	-7181
▁150	-7182
▁19,	-7183
▁Mil	-7184
▁moɗ	-7185
▁naj	-7186
▁ooñ	-7187
▁ɓil	-7188
bunde	-7189
iindu	-7190
▁andi	-7191
▁kedd	-7192
▁muyn	-7193
▁tule	-7194
Pulaar	-7195
allaay	-7196
▁Dikko	-7197
▁Saral	-7198
▁Sifaa	-7199
▁Sinno	-7200
▁Wadde	-7201
▁abboo	-7202
▁bakko	-7203
▁firde	-7204
▁neesu	-7205
▁soomi	-7206
▁tiggu	-7207
▁ñawɗo	-7208
▁ɓiyɓe	-7209
anoonde	-7210
edannde	-7211
▁Muslim	-7212
▁Naamne	-7213
▁feeñde	-7214
▁gadane	-7215
▁mawnik	-7216
▁ɓurndi	-7217
etenooɗo	-7218
yankooje	-7219
▁Barakna	-7220
▁mbaɗani	-7221
▁tinndol	-7222
▁tuddule	-7223
▁weleede	-7224
▁daɗndude	-7225
▁doolnude	-7226
▁ɓadtaade	-7227
▁Koddiwaar	-7228
▁ɗooftaade	-7229
▁cakkitiiɗi	-7230
▁haawniinde	-7231
▁mbaylaandi	-7232
▁ngoongɗinaani	-7233
gn	-7234
ger	-7235
ieu	-7236
wii	-7237
ñnj	-7238
ɓɓi	-7239
adio	-7240
oree	-7241
tifi	-7242
yeru	-7243
dooji	-7244
seyba	-7245
tooɗi	-7246
ɗugol	-7247
▁Baaw	-7248
▁Suka	-7249
▁caal	-7250
▁fokk	-7251
▁gaay	-7252
▁nask	-7253
▁Mamma	-7254
▁bayɗe	-7255
▁ndañi	-7256
▁njiyi	-7257
▁njool	-7258
▁rewii	-7259
▁Pennda	-7260
▁ballif	-7261
▁soodde	-7262
▁gadiiɗo	-7263
▁musiɗɓe	-7264
▁njanngu	-7265
▁roondii	-7266
▁silaama	-7267
▁ummital	-7268
▁Ñaabina	-7269
▁Likseyba	-7270
▁gaasuuji	-7271
▁Hirnaange	-7272
▁masiŋaaji	-7273
▁gardinooɗo	-7274
▁linguistique	-7275
ry	-7276
).”	-7277
RED	-7278
abe	-7279
asa	-7280
ors	-7281
irat	-7282
uray	-7283
uwol	-7284
▁Fay	-7285
▁Hel	-7286
▁Nam	-7287
▁jat	-7288
▁jur	-7289
▁muk	-7290
▁nom	-7291
▁sim	-7292
▁tey	-7293
▁Ñaŋ	-7294
tirta	-7295
▁Diiw	-7296
▁Jeyn	-7297
▁Sidi	-7298
▁degg	-7299
▁kipp	-7300
▁toln	-7301
▁wejo	-7302
▁2011,	-7303
▁Aadee	-7304
▁Ngool	-7305
▁Sammb	-7306
▁bojel	-7307
▁himme	-7308
▁lawak	-7309
▁ndoon	-7310
▁ronki	-7311
▁Iisaay	-7312
▁jibina	-7313
▁jookli	-7314
▁kullel	-7315
▁ndenti	-7316
▁yeeyde	-7317
▁kolliti	-7318
▁ɗumɗoon	-7319
▁Ngenndii	-7320
▁anndeede	-7321
▁dartaade	-7322
▁halfinaa	-7323
▁nduttoto	-7324
▁nganndii	-7325
▁Teddungal	-7326
▁communaut	-7327
▁Tuubakooɓe	-7328
▁nganndunoo	-7329
Si	-7330
po	-7331
joo	-7332
met	-7333
rim	-7334
riv	-7335
▁76	-7336
▁79	-7337
▁Bu	-7338
eeyo	-7339
iiwa	-7340
nder	-7341
titi	-7342
▁BAB	-7343
▁COV	-7344
▁Haɗ	-7345
▁ruŋ	-7346
▁ñoo	-7347
aakaa	-7348
aggit	-7349
eteno	-7350
tawol	-7351
tungo	-7352
▁dire	-7353
▁hijj	-7354
▁hors	-7355
▁leƴƴ	-7356
▁pewj	-7357
▁taƴa	-7358
▁2007,	-7359
▁belɗe	-7360
▁bowte	-7361
▁holno	-7362
▁jeese	-7363
▁lahal	-7364
▁natta	-7365
▁sanng	-7366
▁ƴetta	-7367
▁Biraam	-7368
▁comcol	-7369
▁haalee	-7370
▁waɗiri	-7371
Jaabawol	-7372
▁Caɗeele	-7373
▁Sénégal	-7374
▁Yaziidi	-7375
▁jeyaaka	-7376
▁ngonata	-7377
▁tikkere	-7378
▁bempeƴƴe	-7379
▁feewaani	-7380
▁hoyreejo	-7381
▁ñamaande	-7382
▁jannginii	-7383
▁kanndidaa	-7384
▁renndinde	-7385
▁denɗiraagal	-7386
ai	-7387
Hay	-7388
kɗe	-7389
mee	-7390
ruu	-7391
tis	-7392
▁ir	-7393
irte	-7394
isaa	-7395
oowu	-7396
veau	-7397
ɗina	-7398
▁eel	-7399
▁eey	-7400
▁jow	-7401
▁wah	-7402
▁wud	-7403
▁ɓow	-7404
teeki	-7405
▁Hiir	-7406
▁Konu	-7407
▁Maaw	-7408
▁Naat	-7409
▁alet	-7410
▁ceen	-7411
▁gopp	-7412
▁http	-7413
▁kaar	-7414
▁paay	-7415
▁yirl	-7416
ameeɓe	-7417
ellaay	-7418
ndaale	-7419
ndiiɓe	-7420
unooɗo	-7421
▁Fulbe	-7422
▁cikku	-7423
▁hooti	-7424
▁jaale	-7425
▁konng	-7426
▁ngood	-7427
▁paarn	-7428
toreede	-7429
vention	-7430
▁Mbaare	-7431
▁feewti	-7432
▁hesɗit	-7433
▁rewata	-7434
▁donngal	-7435
▁siforii	-7436
▁tokosel	-7437
▁yeddude	-7438
▁Jaadanaa	-7439
▁faabaade	-7440
▁mbiyaten	-7441
▁udditgol	-7442
▁artiraaɓe	-7443
▁Fuutankooɓe	-7444
▁sooninkooɓe	-7445
▁diisnondiral	-7446
1)	-7447
IL	-7448
gon	-7449
kan	-7450
ooc	-7451
tay	-7452
uɗu	-7453
▁2.	-7454
▁où	-7455
ccal	-7456
▁Jab	-7457
▁Lag	-7458
▁Men	-7459
▁Way	-7460
▁duk	-7461
▁fah	-7462
▁muy	-7463
▁naŋ	-7464
▁ɗeɓ	-7465
▁1990	-7466
▁ARED	-7467
▁Ndaw	-7468
▁booñ	-7469
▁hoom	-7470
▁ngoy	-7471
▁rapp	-7472
▁sirl	-7473
▁yeeɓ	-7474
alawma	-7475
istaan	-7476
▁2015,	-7477
▁Balla	-7478
▁Mande	-7479
▁baɗɗe	-7480
▁calɗi	-7481
▁deedi	-7482
▁kulɗo	-7483
▁muusi	-7484
▁ñiiƴe	-7485
aasiyoŋ	-7486
▁Manaam	-7487
▁Sariya	-7488
▁alarba	-7489
▁keɓata	-7490
▁kuccam	-7491
▁mbaɗta	-7492
▁woppii	-7493
▁Abdalla	-7494
▁Maawiya	-7495
▁ardorde	-7496
▁baasgol	-7497
▁darorɗe	-7498
▁depitee	-7499
▁haaniri	-7500
▁hawrude	-7501
▁haɗataa	-7502
▁himmude	-7503
▁hollita	-7504
▁keewndi	-7505
▁majjuɗo	-7506
▁jibinaaɗo	-7507
▁tooñannge	-7508
▁joomiraaɗo	-7509
▁bakkaatuuji	-7510
▁développement	-7511
:3	-7512
Yo	-7513
ño	-7514
❤️	-7515
bay	-7516
gie	-7517
ɓen	-7518
▁Fi	-7519
▁Ph	-7520
atta	-7521
isme	-7522
itut	-7523
nden	-7524
sago	-7525
tore	-7526
▁188	-7527
▁Don	-7528
▁Duu	-7529
▁Gon	-7530
▁Kil	-7531
▁Luu	-7532
▁Yaa	-7533
▁Yim	-7534
raaɓe	-7535
waani	-7536
▁Fulo	-7537
▁Jaab	-7538
▁Raam	-7539
▁Tele	-7540
▁addu	-7541
▁hoot	-7542
▁jour	-7543
▁peer	-7544
ddaaji	-7545
▁Sehil	-7546
▁fergo	-7547
▁habri	-7548
▁sonng	-7549
▁tinii	-7550
▁tooke	-7551
▁woppu	-7552
Nelaaɗo	-7553
dorinoo	-7554
iyaagal	-7555
▁kawrii	-7556
▁luulnd	-7557
▁salmin	-7558
▁taaroo	-7559
▁Husaynu	-7560
▁Jeynaba	-7561
▁Kolommb	-7562
▁dowrowe	-7563
▁majjuɓe	-7564
▁yewtere	-7565
▁ɓadaade	-7566
▁Arabeeɓe	-7567
▁haaletee	-7568
▁ngooŋɗin	-7569
▁yanaande	-7570
▁Fuɗnaange	-7571
▁afriknaaɓe	-7572
Siw	-7573
ban	-7574
eɓe	-7575
olo	-7576
tro	-7577
was	-7578
yal	-7579
▁83	-7580
▁95	-7581
▁Cu	-7582
▁”.	-7583
Alaa	-7584
ayka	-7585
dant	-7586
gion	-7587
▁Eɓɓ	-7588
▁ham	-7589
Siwil	-7590
buuli	-7591
eruun	-7592
ubaar	-7593
▁1980	-7594
▁Moƴƴ	-7595
▁conc	-7596
▁jirw	-7597
▁keɗo	-7598
▁leef	-7599
▁ofis	-7600
▁sari	-7601
anaaki	-7602
oreede	-7603
stitut	-7604
▁Espar	-7605
▁Rabat	-7606
▁Suley	-7607
▁faayo	-7608
▁gagga	-7609
▁golla	-7610
▁koɗki	-7611
▁luuro	-7612
▁weeti	-7613
▁yiite	-7614
▁ñawnd	-7615
▁diwaan	-7616
▁mbelem	-7617
▁ndonki	-7618
▁ngondu	-7619
▁tottir	-7620
▁wuurɓe	-7621
▁ɓooyɗi	-7622
leydaagu	-7623
▁iiñcuru	-7624
▁mbaawii	-7625
▁tataɓal	-7626
▁boomaare	-7627
▁fooftere	-7628
▁jiknaaɓe	-7629
▁juuraade	-7630
▁meeɗiino	-7631
▁sellaani	-7632
▁toɗɗaade	-7633
▁janngoowo	-7634
▁juɓɓingol	-7635
▁Nanondiral	-7636
▁soldateeɓe	-7637
▁ƴellitaade	-7638
1-	-7639
9)	-7640
rie	-7641
sul	-7642
udu	-7643
uki	-7644
▁Do	-7645
▁wu	-7646
▁ww	-7647
DEAO	-7648
aame	-7649
akka	-7650
awal	-7651
ayee	-7652
imal	-7653
kere	-7654
omme	-7655
oyaa	-7656
oɗaa	-7657
tgol	-7658
ɗudi	-7659
▁Cen	-7660
▁Lon	-7661
▁afo	-7662
▁huɗ	-7663
▁keɗ	-7664
▁kos	-7665
publi	-7666
siiru	-7667
teeɗi	-7668
udere	-7669
uraan	-7670
▁Omar	-7671
▁dawr	-7672
▁jaɓa	-7673
▁koon	-7674
▁lamm	-7675
▁pokk	-7676
▁sukk	-7677
▁wedd	-7678
▁————	-7679
noonde	-7680
▁2010,	-7681
▁Bakri	-7682
▁Mboɗo	-7683
▁Polis	-7684
▁Sariy	-7685
▁ceede	-7686
▁jommb	-7687
▁soodi	-7688
▁wayli	-7689
▁ñenng	-7690
▁ŋakki	-7691
▁Maayde	-7692
▁Renndo	-7693
▁faalaa	-7694
▁ndewii	-7695
▁sewnde	-7696
▁yawtii	-7697
▁Gellaay	-7698
▁Misiide	-7699
▁cuɗaari	-7700
▁doktoor	-7701
▁eɓɓaaɗe	-7702
▁fiyaaku	-7703
▁jappere	-7704
▁muusnde	-7705
▁ndokkii	-7706
▁huuɓnude	-7707
▁tuddunde	-7708
▁ñiiɓirde	-7709
ministration	-7710
▁hakkundeejo	-7711
IT	-7712
Mo	-7713
za	-7714
AAR	-7715
wdi	-7716
wis	-7717
agal	-7718
biir	-7719
gire	-7720
inan	-7721
jatu	-7722
kipe	-7723
rigi	-7724
▁185	-7725
▁700	-7726
▁Ali	-7727
▁cas	-7728
▁gud	-7729
▁lii	-7730
▁lul	-7731
▁wad	-7732
▁ɓut	-7733
suudu	-7734
▁2007	-7735
▁Boos	-7736
▁Maat	-7737
▁buub	-7738
▁cafr	-7739
▁damm	-7740
▁leln	-7741
▁resp	-7742
▁samm	-7743
▁yerɓ	-7744
aandaŋ	-7745
ubakar	-7746
▁aawdi	-7747
▁aussi	-7748
▁bonii	-7749
▁cakka	-7750
▁fergu	-7751
▁lelni	-7752
▁magge	-7753
▁nelda	-7754
▁njaru	-7755
▁weeɓi	-7756
▁ƴoƴre	-7757
▁Aamiin	-7758
▁Egliis	-7759
▁Laamɓe	-7760
▁altine	-7761
▁artiri	-7762
▁juumre	-7763
▁kartal	-7764
▁kellif	-7765
▁seeɗto	-7766
▁tiiɗno	-7767
▁Nanoowo	-7768
▁nduttii	-7769
▁ngonɗen	-7770
▁ngummii	-7771
▁ɓakkere	-7772
stitution	-7773
▁anndaaka	-7774
▁kaalaani	-7775
▁njaɓaani	-7776
▁ceernaajo	-7777
▁Abdullaahi	-7778
▁luulndiiɓe	-7779
6-	-7780
JI	-7781
JWM	-7782
ggu	-7783
mer	-7784
▁NA	-7785
▁af	-7786
▁ño	-7787
arti	-7788
aɗam	-7789
bere	-7790
iiru	-7791
tuki	-7792
vier	-7793
▁800	-7794
▁Joh	-7795
▁Kel	-7796
▁Mer	-7797
▁cha	-7798
▁dit	-7799
▁lem	-7800
▁www	-7801
amiin	-7802
unnde	-7803
▁Adan	-7804
▁Hebb	-7805
▁Rewo	-7806
▁coof	-7807
▁ferg	-7808
▁habr	-7809
▁lekk	-7810
▁tikk	-7811
▁ñukk	-7812
atique	-7813
▁Mbooc	-7814
▁Ngoon	-7815
▁bonɓe	-7816
▁dipit	-7817
▁mburu	-7818
▁nduum	-7819
▁tummb	-7820
tanaaɓe	-7821
tiyanke	-7822
▁Foonde	-7823
▁Gammbi	-7824
▁dallin	-7825
▁ndaari	-7826
▁ndokka	-7827
▁noddaa	-7828
▁tampin	-7829
▁tiinde	-7830
▁wirnii	-7831
aandaale	-7832
▁alluwal	-7833
▁kuɓeeje	-7834
▁lelnude	-7835
▁Jaabawol	-7836
▁Koolaaɗo	-7837
▁ceeraani	-7838
▁jaɓɓaade	-7839
▁Annabaaɓe	-7840
▁mbaadiiji	-7841
▁noddaandu	-7842
▁Afriknaaje	-7843
!"	-7844
25	-7845
ƁE	-7846
aaƴ	-7847
duc	-7848
use	-7849
▁Ok	-7850
inng	-7851
ndre	-7852
tigi	-7853
▁177	-7854
▁Hum	-7855
▁Jor	-7856
▁Koy	-7857
▁Raw	-7858
▁kep	-7859
▁loh	-7860
▁tur	-7861
▁wit	-7862
▁wow	-7863
▁yel	-7864
irten	-7865
▁Pers	-7866
▁Waas	-7867
▁cokl	-7868
▁famm	-7869
▁warñ	-7870
▁ñabb	-7871
▁Ɓuri	-7872
ateeɗi	-7873
unooɓe	-7874
▁Langu	-7875
▁Suura	-7876
▁faabu	-7877
▁innit	-7878
▁korsa	-7879
▁laral	-7880
▁secon	-7881
▁yonii	-7882
tineede	-7883
toyaade	-7884
▁binndu	-7885
▁ngamri	-7886
▁wonani	-7887
▁Mustafa	-7888
▁haalnoo	-7889
▁ndokkaa	-7890
▁ngonndi	-7891
▁podooje	-7892
▁tabitin	-7893
▁tagooje	-7894
▁tokoose	-7895
▁udditii	-7896
▁ummiima	-7897
▁ummiiɓe	-7898
▁woniino	-7899
▁dartinde	-7900
▁différen	-7901
▁haaɗaani	-7902
▁jettooɗe	-7903
▁konnguli	-7904
▁laamiiɗo	-7905
▁soklaani	-7906
▁tuugaade	-7907
▁Ƴoogirde	-7908
tiyankooɓe	-7909
▁jokkondir	-7910
▁jowitiiɗi	-7911
▁wiyeteeɓe	-7912
▁huwtoraade	-7913
Am	-7914
emp	-7915
nam	-7916
vre	-7917
▁SI	-7918
▁ɗu	-7919
erre	-7920
iser	-7921
ison	-7922
neur	-7923
ordi	-7924
utsi	-7925
▁Aks	-7926
▁Ban	-7927
▁Col	-7928
▁Jon	-7929
▁Luk	-7930
▁Mee	-7931
▁Yam	-7932
▁Yun	-7933
▁nos	-7934
antoo	-7935
faagu	-7936
issan	-7937
lewal	-7938
ndere	-7939
oowol	-7940
tungu	-7941
wonaa	-7942
▁Cell	-7943
▁Kaan	-7944
▁keɓɓ	-7945
▁sold	-7946
tondir	-7947
▁Barka	-7948
▁Binta	-7949
▁Jakel	-7950
▁Moolo	-7951
▁Ooɗoo	-7952
▁Sapon	-7953
▁ammba	-7954
▁daɓɓo	-7955
▁leeɗe	-7956
▁loowi	-7957
▁nawor	-7958
▁tawno	-7959
▁tawti	-7960
▁yehii	-7961
▁ɗiɗmo	-7962
kipedia	-7963
tinngol	-7964
tinooɓe	-7965
▁Sokoto	-7966
▁ariino	-7967
▁hawrii	-7968
▁ngooto	-7969
▁njokka	-7970
▁teelal	-7971
▁ɓooyɗe	-7972
dépendan	-7973
▁Ciimtol	-7974
▁almuuɓe	-7975
▁ciftina	-7976
▁inniraa	-7977
▁jolfuɓe	-7978
▁koninke	-7979
▁limooje	-7980
▁opitaal	-7981
▁réforme	-7982
▁wontata	-7983
▁National	-7984
▁caaɗngol	-7985
▁heddaade	-7986
▁laaɓtuɗi	-7987
▁national	-7988
▁seedeeji	-7989
▁jotondire	-7990
▁mbaawaano	-7991
▁teeŋtinde	-7992
▁janngingol	-7993
▁toppitiiɗo	-7994
▁kilomeeteer	-7995
▁laaɓtinooje	-7996
BA	-7997
▁+	-7998
ray	-7999
tun	-8000
uni	-8001
atoo	-8002
kude	-8003
▁Bag	-8004
▁Bus	-8005
▁Cer	-8006
▁aal	-8007
▁pil	-8008
diiɗe	-8009
jjiri	-8010
lebbi	-8011
mbele	-8012
ɗundi	-8013
▁Giɗo	-8014
▁Hino	-8015
▁haaɓ	-8016
▁jiid	-8017
▁yiya	-8018
▁ɗaam	-8019
erooji	-8020
itinde	-8021
▁Kañum	-8022
▁Sekko	-8023
▁Sheex	-8024
▁annab	-8025
▁karte	-8026
▁nawii	-8027
▁njaɓi	-8028
▁toute	-8029
notaako	-8030
▁diiwal	-8031
▁fuunti	-8032
▁jooɗɗo	-8033
▁luggiɗ	-8034
▁njiidi	-8035
▁paamen	-8036
▁ɓuuɓol	-8037
▁ɗaɓɓit	-8038
ducation	-8039
▁Hoodere	-8040
▁Idriisa	-8041
▁hucciti	-8042
▁jaɓataa	-8043
▁maleyka	-8044
▁ngaddan	-8045
▁nulaaɓe	-8046
▁rafiiji	-8047
▁rokkata	-8048
▁siynude	-8049
▁yahrata	-8050
▁ɓaleeji	-8051
▁laaɓtude	-8052
▁lonngini	-8053
▁riiwtude	-8054
▁Angalteer	-8055
▁jeertinoowo	-8056
▁jaambaraagal	-8057
:4	-8058
من	-8059
▁ت	-8060
▁ر	-8061
/19	-8062
ahi	-8063
dol	-8064
fir	-8065
yol	-8066
▁FP	-8067
aato	-8068
arah	-8069
duno	-8070
eddo	-8071
eres	-8072
uton	-8073
uver	-8074
▁BAH	-8075
▁Kir	-8076
▁bis	-8077
▁etc	-8078
▁fij	-8079
▁gan	-8080
▁ƴef	-8081
buktu	-8082
entre	-8083
orgol	-8084
ruuja	-8085
toroo	-8086
ument	-8087
▁2000	-8088
▁CENI	-8089
▁Ndey	-8090
▁Sooy	-8091
▁ciiñ	-8092
▁enco	-8093
▁jaaɓ	-8094
▁joƴƴ	-8095
▁soor	-8096
▁tuuf	-8097
Aamiin	-8098
enaaɓe	-8099
▁Damga	-8100
▁Wonde	-8101
▁cabbi	-8102
▁cuɓii	-8103
▁faray	-8104
▁laato	-8105
▁maɓbe	-8106
▁metti	-8107
▁miiji	-8108
▁njiya	-8109
▁joopii	-8110
▁warkoy	-8111
▁hollira	-8112
▁jamaaji	-8113
▁lollude	-8114
▁quraana	-8115
▁udditde	-8116
▁ɗaɓɓiri	-8117
▁Hakkille	-8118
▁ngalanaa	-8119
▁biyateeɗo	-8120
JA	-8121
SE	-8122
th	-8123
Con	-8124
ary	-8125
eje	-8126
jen	-8127
rap	-8128
rat	-8129
▁82	-8130
▁85	-8131
▁87	-8132
▁Ho	-8133
adaa	-8134
ages	-8135
arsa	-8136
heen	-8137
isii	-8138
rand	-8139
tats	-8140
wuro	-8141
▁Fat	-8142
▁Jar	-8143
▁Tel	-8144
▁Ɓiy	-8145
anten	-8146
nagol	-8147
▁Asii	-8148
▁bell	-8149
▁etoo	-8150
▁fiɓi	-8151
▁jaaf	-8152
▁jann	-8153
▁kers	-8154
▁kula	-8155
▁raay	-8156
▁sous	-8157
▁toko	-8158
▁1990,	-8159
▁Jolof	-8160
▁Nobel	-8161
▁Sheek	-8162
▁daroo	-8163
▁jeddi	-8164
▁jihad	-8165
▁jokko	-8166
▁mahii	-8167
▁nguɗu	-8168
▁popul	-8169
▁raddo	-8170
▁saɗne	-8171
▁tulde	-8172
▁waajo	-8173
ondiren	-8174
▁ngoppi	-8175
▁nguyka	-8176
▁wellit	-8177
▁Ñaamee	-8178
▁Afrique	-8179
▁Lukmaan	-8180
▁Moktaar	-8181
▁gonngol	-8182
▁jippina	-8183
▁jogorɗo	-8184
▁koɗorɗe	-8185
▁laaɓnde	-8186
▁njannga	-8187
▁senaare	-8188
▁yuɓɓini	-8189
▁ŋakkere	-8190
▁ɗaminii	-8191
▁Jeeriyel	-8192
▁Namruuja	-8193
▁jooɗorde	-8194
▁laaɓtuɗe	-8195
▁nganndee	-8196
▁seerenɓe	-8197
▁teskeede	-8198
▁watulaaɓe	-8199
▁jebbiliiɓe	-8200
▁naftoraade	-8201
▁paayodinɗe	-8202
▁yarlitaare	-8203
▁Ndenndaandi	-8204
Ab	-8205
ix	-8206
qq	-8207
ado	-8208
gaa	-8209
kee	-8210
lol	-8211
upe	-8212
yan	-8213
▁4.	-8214
▁AJ	-8215
▁وَ	-8216
YJWM	-8217
eeɗe	-8218
ewol	-8219
oomi	-8220
oppi	-8221
tice	-8222
▁Fal	-8223
▁Lim	-8224
▁dif	-8225
antar	-8226
maaki	-8227
ouver	-8228
▁Fuut	-8229
▁Ould	-8230
▁cahe	-8231
▁fuuy	-8232
▁hedd	-8233
▁kaɗi	-8234
▁tigg	-8235
▁ware	-8236
▁yeeb	-8237
▁éduc	-8238
ologie	-8239
▁Badri	-8240
▁Buuba	-8241
▁Diina	-8242
▁Makko	-8243
▁Tutsi	-8244
▁ceene	-8245
▁faire	-8246
▁peɗle	-8247
▁ɓeydo	-8248
ampaate	-8249
tumaagu	-8250
▁Nelson	-8251
▁Yahyaa	-8252
▁calmin	-8253
▁coodgu	-8254
▁juutɗo	-8255
▁kaalii	-8256
▁mbeelu	-8257
▁mbiyii	-8258
▁ngonta	-8259
▁niveau	-8260
▁renndi	-8261
▁rogere	-8262
▁boɗeejo	-8263
▁genaale	-8264
▁jogiiɗe	-8265
▁sanndar	-8266
▁yaltina	-8267
▁hasboore	-8268
▁jooɗiima	-8269
▁koɗdigal	-8270
▁lomtaade	-8271
▁ndaɗɗudi	-8272
▁ngoƴaaji	-8273
▁pottital	-8274
▁sirluuji	-8275
▁timmunde	-8276
▁ñaawirde	-8277
▁diversité	-8278
▁nanondiri	-8279
▁paandaale	-8280
▁peewnugol	-8281
▁roondaade	-8282
▁macungaagu	-8283
8)	-8284
km	-8285
pl	-8286
ewu	-8287
maw	-8288
ses	-8289
ulu	-8290
élé	-8291
▁II	-8292
▁Qu	-8293
afri	-8294
awii	-8295
iran	-8296
toro	-8297
▁Bor	-8298
▁Daw	-8299
▁Ngo	-8300
▁Nst	-8301
▁fan	-8302
▁giƴ	-8303
▁(200	-8304
▁Ennd	-8305
▁Mawn	-8306
▁Yuɓɓ	-8307
▁disp	-8308
▁heɗo	-8309
▁hirs	-8310
▁loot	-8311
▁moor	-8312
▁siir	-8313
▁suiv	-8314
erecee	-8315
évrier	-8316
▁Ejipt	-8317
▁Mbooy	-8318
▁daawe	-8319
▁maaro	-8320
▁mbeɗe	-8321
▁paama	-8322
▁sikku	-8323
▁tafde	-8324
▁waɗdi	-8325
▁woppa	-8326
aambele	-8327
aykaaji	-8328
▁heddoo	-8329
▁neldii	-8330
▁njahdi	-8331
▁njaɓii	-8332
▁teskoo	-8333
▁timmii	-8334
▁waɗnde	-8335
▁ñenngi	-8336
Fulfulde	-8337
tondirde	-8338
▁Halayɓe	-8339
▁firtata	-8340
▁gonngal	-8341
▁hoolkis	-8342
▁Kameruun	-8343
▁daabaaji	-8344
▁mbaɗataa	-8345
▁njoorndi	-8346
▁nokkuuje	-8347
▁waɗdooɓe	-8348
▁Ñaawirde	-8349
▁Kolommbus	-8350
▁mbaydiiji	-8351
▁Convention	-8352
▁mauritanien	-8353
NU	-8354
ƳƳ	-8355
هم	-8356
owo	-8357
ŋti	-8358
Ɗum	-8359
▁1,	-8360
▁81	-8361
▁Au	-8362
▁bu	-8363
aise	-8364
awdi	-8365
aɓal	-8366
dara	-8367
itta	-8368
iyet	-8369
uulu	-8370
▁Fof	-8371
▁Som	-8372
▁Tun	-8373
▁alh	-8374
▁cré	-8375
▁der	-8376
...).	-8377
dinii	-8378
nooji	-8379
sinno	-8380
yooji	-8381
▁Bari	-8382
▁Joon	-8383
▁Onon	-8384
▁faya	-8385
▁feer	-8386
▁foll	-8387
▁jamb	-8388
▁peut	-8389
▁puɗɗ	-8390
ammiri	-8391
inoore	-8392
onaaɓe	-8393
tandir	-8394
tirgal	-8395
▁Lamin	-8396
▁Lasli	-8397
▁Sunna	-8398
▁bojji	-8399
▁hande	-8400
▁jaati	-8401
▁jeego	-8402
▁larme	-8403
▁maccu	-8404
▁rimɓe	-8405
▁ñalaw	-8406
▁Konngo	-8407
▁Saahal	-8408
▁lelngo	-8409
▁ngañam	-8410
▁njangu	-8411
▁nombre	-8412
▁paykun	-8413
▁ruulde	-8414
▁tonngi	-8415
▁werlii	-8416
▁banngal	-8417
▁duwaawu	-8418
▁hakkill	-8419
▁ndaarde	-8420
▁ngoɗndi	-8421
▁oogirɗe	-8422
▁rewooɓe	-8423
▁waɗetee	-8424
▁Bahbahɓe	-8425
▁Firaawna	-8426
▁jooɗinoo	-8427
▁ngaddani	-8428
▁bismaango	-8429
▁maantinde	-8430
▁payndaale	-8431
▁winndeede	-8432
▁wuurtinde	-8433
▁baabiraaɗo	-8434
▁njaajeendi	-8435
bat	-8436
▁Lu	-8437
Aaya	-8438
ayba	-8439
huli	-8440
iika	-8441
imaa	-8442
inké	-8443
iɗaa	-8444
nabu	-8445
▁che	-8446
▁dul	-8447
▁pee	-8448
▁tow	-8449
allal	-8450
ative	-8451
ndool	-8452
notoo	-8453
▁Beel	-8454
▁Jaar	-8455
▁Ngay	-8456
▁Segu	-8457
▁Siri	-8458
▁Teli	-8459
▁faan	-8460
▁gere	-8461
▁hoon	-8462
▁joya	-8463
▁njof	-8464
▁padi	-8465
▁ɓata	-8466
andira	-8467
illere	-8468
iteede	-8469
▁2008.	-8470
▁Bammb	-8471
▁Dennd	-8472
▁Minis	-8473
▁haɗaa	-8474
▁lappi	-8475
▁ndogi	-8476
▁siilo	-8477
▁yewti	-8478
▁Daddaa	-8479
▁bismii	-8480
▁diiney	-8481
▁fotata	-8482
▁jokkii	-8483
▁ngootu	-8484
▁person	-8485
▁wonana	-8486
▁yahuud	-8487
▁jawtuɗi	-8488
▁tawetee	-8489
▁yiɗaano	-8490
▁jombaajo	-8491
▁naamndal	-8492
▁ndammiri	-8493
▁ngannden	-8494
▁parlemaa	-8495
▁jaambaaro	-8496
▁nanondire	-8497
KE	-8498
dul	-8499
gen	-8500
olu	-8501
▁88	-8502
▁AD	-8503
▁ey	-8504
mail	-8505
oowi	-8506
tato	-8507
tete	-8508
▁bah	-8509
▁eff	-8510
▁faɗ	-8511
agana	-8512
antik	-8513
daaɗe	-8514
danɗo	-8515
lotoo	-8516
▁Anta	-8517
▁Holl	-8518
▁Hoto	-8519
▁dawi	-8520
▁etaa	-8521
▁face	-8522
▁habb	-8523
▁mani	-8524
▁perg	-8525
anaaɗo	-8526
dingol	-8527
lement	-8528
▁2012.	-8529
▁2019.	-8530
▁Kisal	-8531
▁Mbeki	-8532
▁fodan	-8533
▁leeɓi	-8534
▁mbara	-8535
▁njaaɓ	-8536
▁négro	-8537
▁satel	-8538
▁sokli	-8539
▁woori	-8540
aamburu	-8541
bbannde	-8542
▁baasɗo	-8543
▁ballit	-8544
▁fotiri	-8545
▁jooɗɗe	-8546
▁maalde	-8547
▁mbaɗee	-8548
▁meeɗen	-8549
▁pooɗal	-8550
▁ruɗtii	-8551
▁wuurii	-8552
▁Boosoya	-8553
▁Sanndee	-8554
▁addande	-8555
▁daneeji	-8556
▁mbeltii	-8557
▁nguuɗoo	-8558
▁njaltii	-8559
▁suuratu	-8560
▁yahiino	-8561
iyankooje	-8562
▁haanaani	-8563
▁kuftodin	-8564
▁mbaɗaama	-8565
▁sanngara	-8566
▁Laamaandi	-8567
▁mbaawataa	-8568
▁wallidiiɓe	-8569
▁yarlitiiɓe	-8570
▁Almaañnaaɓe	-8571
▁ndenndaandi	-8572
ér	-8573
NDI	-8574
pon	-8575
rah	-8576
▁3)	-8577
▁lu	-8578
▁ɓa	-8579
aamo	-8580
akch	-8581
eewi	-8582
mber	-8583
ngur	-8584
sabu	-8585
ŋgal	-8586
▁Woy	-8587
▁ƴat	-8588
dital	-8589
tallo	-8590
toire	-8591
▁Adam	-8592
▁Ebol	-8593
▁Niil	-8594
▁caas	-8595
▁ciñc	-8596
▁dont	-8597
▁haar	-8598
▁inan	-8599
▁kalk	-8600
▁pelɓ	-8601
▁till	-8602
▁tini	-8603
huunde	-8604
tinnde	-8605
▁Yunus	-8606
▁ceŋɗe	-8607
▁muñde	-8608
▁nofru	-8609
▁place	-8610
▁puɗɗi	-8611
▁yaltu	-8612
▁ñaagi	-8613
▁ɓalal	-8614
akchott	-8615
iratnoo	-8616
mission	-8617
sanaaɓe	-8618
▁Kamara	-8619
▁baafal	-8620
▁haaɗde	-8621
▁nawori	-8622
▁ngarta	-8623
▁nguddi	-8624
▁wonndu	-8625
otonooɓe	-8626
▁dariiɗo	-8627
▁dawaaɗi	-8628
▁falaade	-8629
▁feññini	-8630
▁maayata	-8631
▁ngooɗoo	-8632
▁peɗeeli	-8633
▁seniiɗo	-8634
▁Ɓaleeɓe	-8635
▁WhatsApp	-8636
▁gallaaɗi	-8637
▁naatirde	-8638
▁ndenndin	-8639
▁ñaagaade	-8640
▁ñaawirɗe	-8641
▁ƴooŋolle	-8642
▁tamarooje	-8643
▁winndooɓe	-8644
▁haalpulaar	-8645
▁hakkundeere	-8646
7-	-8647
PP	-8648
pa	-8649
ية	-8650
nay	-8651
▁Gh	-8652
▁MA	-8653
▁my	-8654
▁ya	-8655
ctif	-8656
ella	-8657
imme	-8658
▁120	-8659
▁15,	-8660
▁25,	-8661
▁Kah	-8662
▁Ris	-8663
▁Ruw	-8664
▁gin	-8665
▁gir	-8666
ccere	-8667
diigu	-8668
innoo	-8669
maagu	-8670
ppude	-8671
tinɗe	-8672
toraa	-8673
▁(199	-8674
▁Dans	-8675
▁caay	-8676
▁fini	-8677
▁kiɓɓ	-8678
▁leer	-8679
▁masl	-8680
piteer	-8681
▁Husey	-8682
▁Jabet	-8683
▁Neema	-8684
▁carii	-8685
▁ceeɗu	-8686
▁dewɗo	-8687
▁jaasi	-8688
▁kaari	-8689
▁keɓti	-8690
▁takku	-8691
▁tanaa	-8692
▁ɓakke	-8693
atiques	-8694
daangal	-8695
▁Buhari	-8696
▁Maatam	-8697
▁cakkit	-8698
▁naamni	-8699
▁nannga	-8700
▁ngardi	-8701
anndiiɗo	-8702
▁Demokar	-8703
▁Haɗaani	-8704
▁Mansuur	-8705
▁Tararsa	-8706
▁dowrowo	-8707
▁golloto	-8708
▁majjini	-8709
▁waɗdude	-8710
▁yaaɓani	-8711
▁rokkeede	-8712
▁seneraal	-8713
▁seyɗanne	-8714
▁wakannde	-8715
▁cehilaagal	-8716
▁ngenndiiji	-8717
▁sabaabunde	-8718
ww	-8719
yc	-8720
َن	-8721
▁_	-8722
lig	-8723
tug	-8724
ïse	-8725
ñii	-8726
ɓam	-8727
▁3,	-8728
▁gh	-8729
-199	-8730
iyat	-8731
naat	-8732
taba	-8733
▁20,	-8734
▁Wel	-8735
▁ils	-8736
▁ket	-8737
▁saŋ	-8738
iniri	-8739
retee	-8740
▁Naal	-8741
▁Ndon	-8742
▁Njiɗ	-8743
▁Pour	-8744
▁dewe	-8745
▁duko	-8746
▁jula	-8747
▁pawi	-8748
▁yara	-8749
anaajo	-8750
ariyaa	-8751
nongal	-8752
▁Ayuba	-8753
▁Filip	-8754
▁Hakke	-8755
▁Jolal	-8756
▁Kulee	-8757
▁Radio	-8758
▁baaɗe	-8759
▁gardo	-8760
▁hakin	-8761
▁kolli	-8762
▁lekɗe	-8763
▁tooro	-8764
▁yimde	-8765
▁était	-8766
▁Ɓayra	-8767
▁Ɓiɗɗo	-8768
aaluuta	-8769
aanuuji	-8770
anteeje	-8771
totooɓe	-8772
▁Darnde	-8773
▁Ndiyam	-8774
▁Taalib	-8775
▁ceenal	-8776
▁expres	-8777
▁gomɗin	-8778
▁mbaɗat	-8779
▁Kartaas	-8780
▁Parties	-8781
▁Yahuudu	-8782
▁dingire	-8783
▁majjude	-8784
▁sifaade	-8785
▁siftina	-8786
▁wiyiino	-8787
▁Yeewtere	-8788
▁gartugol	-8789
▁hatojini	-8790
▁jokkorɗe	-8791
▁ngolloto	-8792
▁sooninke	-8793
▁teeŋtini	-8794
▁tuubaako	-8795
▁wondunoo	-8796
▁yejjitii	-8797
▁petelaaji	-8798
▁Internation	-8799
EM	-8800
ic	-8801
Won	-8802
ait	-8803
ass	-8804
cou	-8805
def	-8806
iɗi	-8807
lli	-8808
nen	-8809
ole	-8810
rer	-8811
sel	-8812
ƴel	-8813
ɓur	-8814
▁86	-8815
▁Lo	-8816
bini	-8817
iiri	-8818
orol	-8819
oɗɗo	-8820
▁Dah	-8821
▁Duw	-8822
▁Jan	-8823
▁Tam	-8824
▁huy	-8825
▁jer	-8826
▁yum	-8827
▁وال	-8828
erece	-8829
indii	-8830
laare	-8831
oolum	-8832
▁Hamd	-8833
▁Jean	-8834
▁June	-8835
▁Kaay	-8836
▁calm	-8837
▁ciir	-8838
▁coor	-8839
▁inde	-8840
▁liɓi	-8841
▁Hawsa	-8842
▁gilli	-8843
▁leeso	-8844
▁lesɗe	-8845
▁meɗen	-8846
▁ndill	-8847
▁sokla	-8848
▁ƴettu	-8849
▁ɗimmo	-8850
kinaade	-8851
tondiri	-8852
▁CEDEAO	-8853
▁Daakaa	-8854
▁baawal	-8855
▁moofti	-8856
▁sinndo	-8857
▁waynoo	-8858
▁weddii	-8859
▁Ɓunndu	-8860
▁Jabuura	-8861
▁Sorimal	-8862
▁Woodani	-8863
▁almaami	-8864
▁caliiɗo	-8865
▁njeddii	-8866
▁sukundu	-8867
▁wuddere	-8868
▁wuurnoo	-8869
▁ɗimmere	-8870
▁Gardiiɗo	-8871
▁Hampaate	-8872
▁anndaano	-8873
▁geecuuji	-8874
▁jiggoore	-8875
▁nanngude	-8876
▁nuunɗuɗo	-8877
▁yahdaani	-8878
▁jaaynooɓe	-8879
▁wattindii	-8880
▁halfinaaɓe	-8881
On	-8882
YM	-8883
lè	-8884
Ɓe	-8885
ول	-8886
hes	-8887
▁99	-8888
▁KO	-8889
iimi	-8890
inci	-8891
puis	-8892
rent	-8893
▁10,	-8894
▁IRA	-8895
▁cad	-8896
▁wey	-8897
▁ñem	-8898
Fedde	-8899
aagaa	-8900
amatu	-8901
féren	-8902
ornde	-8903
▁Elle	-8904
▁Lill	-8905
▁añde	-8906
▁cukk	-8907
▁dees	-8908
▁kaas	-8909
▁kaɓe	-8910
▁ruuh	-8911
▁saas	-8912
▁très	-8913
▁usta	-8914
▁yana	-8915
aniino	-8916
annder	-8917
anoowo	-8918
tortoo	-8919
▁Jeegi	-8920
▁Samba	-8921
▁Seede	-8922
▁Woɗɓe	-8923
▁baaɗi	-8924
▁belɗi	-8925
▁jeere	-8926
▁kedde	-8927
▁ndiiw	-8928
▁puɗal	-8929
duction	-8930
▁Siisee	-8931
▁haaldi	-8932
▁majjii	-8933
▁mbelaa	-8934
▁miijoo	-8935
▁moƴƴal	-8936
▁peewɗo	-8937
▁ruttoo	-8938
▁Moritan	-8939
▁eddaaji	-8940
▁hafeere	-8941
▁hattani	-8942
▁keɓaani	-8943
▁teddude	-8944
▁welaani	-8945
▁économi	-8946
▁doosiyee	-8947
▁jannguɗo	-8948
▁kaaloowo	-8949
▁keeriiɗi	-8950
▁laamiiɓe	-8951
▁ndañaani	-8952
▁njeeɗiɗo	-8953
▁tijjaani	-8954
▁yiilaade	-8955
▁jaɓɓungal	-8956
▁Nouakchott	-8957
▁goongɗingol	-8958
AS	-8959
gue	-8960
jee	-8961
jer	-8962
log	-8963
nis	-8964
www	-8965
▁2,	-8966
▁97	-8967
▁fr	-8968
chni	-8969
waan	-8970
▁Ete	-8971
▁Lom	-8972
▁Nov	-8973
▁Sak	-8974
▁Sum	-8975
▁ben	-8976
▁yuw	-8977
▁Ɓer	-8978
amuya	-8979
ngoor	-8980
tinɗi	-8981
titde	-8982
▁Sall	-8983
▁York	-8984
▁fawa	-8985
▁janf	-8986
▁kuuf	-8987
▁lopp	-8988
▁peup	-8989
▁taro	-8990
bannge	-8991
dition	-8992
erneer	-8993
▁Huray	-8994
▁Jamaa	-8995
▁dumun	-8996
▁njang	-8997
▁sarii	-8998
▁saɗti	-8999
▁scien	-9000
▁sikka	-9001
▁taway	-9002
▁toŋng	-9003
▁waɗat	-9004
▁woyde	-9005
▁yetta	-9006
▁Ñalɗi	-9007
▁Ɓiɓɓe	-9008
ngartaa	-9009
tatooɗo	-9010
▁Toowɗo	-9011
▁baawde	-9012
▁feeñii	-9013
▁harmin	-9014
▁hebori	-9015
▁jaalal	-9016
▁ndenta	-9017
▁tooñde	-9018
hitaande	-9019
▁feggere	-9020
▁habrude	-9021
▁jibinde	-9022
▁jibinii	-9023
▁saraade	-9024
▁yimooɓe	-9025
▁Tumbuktu	-9026
▁heeferɓe	-9027
▁kuutoroo	-9028
▁laaminoo	-9029
▁ñawbuuli	-9030
▁Ngootaagu	-9031
▁Haalpulaar	-9032
▁Makkanaaɓe	-9033
▁mborosaaji	-9034
▁gostondiral	-9035
PI	-9036
én	-9037
Uni	-9038
bit	-9039
mɓe	-9040
rew	-9041
ɓti	-9042
▁4,	-9043
▁96	-9044
▁Be	-9045
▁Bi	-9046
▁Co	-9047
▁fó	-9048
▁vé	-9049
▁ƴi	-9050
bres	-9051
oɗee	-9052
saar	-9053
tuka	-9054
ural	-9055
▁Abi	-9056
▁Cuk	-9057
▁ete	-9058
fotde	-9059
golle	-9060
ision	-9061
niino	-9062
titee	-9063
toɗen	-9064
▁Tata	-9065
▁arɗo	-9066
▁hulɓ	-9067
▁kimm	-9068
▁mboo	-9069
▁muur	-9070
▁rese	-9071
▁soɓe	-9072
ateeɗe	-9073
wasaad	-9074
▁2013.	-9075
▁Pular	-9076
▁Sahaa	-9077
▁Tulde	-9078
▁allah	-9079
▁faama	-9080
▁gorel	-9081
▁jamfa	-9082
▁musid	-9083
▁ndegg	-9084
▁ngadd	-9085
▁tampi	-9086
▁waɗtu	-9087
▁wiyri	-9088
▁yiide	-9089
▁ɓaŋŋe	-9090
antooɓe	-9091
ondirɓe	-9092
ortonoo	-9093
▁futuro	-9094
▁liggey	-9095
▁muuɗun	-9096
▁naatnu	-9097
▁ngadda	-9098
jannaaji	-9099
▁Kanngoo	-9100
▁Mohamed	-9101
▁Wiyaama	-9102
▁alluuje	-9103
▁baɗoowo	-9104
▁fitiram	-9105
▁mbaawen	-9106
▁ndentii	-9107
▁pawaton	-9108
▁ɓennuɗe	-9109
▁ciynugol	-9110
▁fuɗɗaade	-9111
▁jahroowo	-9112
▁salminde	-9113
▁ñabbuuli	-9114
▁ɓennunde	-9115
▁sosiyetee	-9116
▁yenaneede	-9117
▁Maleykaaji	-9118
▁diidorinoo	-9119
▁njaaweendi	-9120
▁njogitaaje	-9121
▁njogitaari	-9122
▁jaayndiyankooɓe	-9123
,”	-9124
MS	-9125
TO	-9126
cl	-9127
▁}	-9128
cri	-9129
dow	-9130
fon	-9131
jar	-9132
jey	-9133
ogr	-9134
ois	-9135
uth	-9136
uuf	-9137
way	-9138
Ègy	-9139
ɓte	-9140
▁84	-9141
▁UM	-9142
▁ag	-9143
siiñ	-9144
▁(18	-9145
▁Lee	-9146
▁Ton	-9147
▁Yee	-9148
▁Yem	-9149
▁let	-9150
▁tuw	-9151
derik	-9152
doowo	-9153
islam	-9154
leñol	-9155
tinɗo	-9156
▁ALLA	-9157
▁Fere	-9158
▁Iwdi	-9159
▁Rewi	-9160
▁Sala	-9161
▁awok	-9162
▁cañu	-9163
▁goon	-9164
▁hiɗa	-9165
▁jali	-9166
▁jedd	-9167
▁stat	-9168
▁taay	-9169
▁ɓaar	-9170
iraaka	-9171
jjanɗe	-9172
▁Fanay	-9173
▁Jibir	-9174
▁Moïse	-9175
▁Nehdi	-9176
▁Saale	-9177
▁certa	-9178
▁eehey	-9179
▁hoɓɓe	-9180
▁latin	-9181
▁nelii	-9182
▁ngujj	-9183
▁njeyi	-9184
▁noddu	-9185
▁potɗi	-9186
▁sella	-9187
▁waɗɓe	-9188
▁ñalli	-9189
▁ñamri	-9190
danaani	-9191
tinaama	-9192
▁Weendu	-9193
▁doolnu	-9194
▁faamii	-9195
▁feewni	-9196
▁gaador	-9197
▁gadani	-9198
▁lewlew	-9199
▁seerde	-9200
▁ummini	-9201
▁wattan	-9202
▁Tawreet	-9203
▁naamndi	-9204
▁ndewata	-9205
▁ngontii	-9206
▁salmini	-9207
▁taweede	-9208
▁wasiyii	-9209
▁deenoowo	-9210
▁juulirɗe	-9211
▁kulɓinii	-9212
▁mawnugol	-9213
▁njiɗaano	-9214
▁renndude	-9215
▁soofaaji	-9216
▁suumayee	-9217
▁timminde	-9218
▁woorunoo	-9219
▁wutteeji	-9220
▁Tiitoonde	-9221
▁waɗtindii	-9222
▁koniŋkooɓe	-9223
▁ngenndiwal	-9224
▁jowitiingal	-9225
▁maccungaagu	-9226
▁tinndinooje	-9227
▁Senegaalnaaɓe	-9228
▁ngañamtumaagu	-9229
24	-9230
CR	-9231
ŋg	-9232
ِن	-9233
NDE	-9234
fen	-9235
fof	-9236
loo	-9237
mad	-9238
pos	-9239
sse	-9240
▁Ak	-9241
▁Fo	-9242
▁ɗa	-9243
aafi	-9244
bbal	-9245
ngam	-9246
oɗɗe	-9247
toya	-9248
ɗuum	-9249
▁Asi	-9250
▁Car	-9251
▁Fii	-9252
▁Haf	-9253
▁Kun	-9254
▁Lah	-9255
▁Law	-9256
▁Pat	-9257
▁amo	-9258
▁deg	-9259
feero	-9260
gella	-9261
isant	-9262
keeji	-9263
tindi	-9264
yimɓe	-9265
▁NASA	-9266
▁Waal	-9267
▁njeh	-9268
▁njel	-9269
▁njir	-9270
▁pacc	-9271
▁raaɓ	-9272
▁scol	-9273
▁wuli	-9274
▁ɗaat	-9275
Caggal	-9276
aaraay	-9277
iniiɗo	-9278
iraawo	-9279
sident	-9280
▁Iraan	-9281
▁Nagge	-9282
▁Rojju	-9283
▁bamɗi	-9284
▁cuwaa	-9285
▁gasde	-9286
▁gumɗo	-9287
▁korɗo	-9288
▁mawka	-9289
▁mbiir	-9290
▁meeɗa	-9291
▁seydi	-9292
▁wayla	-9293
▁ŋoral	-9294
▁Africa	-9295
▁Piyeer	-9296
▁contre	-9297
▁daɗndu	-9298
▁fajiri	-9299
▁njahri	-9300
▁petroŋ	-9301
▁wayata	-9302
▁waɗtaa	-9303
▁ɗaanii	-9304
alifaaɓe	-9305
empeƴere	-9306
hakkunde	-9307
▁Bakkaar	-9308
▁dahaaɓe	-9309
▁hettere	-9310
iyankeeɓe	-9311
ondireede	-9312
▁Caamaaba	-9313
▁beldital	-9314
▁fuɗɗinoo	-9315
▁jaltugol	-9316
▁kollirii	-9317
▁njeyaaka	-9318
▁nootaade	-9319
▁tataɓere	-9320
▁timmaani	-9321
▁tolniima	-9322
▁tottiino	-9323
▁éducatif	-9324
▁Eskannder	-9325
▁daarorgal	-9326
▁maandeeji	-9327
▁ndewatnoo	-9328
▁warñeende	-9329
▁ñawndugol	-9330
▁Hebbiyaaɓe	-9331
▁Sariyaawol	-9332
▁jooɗaniiɗo	-9333
▁É	-9334
cit	-9335
fik	-9336
iso	-9337
ɗan	-9338
ɗoy	-9339
▁8,	-9340
▁92	-9341
▁né	-9342
alaŋ	-9343
inat	-9344
inte	-9345
kaar	-9346
kuru	-9347
seur	-9348
tuma	-9349
▁Faw	-9350
▁Fow	-9351
▁Loh	-9352
▁biɗ	-9353
▁dad	-9354
▁sek	-9355
▁الأ	-9356
aanii	-9357
baaji	-9358
gooto	-9359
ruuji	-9360
tawaa	-9361
toren	-9362
usion	-9363
▁Mari	-9364
▁aran	-9365
▁darj	-9366
▁daro	-9367
▁dewo	-9368
▁diir	-9369
▁famɗ	-9370
▁goow	-9371
▁ndah	-9372
▁nims	-9373
▁njed	-9374
▁njer	-9375
▁weet	-9376
▁wota	-9377
▁yima	-9378
aatara	-9379
atonoo	-9380
manaam	-9381
▁Demmb	-9382
▁Jaaba	-9383
▁Kaŋko	-9384
▁Konsa	-9385
▁Septe	-9386
▁Sonng	-9387
▁dagii	-9388
▁jalba	-9389
▁ngono	-9390
▁njana	-9391
▁organ	-9392
▁saatu	-9393
▁ñebbe	-9394
▁ɗanle	-9395
andirde	-9396
banngoo	-9397
eenaari	-9398
▁Duunde	-9399
▁firata	-9400
▁haandi	-9401
▁juutii	-9402
▁laatoo	-9403
▁nayaɓo	-9404
▁ngummo	-9405
▁njawdi	-9406
ondirnoo	-9407
▁Abdarah	-9408
▁Aljumaa	-9409
▁cuɓaaɗo	-9410
▁fokkiti	-9411
▁gadiiɗe	-9412
▁jumaaji	-9413
▁katojin	-9414
▁mbiyɗen	-9415
▁soldaat	-9416
▁tataaji	-9417
▁wareede	-9418
▁Kereceen	-9419
▁culturel	-9420
▁dabbunde	-9421
▁faggaade	-9422
▁heɓtinde	-9423
▁majjaani	-9424
▁neldiino	-9425
▁sanndarm	-9426
▁waraango	-9427
▁woppaani	-9428
▁Sorimalee	-9429
▁janngaani	-9430
▁kumaandaŋ	-9431
▁senerooji	-9432
▁waɗtannde	-9433
▁ñalawmaaji	-9434
▁Denndaangal	-9435
▁yuurnitaade	-9436
▁ɓanndiraaɗo	-9437
▁mbayliigaaji	-9438
._	-9439
TI	-9440
To	-9441
fu	-9442
zi	-9443
▁ق	-9444
aac	-9445
omb	-9446
omp	-9447
one	-9448
ŋge	-9449
▁(7	-9450
/11,	-9451
anki	-9452
eder	-9453
imɗi	-9454
isma	-9455
kono	-9456
mocr	-9457
oojo	-9458
owel	-9459
▁184	-9460
▁Aar	-9461
▁Ale	-9462
▁Ask	-9463
▁Cor	-9464
▁Fit	-9465
▁Kii	-9466
▁RFI	-9467
▁Ros	-9468
▁fok	-9469
▁kin	-9470
▁koŋ	-9471
▁tew	-9472
▁Ɗal	-9473
▁الم	-9474
atigi	-9475
deeɓe	-9476
iyoom	-9477
kanko	-9478
niiɗe	-9479
▁----	-9480
▁....	-9481
▁Pete	-9482
▁Pool	-9483
▁Tekr	-9484
▁ardo	-9485
▁buur	-9486
▁ciŋk	-9487
▁cosi	-9488
▁jalk	-9489
▁kaso	-9490
▁kaɓa	-9491
▁pele	-9492
▁supp	-9493
▁Fonis	-9494
▁Imaam	-9495
▁Saajo	-9496
▁baylo	-9497
▁deƴƴi	-9498
▁effet	-9499
▁jaggu	-9500
▁lummb	-9501
▁ngann	-9502
▁piɓle	-9503
▁wuura	-9504
▁ñaago	-9505
▁ñakku	-9506
omotion	-9507
tondira	-9508
▁duujal	-9509
▁encore	-9510
▁guurɗe	-9511
▁mbeewa	-9512
▁moƴƴin	-9513
▁njaram	-9514
▁welnoo	-9515
▁Magaama	-9516
▁bonande	-9517
▁celluka	-9518
▁cikkata	-9519
▁firooji	-9520
▁heewnde	-9521
▁jeyaaɗe	-9522
▁noddata	-9523
▁teddini	-9524
▁ñalaaɗe	-9525
eeteruuji	-9526
▁Kadijatu	-9527
▁Wagadugu	-9528
▁alkamisa	-9529
▁happande	-9530
▁mbaawata	-9531
▁neɗɗaŋke	-9532
▁suuratul	-9533
▁tawtoraa	-9534
▁waajuuji	-9535
▁waasataa	-9536
▁yettinde	-9537
▁Ɗaaluuta	-9538
▁ɓallaade	-9539
▁ɗiɗaɓere	-9540
▁————————	-9541
----------	-9542
▁Konaakiri	-9543
▁biyeteeɗe	-9544
▁dipiteeji	-9545
▁winndunoo	-9546
▁yowitiinde	-9547
▁Faraysenaaɓe	-9548
▁tumarankooɓe	-9549
▁Muritaninaajo	-9550
AY	-9551
▁x	-9552
IRE	-9553
aɓe	-9554
gii	-9555
hie	-9556
ibb	-9557
reb	-9558
ulo	-9559
▁7,	-9560
▁91	-9561
▁93	-9562
▁IB	-9563
▁IS	-9564
akke	-9565
inɗi	-9566
jole	-9567
ollo	-9568
oyna	-9569
▁108	-9570
▁Des	-9571
▁Gaa	-9572
▁Gen	-9573
▁Maj	-9574
▁Pak	-9575
▁esp	-9576
▁fis	-9577
▁iwi	-9578
▁suɗ	-9579
▁Ñen	-9580
▁ñif	-9581
aareg	-9582
ayiil	-9583
istan	-9584
taire	-9585
tatee	-9586
tribu	-9587
▁Iisa	-9588
▁Kebe	-9589
▁Wano	-9590
▁accu	-9591
▁doom	-9592
▁hajj	-9593
▁jowi	-9594
▁kisa	-9595
▁radi	-9596
▁roŋk	-9597
▁siil	-9598
▁weer	-9599
▁woof	-9600
igneur	-9601
▁2019,	-9602
▁Balɗe	-9603
▁Seere	-9604
▁Uraan	-9605
▁barɗo	-9606
▁biyɗo	-9607
▁dokku	-9608
▁hollu	-9609
▁kecce	-9610
▁laañe	-9611
▁lutti	-9612
▁mawki	-9613
▁mbaɗe	-9614
▁mbism	-9615
▁moins	-9616
▁monde	-9617
▁njaak	-9618
▁rewam	-9619
▁ruɗti	-9620
▁uddii	-9621
▁wammb	-9622
▁wiris	-9623
▁ɗowde	-9624
▁ɗuuɗi	-9625
andiral	-9626
dduwaar	-9627
ŋkaagal	-9628
▁Baawɗo	-9629
▁Jawgel	-9630
▁Santar	-9631
▁arooɓe	-9632
▁hoolii	-9633
▁huccit	-9634
▁jooɗɗi	-9635
▁lelnde	-9636
▁muusde	-9637
▁ngennd	-9638
▁tabiti	-9639
Muritani	-9640
ondirgol	-9641
rançaise	-9642
▁Ayyuuba	-9643
▁Lanndal	-9644
▁daneeje	-9645
▁farilla	-9646
▁heɓiino	-9647
▁jiyanɗe	-9648
▁jogaaki	-9649
▁magooji	-9650
▁siftora	-9651
ndoolaagu	-9652
▁Tengella	-9653
▁Yaakuuba	-9654
▁araaraay	-9655
▁tonngude	-9656
▁yillaade	-9657
▁ɓamtugol	-9658
▁ɓaɗambon	-9659
dépendance	-9660
▁njettiima	-9661
▁ƴiiwoonde	-9662
%,	-9663
AJ	-9664
RO	-9665
ht	-9666
nt	-9667
-18	-9668
abo	-9669
lom	-9670
sif	-9671
wit	-9672
ɓer	-9673
Etat	-9674
Kono	-9675
daar	-9676
etti	-9677
indo	-9678
kiis	-9679
olde	-9680
onon	-9681
tawe	-9682
tiir	-9683
uuma	-9684
uuri	-9685
ɗoyi	-9686
▁180	-9687
▁Atl	-9688
▁Dal	-9689
▁tak	-9690
▁toŋ	-9691
▁waa	-9692
.....	-9693
aamde	-9694
aasin	-9695
aawal	-9696
balaa	-9697
ngɗin	-9698
uusaa	-9699
▁Aadi	-9700
▁Idir	-9701
▁Jool	-9702
▁Teen	-9703
▁boli	-9704
▁cuuɗ	-9705
▁faaw	-9706
▁filñ	-9707
▁lorl	-9708
▁maɓɓ	-9709
▁paaw	-9710
▁Ɗiɗa	-9711
caggal	-9712
tirtee	-9713
▁Barah	-9714
▁Siiri	-9715
▁boowe	-9716
▁ender	-9717
▁jooɗi	-9718
▁njeer	-9719
▁paabi	-9720
▁trava	-9721
▁ummoo	-9722
▁yalla	-9723
▁ɗaɓɓa	-9724
tanooma	-9725
tinooɗo	-9726
▁Hawwaa	-9727
▁barkin	-9728
▁caasam	-9729
▁cuusɗo	-9730
▁droits	-9731
▁foksin	-9732
▁gaynii	-9733
▁jamyam	-9734
▁jiimde	-9735
▁kollir	-9736
▁kunuɗe	-9737
▁laaɓde	-9738
▁mbaree	-9739
▁naatti	-9740
▁ngacci	-9741
▁njetta	-9742
▁njiɗno	-9743
▁senndi	-9744
▁taccin	-9745
▁weltin	-9746
▁yettoo	-9747
▁ɓurngo	-9748
________	-9749
▁Helmere	-9750
▁Subalɓe	-9751
▁capaato	-9752
▁cereeli	-9753
▁dadiiɓe	-9754
▁hulaani	-9755
▁naatata	-9756
▁ngoonga	-9757
▁paatuɗe	-9758
▁sikkude	-9759
▁teeŋtin	-9760
▁waawnde	-9761
▁Israyiil	-9762
▁Seigneur	-9763
▁fiyannde	-9764
▁jaajngal	-9765
▁keddiiɗo	-9766
▁miijinoo	-9767
▁njaltini	-9768
▁seyɗaane	-9769
▁wallifii	-9770
▁ekkolaaji	-9771
▁lanndiiɗo	-9772
▁ndariindi	-9773
▁timmungal	-9774
▁woondoore	-9775
▁anndireede	-9776
▁sarɗiyeeji	-9777
▁warkoyeeɓe	-9778
▁kalfinaangal	-9779
22	-9780
ان	-9781
aru	-9782
bas	-9783
baŋ	-9784
bur	-9785
cha	-9786
jan	-9787
kol	-9788
lah	-9789
ɗɗi	-9790
▁Dé	-9791
▁SO	-9792
▁TV	-9793
▁sh	-9794
▁ɓu	-9795
alal	-9796
añam	-9797
buɓe	-9798
ding	-9799
jour	-9800
nati	-9801
ribo	-9802
uuɗe	-9803
uɗen	-9804
▁Eɗi	-9805
▁Gom	-9806
▁Hoo	-9807
▁Jog	-9808
▁Jus	-9809
▁Ser	-9810
▁Tou	-9811
▁ngi	-9812
▁roi	-9813
▁uni	-9814
aasim	-9815
alité	-9816
antes	-9817
guuli	-9818
iingo	-9819
ooroo	-9820
ummbi	-9821
▁Adii	-9822
▁Laaɓ	-9823
▁Ndaa	-9824
▁Peul	-9825
▁Reen	-9826
▁Tuub	-9827
▁cabb	-9828
▁doma	-9829
▁donc	-9830
▁juko	-9831
▁laɓi	-9832
▁miñi	-9833
▁naan	-9834
▁ngus	-9835
▁situ	-9836
▁ñaml	-9837
▁ŋgel	-9838
agataa	-9839
anngol	-9840
ingiti	-9841
▁(...)	-9842
▁Bello	-9843
▁Looti	-9844
▁Siilo	-9845
▁baɗɗi	-9846
▁hakil	-9847
▁harmi	-9848
▁ndonu	-9849
▁pawɗi	-9850
▁yiɗno	-9851
▁ňande	-9852
ranaaɓe	-9853
▁Hayiti	-9854
▁Sawuud	-9855
▁janane	-9856
▁jaɓɓii	-9857
▁joofni	-9858
▁juɓɓin	-9859
▁laylay	-9860
▁lenyol	-9861
▁mbaɗtu	-9862
▁njalta	-9863
▁njooɗi	-9864
▁seernd	-9865
iyoŋaaji	-9866
▁Uraanus	-9867
▁aayeeji	-9868
▁gasirde	-9869
▁hoddiro	-9870
▁ittataa	-9871
▁kaawisa	-9872
▁kollira	-9873
▁koyeera	-9874
▁manoore	-9875
▁martaba	-9876
▁ngaddii	-9877
▁tawaama	-9878
▁yonaani	-9879
▁ciiñsiiñ	-9880
▁facebook	-9881
▁mbinndir	-9882
▁nanndude	-9883
▁njanngin	-9884
▁toowngal	-9885
▁waawnude	-9886
▁Suleymaan	-9887
▁njooɓaari	-9888
▁Hamdallaay	-9889
▁haaloyeede	-9890
40	-9891
De	-9892
ds	-9893
sé	-9894
can	-9895
hni	-9896
mah	-9897
yid	-9898
ñaa	-9899
▁4-	-9900
▁5,	-9901
Laam	-9902
bata	-9903
hoor	-9904
immi	-9905
otel	-9906
▁Baɗ	-9907
▁Bey	-9908
▁Fad	-9909
▁Gum	-9910
▁HJA	-9911
▁cet	-9912
▁dom	-9913
▁fem	-9914
▁ila	-9915
▁key	-9916
▁nus	-9917
▁pur	-9918
▁sig	-9919
▁tek	-9920
▁tiɗ	-9921
▁Ñaw	-9922
▁ŋat	-9923
▁ɓos	-9924
daaɗi	-9925
iggal	-9926
iyaŋk	-9927
makko	-9928
tiiɗe	-9929
tirii	-9930
▁Bene	-9931
▁Dieu	-9932
▁Jamm	-9933
▁Mbaɗ	-9934
▁Saab	-9935
▁asko	-9936
▁cili	-9937
▁hepp	-9938
▁jabb	-9939
▁kors	-9940
▁njow	-9941
▁sans	-9942
▁sopp	-9943
▁tafi	-9944
▁taƴe	-9945
▁ummi	-9946
ullaay	-9947
▁2015.	-9948
▁Aliiw	-9949
▁Fergo	-9950
▁Payɗi	-9951
▁Saada	-9952
▁Trump	-9953
▁baage	-9954
▁bewre	-9955
▁caali	-9956
▁fekin	-9957
▁ginol	-9958
▁gorol	-9959
▁hanti	-9960
▁honno	-9961
▁jokka	-9962
▁konun	-9963
▁nandi	-9964
▁paali	-9965
▁sowoo	-9966
▁waaju	-9967
▁wonki	-9968
▁yahda	-9969
▁ñiiwa	-9970
ibbaaji	-9971
tunooɗo	-9972
▁France	-9973
▁Kanaan	-9974
▁Niseer	-9975
▁baŋnge	-9976
▁enseig	-9977
▁fodani	-9978
▁haalda	-9979
▁heedan	-9980
▁islaam	-9981
▁keefer	-9982
▁keewii	-9983
▁muuɗum	-9984
▁pekaan	-9985
▁salndu	-9986
▁tiitor	-9987
▁welata	-9988
ellement	-9989
▁Afiriki	-9990
▁Safalɓe	-9991
▁banndir	-9992
▁beetawe	-9993
▁dañeede	-9994
▁gasataa	-9995
▁mboomri	-9996
▁naneede	-9997
▁nguurdi	-9998
▁saɗtude	-9999
▁tellini	-10000
▁teɓɓite	-10001
▁wallita	-10002
▁ɓurngol	-10003
▁gollordu	-10004
▁jaɓɓugol	-10005
▁lollirde	-10006
▁luutndii	-10007
▁njeetato	-10008
▁saakuuji	-10009
▁teskinde	-10010
▁keeringal	-10011
▁kiirɗeeli	-10012
▁tiiɗnaare	-10013
▁tuugnorɗe	-10014
▁politiques	-10015
▁Ameriknaajo	-10016
)?	-10017
?»	-10018
ED	-10019
را	-10020
َل	-10021
▁ح	-10022
Yoo	-10023
cla	-10024
ehe	-10025
enn	-10026
esi	-10027
lal	-10028
lat	-10029
mat	-10030
win	-10031
ôle	-10032
▁98	-10033
▁gr	-10034
Joom	-10035
lere	-10036
prés	-10037
stru	-10038
uudo	-10039
waaw	-10040
▁101	-10041
▁FND	-10042
▁Sek	-10043
▁Sel	-10044
▁UFP	-10045
▁Uur	-10046
▁Yet	-10047
▁mul	-10048
▁not	-10049
▁pii	-10050
▁ɓir	-10051
Leydi	-10052
lites	-10053
niiɗi	-10054
tiiɗi	-10055
tinɓe	-10056
wanii	-10057
▁Cooy	-10058
▁Noon	-10059
▁Unes	-10060
▁fiya	-10061
▁fran	-10062
▁heɓe	-10063
▁hooy	-10064
▁laac	-10065
▁ngud	-10066
▁poll	-10067
▁pooy	-10068
▁tirb	-10069
▁yees	-10070
ndiiɗo	-10071
sadeer	-10072
tement	-10073
tintaa	-10074
▁Booli	-10075
▁Tammb	-10076
▁buuɗi	-10077
▁caafe	-10078
▁colte	-10079
▁darni	-10080
▁dogdu	-10081
▁fawaa	-10082
▁finde	-10083
▁hecci	-10084
▁jolɗe	-10085
▁losko	-10086
▁rutto	-10087
▁toɗɗo	-10088
▁ƴefti	-10089
▁ɗofto	-10090
amadaan	-10091
ateende	-10092
issance	-10093
taneede	-10094
▁Cellal	-10095
▁adunay	-10096
▁alɗude	-10097
▁jaayre	-10098
▁joofii	-10099
▁joɗɗin	-10100
▁konink	-10101
▁lesles	-10102
▁maandi	-10103
▁taarik	-10104
▁tiiɗɗo	-10105
▁toowɗi	-10106
▁ñaamii	-10107
▁Diiwaan	-10108
▁Saamori	-10109
▁daneejo	-10110
▁général	-10111
▁hokkude	-10112
▁jaabtii	-10113
▁jaaƴnde	-10114
▁jaggude	-10115
▁kanngal	-10116
▁mawnink	-10117
▁mbaasii	-10118
▁naamnoo	-10119
▁tokoosi	-10120
▁waraaɓe	-10121
▁ñameele	-10122
▁moƴƴinde	-10123
▁ɗannaade	-10124
▁Kodduwaar	-10125
▁Seernaaɓe	-10126
▁Wikipedia	-10127
▁apartaayd	-10128
▁lanndaaji	-10129
▁lillungal	-10130
▁teeŋtinii	-10131
▁wiyetenoo	-10132
▁yeeweende	-10133
▁ɗaminaade	-10134
▁portinngol	-10135
▁jaambureeɓe	-10136
%.	-10137
MJ	-10138
av	-10139
fal	-10140
poo	-10141
val	-10142
▁Du	-10143
▁EN	-10144
▁Ga	-10145
▁Pa	-10146
▁sé	-10147
abbo	-10148
doos	-10149
faar	-10150
orko	-10151
oyre	-10152
sses	-10153
Ƴeew	-10154
ƴeew	-10155
▁Kee	-10156
▁Low	-10157
▁Ost	-10158
▁Yar	-10159
▁bul	-10160
▁eko	-10161
▁nun	-10162
▁pow	-10163
▁tug	-10164
▁weñ	-10165
▁yeñ	-10166
bakri	-10167
booji	-10168
daata	-10169
duuji	-10170
emble	-10171
ption	-10172
tatno	-10173
teurs	-10174
timol	-10175
ɗiiɗo	-10176
▁1994	-10177
▁JOOB	-10178
▁Uddi	-10179
▁Yurm	-10180
▁dikk	-10181
▁sulɗ	-10182
▁ŋgal	-10183
▁ɗeŋƴ	-10184
iroore	-10185
itaama	-10186
▁2014.	-10187
▁Aasiy	-10188
▁Cukko	-10189
▁Manna	-10190
▁Seydu	-10191
▁avril	-10192
▁bonni	-10193
▁cifti	-10194
▁jusqu	-10195
▁kiram	-10196
▁puɗɗo	-10197
▁recon	-10198
▁tacci	-10199
▁toɗɗe	-10200
▁ŋanaa	-10201
▁ɗomka	-10202
aanngol	-10203
aawoore	-10204
motooɗo	-10205
▁Juulde	-10206
▁Mboyna	-10207
▁baawɗi	-10208
▁dogata	-10209
▁fonngo	-10210
▁keɓgol	-10211
▁korsin	-10212
▁laɓɓin	-10213
▁mbildi	-10214
▁ndoogu	-10215
▁penndi	-10216
▁suɓngo	-10217
▁taanum	-10218
▁tellii	-10219
▁yeeɓde	-10220
▁ñaagoo	-10221
▁Ɓeeɗoo	-10222
yinaango	-10223
▁Hadiise	-10224
▁anndina	-10225
▁hadiise	-10226
▁harmini	-10227
▁jahoowo	-10228
▁jiilgol	-10229
▁julaaɓe	-10230
▁limtude	-10231
▁muulngo	-10232
▁ndoondi	-10233
▁njiidaa	-10234
▁njuumri	-10235
▁tawaani	-10236
▁tuugnii	-10237
▁gaaraaji	-10238
▁gollirɗe	-10239
▁heddinoo	-10240
▁jogornoo	-10241
▁njiyaani	-10242
▁safrooɓe	-10243
▁saɗtunde	-10244
▁teddinde	-10245
▁teskaama	-10246
▁ɓamtaade	-10247
▁ɓurnooɓe	-10248
▁Jaagorgal	-10249
▁binndoowo	-10250
▁haawnaade	-10251
▁tekkeendi	-10252
▁ɗooftagol	-10253
▁kawgeluuji	-10254
▁ordinateer	-10255
▁expressions	-10256
administration	-10257
▁hakilantaagal	-10258
45	-10259
Or	-10260
ɓu	-10261
’.	-10262
▁\	-10263
Aan	-10264
bor	-10265
gah	-10266
ggi	-10267
lin	-10268
mit	-10269
nji	-10270
tuu	-10271
wah	-10272
wiy	-10273
▁(8	-10274
▁6.	-10275
▁94	-10276
▁Ex	-10277
▁Sp	-10278
▁TO	-10279
ctiv	-10280
utel	-10281
uyɓe	-10282
were	-10283
ƴƴii	-10284
▁Aaɓ	-10285
▁Dee	-10286
▁Joɗ	-10287
▁Lem	-10288
▁Rah	-10289
▁rel	-10290
▁rés	-10291
▁ver	-10292
▁éle	-10293
ENNDI	-10294
baare	-10295
hoowo	-10296
taano	-10297
ƴƴere	-10298
▁1976	-10299
▁Fire	-10300
▁Haws	-10301
▁Komp	-10302
▁Togo	-10303
▁asli	-10304
▁haɓe	-10305
▁hikk	-10306
▁hito	-10307
▁jogg	-10308
▁koom	-10309
▁mise	-10310
▁vers	-10311
▁ŋari	-10312
▁Ɗiɗi	-10313
▁ɓuuc	-10314
aataar	-10315
▁2020,	-10316
▁Aañam	-10317
▁Batte	-10318
▁Dimat	-10319
▁Jaara	-10320
▁bajjo	-10321
▁boomi	-10322
▁finnd	-10323
▁gaawe	-10324
▁ittii	-10325
▁keddi	-10326
▁konko	-10327
▁lugge	-10328
▁mbeey	-10329
▁ɓamta	-10330
▁ɓetde	-10331
▁ɓoorn	-10332
▁ɗuuɓi	-10333
▁COVIRE	-10334
▁Mawnde	-10335
▁Wonnoo	-10336
▁eewnii	-10337
▁région	-10338
▁sallig	-10339
▁statut	-10340
▁ɓunndu	-10341
▁Haruuna	-10342
▁Taariik	-10343
▁diskuur	-10344
▁feccude	-10345
▁ganndir	-10346
▁gonduɗo	-10347
▁nayeeɓe	-10348
▁rokkiri	-10349
▁siyaara	-10350
▁winndiy	-10351
▁Isinaaji	-10352
▁November	-10353
▁dammuwol	-10354
▁gummiiɗo	-10355
▁hormaade	-10356
▁jeddoowo	-10357
▁jippunde	-10358
▁laaɓndal	-10359
▁njenanaa	-10360
▁waylaade	-10361
▁yettaaki	-10362
▁yuumtude	-10363
▁Abuubakri	-10364
▁Fayndaare	-10365
▁ardinooɓe	-10366
▁binndital	-10367
▁gartirgol	-10368
▁kuuɓtidin	-10369
▁ministeer	-10370
▁nanndaani	-10371
▁penndiɗam	-10372
▁Ɓooytaani	-10373
▁gollodiiɓe	-10374
-0	-10375
KK	-10376
ob	-10377
Eey	-10378
cen	-10379
dag	-10380
esh	-10381
eux	-10382
ity	-10383
llu	-10384
nor	-10385
the	-10386
été	-10387
▁((	-10388
▁FL	-10389
▁Ur	-10390
▁gé	-10391
Afri	-10392
bert	-10393
gila	-10394
irno	-10395
iɗon	-10396
nées	-10397
▁105	-10398
▁106	-10399
▁Gad	-10400
▁HCR	-10401
▁Jeŋ	-10402
▁Wak	-10403
▁goy	-10404
▁sit	-10405
▁ñiɓ	-10406
Baaba	-10407
addee	-10408
awuud	-10409
añool	-10410
liigu	-10411
ndeen	-10412
ɗaagu	-10413
▁Gite	-10414
▁Jigg	-10415
▁Jose	-10416
▁Kano	-10417
▁Wuur	-10418
▁artu	-10419
▁daay	-10420
▁fadi	-10421
▁halj	-10422
▁hocc	-10423
▁kaɗa	-10424
▁lepp	-10425
▁male	-10426
▁neeg	-10427
▁padd	-10428
▁prom	-10429
▁rend	-10430
▁soro	-10431
▁teen	-10432
▁tunw	-10433
africa	-10434
ataaki	-10435
diinde	-10436
▁2006,	-10437
▁Farba	-10438
▁Inndo	-10439
▁Koode	-10440
▁Worɓe	-10441
▁bammb	-10442
▁coñal	-10443
▁daran	-10444
▁fewdo	-10445
▁haaji	-10446
▁haasi	-10447
▁haɗii	-10448
▁ident	-10449
▁jolal	-10450
▁kaang	-10451
▁moƴƴu	-10452
▁takki	-10453
▁tiind	-10454
▁tinde	-10455
▁yotti	-10456
▁ñaawa	-10457
▁ɓooya	-10458
atnooɗe	-10459
minaare	-10460
▁Imaamu	-10461
▁anndee	-10462
▁bommbo	-10463
▁dartii	-10464
▁heerto	-10465
▁koɗnoo	-10466
▁mbayla	-10467
▁mbedda	-10468
▁mbelto	-10469
▁nanndo	-10470
▁partic	-10471
▁piggal	-10472
▁waklit	-10473
▁yiytaa	-10474
▁ɗiɗmal	-10475
▁Dillere	-10476
▁Dumunna	-10477
▁Nelaaɓe	-10478
▁Siñcaan	-10479
▁haɓɓere	-10480
▁jarribo	-10481
▁kolonel	-10482
▁lelorii	-10483
▁nanaani	-10484
▁salligi	-10485
▁yamiraa	-10486
▁yonaaɓe	-10487
mauritani	-10488
▁Aasiyata	-10489
▁Daawalel	-10490
▁Français	-10491
▁baɗnooɗi	-10492
▁haɓtaade	-10493
▁kaaletee	-10494
▁nehaande	-10495
▁njogoram	-10496
▁présente	-10497
▁taariika	-10498
▁waylaare	-10499
▁waɗnooɓe	-10500
▁wonannde	-10501
▁ɗaanaade	-10502
▁ɗoftaare	-10503
▁jibinaama	-10504
▁jojjannde	-10505
▁jowitiiɗo	-10506
▁mawninkin	-10507
▁ndonaandi	-10508
▁ngoɗɗeeki	-10509
▁doktoreeɓe	-10510
▁sikkitaare	-10511
▁banndiraaɗo	-10512
▁pooɗondiral	-10513
▁seedanteeje	-10514
▁goongɗinaani	-10515
17	-10516
TU	-10517
هُ	-10518
/12	-10519
ayo	-10520
bru	-10521
ilo	-10522
loy	-10523
raf	-10524
sig	-10525
▁07	-10526
▁في	-10527
-198	-10528
arte	-10529
ctor	-10530
luɓe	-10531
otti	-10532
tran	-10533
ubaa	-10534
▁103	-10535
▁And	-10536
▁Dii	-10537
▁Dir	-10538
▁Oto	-10539
▁Soo	-10540
▁ans	-10541
▁ass	-10542
▁cit	-10543
▁gun	-10544
▁huk	-10545
▁rég	-10546
idima	-10547
teeri	-10548
▁1991	-10549
▁1999	-10550
▁Bani	-10551
▁Fula	-10552
▁Jeey	-10553
▁Pasi	-10554
▁Taar	-10555
▁dime	-10556
▁fuŋŋ	-10557
▁kiin	-10558
▁taab	-10559
▁tami	-10560
▁teey	-10561
▁teeɗ	-10562
▁Ñeeñ	-10563
▁ñamm	-10564
▁ñeem	-10565
ctobre	-10566
▁2018,	-10567
▁Cette	-10568
▁Leƴƴi	-10569
▁Marok	-10570
▁Sawru	-10571
▁Umaru	-10572
▁dunli	-10573
▁jaaɓe	-10574
▁jojji	-10575
▁korse	-10576
▁milli	-10577
▁naang	-10578
▁nanɗe	-10579
▁ndoga	-10580
▁ngeel	-10581
▁podan	-10582
▁suuɗu	-10583
▁ummin	-10584
▁waasi	-10585
▁ñawɓe	-10586
ooruuji	-10587
tonooɓe	-10588
▁Binndi	-10589
▁Gidima	-10590
▁Hadiis	-10591
▁Jibril	-10592
▁Pullar	-10593
▁Unesco	-10594
▁Winndi	-10595
▁années	-10596
▁arsike	-10597
▁artuɓe	-10598
▁feññin	-10599
▁janngu	-10600
▁mbaalu	-10601
▁mbaraa	-10602
▁ndaroo	-10603
▁ndokku	-10604
▁représ	-10605
▁tottaa	-10606
▁ñaamdu	-10607
▁ƴettaa	-10608
nguraagu	-10609
▁Hankadi	-10610
▁Kabaaru	-10611
▁catiiɗe	-10612
▁halfini	-10613
▁kulhuli	-10614
▁maandin	-10615
▁ndonkii	-10616
▁tokoson	-10617
▁waɗataa	-10618
▁yawaare	-10619
▁ɓennuɗo	-10620
▁Buubakar	-10621
▁Maawiyya	-10622
▁danndude	-10623
▁dentitee	-10624
▁pergitte	-10625
▁teddunde	-10626
▁haawnaaki	-10627
▁ngoodaani	-10628
▁hulɓinaade	-10629
▁Mooɓondiral	-10630
▁diiwaanuuji	-10631
27	-10632
Ha	-10633
Im	-10634
ft	-10635
rê	-10636
كم	-10637
Has	-10638
QMI	-10639
chi	-10640
cop	-10641
dre	-10642
fox	-10643
inc	-10644
kum	-10645
▁(9	-10646
▁9.	-10647
abat	-10648
igis	-10649
kaal	-10650
péci	-10651
tawi	-10652
uɗam	-10653
▁202	-10654
▁Bii	-10655
▁Fen	-10656
▁Mos	-10657
▁Tah	-10658
▁ayb	-10659
▁gii	-10660
▁kad	-10661
▁tay	-10662
Iisaa	-10663
aient	-10664
baabi	-10665
dunde	-10666
leuve	-10667
tanee	-10668
tirɗi	-10669
togal	-10670
tudes	-10671
ñande	-10672
▁Juko	-10673
▁Kawr	-10674
▁Neɗɗ	-10675
▁cank	-10676
▁ceux	-10677
▁damp	-10678
▁fiyi	-10679
▁jaka	-10680
▁juin	-10681
▁kaaɓ	-10682
▁mbiɗ	-10683
▁parl	-10684
▁part	-10685
▁poos	-10686
▁ques	-10687
▁sete	-10688
▁tawe	-10689
▁util	-10690
aaynde	-10691
bballo	-10692
ilaaji	-10693
itooɓe	-10694
ndoogo	-10695
oreeje	-10696
oŋaaji	-10697
tugeec	-10698
ɗungal	-10699
▁2009.	-10700
▁Aksum	-10701
▁Bakar	-10702
▁Iraak	-10703
▁Saare	-10704
▁Sayko	-10705
▁Siise	-10706
▁Wolde	-10707
▁daɗde	-10708
▁duumo	-10709
▁hesɗi	-10710
▁heɓat	-10711
▁jinnd	-10712
▁juuli	-10713
▁katoj	-10714
▁kippu	-10715
▁koyɗi	-10716
▁kural	-10717
▁marsa	-10718
▁mbeɗu	-10719
▁memii	-10720
▁ndaɓɓ	-10721
▁nimsa	-10722
▁pekin	-10723
▁tooñi	-10724
▁wonda	-10725
▁ŋguur	-10726
▁ɓowɗi	-10727
▁ɓuraa	-10728
anngaan	-10729
iniinde	-10730
▁Risaar	-10731
▁banndi	-10732
▁dunndu	-10733
▁etiima	-10734
▁hellif	-10735
▁majjam	-10736
▁manngu	-10737
▁mballa	-10738
▁mbaɗdi	-10739
▁mbiyee	-10740
▁meccal	-10741
▁moƴƴol	-10742
▁ngaddu	-10743
▁peeñɗi	-10744
▁waɗana	-10745
▁woondi	-10746
▁ƴeewee	-10747
▁ɓuuɓri	-10748
anndaaji	-10749
▁Ceniiɗo	-10750
▁Husayni	-10751
▁cagataa	-10752
▁darnude	-10753
▁garoowo	-10754
▁jaangol	-10755
▁jogiino	-10756
▁keewgol	-10757
▁mawnina	-10758
▁mbinnda	-10759
▁mesures	-10760
▁newiiɗo	-10761
▁ngarata	-10762
▁njeewti	-10763
▁njoorto	-10764
▁pesooɗe	-10765
▁sellude	-10766
▁siraaji	-10767
▁sooynii	-10768
▁tagoodi	-10769
▁yiytere	-10770
▁ɓinngel	-10771
▁ɓiyngel	-10772
▁Ciftinen	-10773
▁Mbaroodi	-10774
▁Tafsiiru	-10775
▁dartagol	-10776
▁hijjoore	-10777
▁jontaaɗo	-10778
▁jooɗiiɗo	-10779
▁kawrital	-10780
▁laamorɗo	-10781
▁laɓɓinde	-10782
▁nannduɗe	-10783
▁ndewaani	-10784
▁njaatigi	-10785
▁njeyanoo	-10786
▁njiylawu	-10787
▁wonirnoo	-10788
▁yaltunde	-10789
▁haɓanaade	-10790
▁kuutortoo	-10791
▁nduttiima	-10792
▁promotion	-10793
▁ƴellitgol	-10794
▁Niiseriyaa	-10795
▁Persanaaɓe	-10796
▁kumpitiiɗo	-10797
▁maamiraaɓe	-10798
▁mbiyeteendi	-10799
He	-10800
IY	-10801
La	-10802
ût	-10803
َى	-10804
”;	-10805
▁ن	-10806
Jam	-10807
kat	-10808
lla	-10809
nas	-10810
nim	-10811
▁(“	-10812
▁5-	-10813
▁Ap	-10814
▁Pi	-10815
▁Pl	-10816
▁Ut	-10817
▁ef	-10818
▁ƴe	-10819
addi	-10820
alli	-10821
alon	-10822
ates	-10823
crit	-10824
iron	-10825
ngon	-10826
tora	-10827
▁Mat	-10828
▁Tuf	-10829
▁Yiy	-10830
▁pon	-10831
▁uuj	-10832
...),	-10833
ograp	-10834
ɗunoo	-10835
▁Adun	-10836
▁Boli	-10837
▁Mais	-10838
▁Samb	-10839
▁Wall	-10840
▁Yaag	-10841
▁beew	-10842
▁bien	-10843
▁dumm	-10844
▁gowl	-10845
▁hiiɗ	-10846
▁jaak	-10847
▁kees	-10848
▁memi	-10849
▁memo	-10850
▁pres	-10851
▁yona	-10852
aamuya	-10853
amment	-10854
ayngol	-10855
▁1989,	-10856
▁Balde	-10857
▁Bojel	-10858
▁Ebola	-10859
▁Gabon	-10860
▁Geɗal	-10861
▁Ligis	-10862
▁Medda	-10863
▁Tagɗo	-10864
▁Terɗe	-10865
▁Weeyo	-10866
▁ballo	-10867
▁cikka	-10868
▁conna	-10869
▁dewle	-10870
▁fecci	-10871
▁fiyde	-10872
▁hesɓe	-10873
▁horde	-10874
▁jaɓɓe	-10875
▁kaani	-10876
▁kañje	-10877
▁kewde	-10878
▁koɗor	-10879
▁ngasi	-10880
▁njoli	-10881
▁taƴii	-10882
▁tolni	-10883
ammbele	-10884
uftodin	-10885
▁Bannge	-10886
▁Tafsir	-10887
▁aroore	-10888
▁burgal	-10889
▁depuis	-10890
▁hawraa	-10891
▁mooɓre	-10892
▁yottoo	-10893
▁ɗamtin	-10894
▁Aayeeje	-10895
▁Faatima	-10896
▁Jalluɗi	-10897
▁NGENNDI	-10898
▁Pasifik	-10899
▁baraaɗo	-10900
▁binndir	-10901
▁caɗtuɗe	-10902
▁deƴƴere	-10903
▁eɓɓooje	-10904
▁funeere	-10905
▁jiiduɓe	-10906
▁joganii	-10907
▁kolaaɗe	-10908
▁mettude	-10909
▁semmbol	-10910
▁soninké	-10911
▁tefoore	-10912
▁waraama	-10913
▁waɗanaa	-10914
▁ɗamaawu	-10915
sociation	-10916
▁compugol	-10917
▁constitu	-10918
▁duttorɗe	-10919
▁fonction	-10920
▁golloowo	-10921
▁huutorii	-10922
▁jiidaani	-10923
▁jippinaa	-10924
▁kaalaten	-10925
▁mawneeki	-10926
▁njiyataa	-10927
▁ofiseeji	-10928
▁rokkunoo	-10929
▁ruɗtaade	-10930
▁Sileymaan	-10931
▁denndaaɗo	-10932
▁gooŋɗinde	-10933
▁jaaltaaɓe	-10934
▁limotaako	-10935
▁mbiyatnoo	-10936
▁ndeenaagu	-10937
▁cakkitiiɗo	-10938
▁humpitooji	-10939
▁nootitaade	-10940
▁officielle	-10941
▁peccitagol	-10942
▁yankinaare	-10943
indépendance	-10944
▁demokarasii	-10945
▁laamuyankooje	-10946
▁ordinateeruuji	-10947
11	-10948
13	-10949
:”	-10950
LE	-10951
cs	-10952
hr	-10953
mé	-10954
qa	-10955
كَ	-10956
مْ	-10957
AAM	-10958
AAS	-10959
ADH	-10960
FAN	-10961
Mus	-10962
Nst	-10963
ewo	-10964
hir	-10965
ida	-10966
lik	-10967
mos	-10968
rak	-10969
ƴre	-10970
▁;–	-10971
▁Fa	-10972
▁We	-10973
Kaal	-10974
ahaa	-10975
alas	-10976
arii	-10977
bali	-10978
hadi	-10979
illo	-10980
itin	-10981
mata	-10982
taan	-10983
tano	-10984
▁107	-10985
▁Acc	-10986
▁Add	-10987
▁Dec	-10988
▁Hed	-10989
▁Hen	-10990
▁His	-10991
▁adi	-10992
▁cub	-10993
▁git	-10994
▁hut	-10995
▁net	-10996
▁row	-10997
▁Ƴet	-10998
▁ɓan	-10999
cours	-11000
dorde	-11001
dorii	-11002
hadii	-11003
iimaa	-11004
iques	-11005
ninde	-11006
▁Arti	-11007
▁Hoor	-11008
▁Kump	-11009
▁Laak	-11010
▁Luuɗ	-11011
▁Mina	-11012
▁Nokk	-11013
▁Wele	-11014
▁Yumm	-11015
▁ande	-11016
▁bark	-11017
▁jool	-11018
▁nann	-11019
▁nduŋ	-11020
▁njoɗ	-11021
▁orop	-11022
▁puis	-11023
▁rupp	-11024
▁wide	-11025
▁ƴaañ	-11026
▁ɓolo	-11027
andiri	-11028
areeji	-11029
jobere	-11030
sameen	-11031
élites	-11032
▁2016,	-11033
▁Korse	-11034
▁Maama	-11035
▁aador	-11036
▁baafe	-11037
▁celui	-11038
▁foɗde	-11039
▁kumpa	-11040
▁kurum	-11041
▁lepte	-11042
▁liɓde	-11043
▁nehde	-11044
▁newii	-11045
▁njara	-11046
▁spéci	-11047
▁tiiɗa	-11048
▁woŋki	-11049
▁yooro	-11050
▁Ñooro	-11051
fesseur	-11052
ministr	-11053
ɗemngal	-11054
▁Ecoppi	-11055
▁Paamen	-11056
▁Wilyam	-11057
▁accude	-11058
▁boombi	-11059
▁caalli	-11060
▁ceernd	-11061
▁compte	-11062
▁damuɗe	-11063
▁daraja	-11064
▁feccii	-11065
▁fooɓre	-11066
▁jaɓɓal	-11067
▁mbiyno	-11068
▁ngaraa	-11069
▁ngooɗe	-11070
▁waasii	-11071
▁ñaamee	-11072
hooreejo	-11073
uwerneer	-11074
▁Aysetta	-11075
▁ceedtii	-11076
▁darinoo	-11077
▁feññina	-11078
▁gollata	-11079
▁gonaaɗo	-11080
▁jibinta	-11081
▁juutnde	-11082
▁kollita	-11083
▁lolliri	-11084
▁mballit	-11085
▁mbinndu	-11086
▁membres	-11087
▁momtude	-11088
▁muritan	-11089
▁naatani	-11090
▁nanngam	-11091
▁ngaldaa	-11092
▁ngartir	-11093
▁travers	-11094
▁woɗeere	-11095
▁ñamaale	-11096
---------	-11097
formation	-11098
▁buubaaji	-11099
▁huutoroo	-11100
▁paamaani	-11101
▁safrirde	-11102
▁sankaare	-11103
▁toɗɗagol	-11104
▁weltaade	-11105
▁Hurayrata	-11106
▁September	-11107
▁ndimaangu	-11108
▁sadakeeji	-11109
▁wempeƴere	-11110
▁almudaagal	-11111
▁mawniraaɗo	-11112
▁sarwisaaji	-11113
▁tawtoraaɓe	-11114
▁Ñenngotooɗo	-11115
▁hakkillantaagal	-11116
))	-11117
SP	-11118
ac	-11119
ikh	-11120
irs	-11121
kuu	-11122
opi	-11123
pre	-11124
wde	-11125
▁8.	-11126
▁Ŋg	-11127
▁ɓo	-11128
YMAM	-11129
akaw	-11130
asiŋ	-11131
atam	-11132
añnj	-11133
erem	-11134
hing	-11135
luud	-11136
près	-11137
rait	-11138
ruɓe	-11139
ɗata	-11140
▁(14	-11141
▁(4)	-11142
▁Bud	-11143
▁Jen	-11144
▁Nee	-11145
▁Nje	-11146
▁Sos	-11147
▁Tuw	-11148
▁bii	-11149
▁dos	-11150
▁lug	-11151
▁nda	-11152
aaske	-11153
abare	-11154
baaba	-11155
fedde	-11156
illet	-11157
nokku	-11158
uudɓe	-11159
ɗinaa	-11160
▁1982	-11161
▁Char	-11162
▁John	-11163
▁Sers	-11164
▁Tesk	-11165
▁Timm	-11166
▁cipp	-11167
▁duƴƴ	-11168
▁edda	-11169
▁ella	-11170
▁endu	-11171
▁fekk	-11172
▁jiir	-11173
▁sare	-11174
▁wele	-11175
ateeji	-11176
cience	-11177
iraaɗe	-11178
noongu	-11179
otooɗi	-11180
tiques	-11181
▁Cerno	-11182
▁Dakar	-11183
▁Gaawo	-11184
▁Hafsa	-11185
▁Ndiin	-11186
▁Sokna	-11187
▁mofte	-11188
▁njaat	-11189
▁servi	-11190
▁temps	-11191
▁ɓurno	-11192
ondiree	-11193
▁Aaɓnde	-11194
▁Dakaar	-11195
▁Martin	-11196
▁Seeɗto	-11197
▁awooɓe	-11198
▁fondam	-11199
▁jeynoo	-11200
▁mbarii	-11201
▁njiyaa	-11202
▁njogoo	-11203
▁njokku	-11204
▁porfes	-11205
▁propos	-11206
▁siyaas	-11207
▁uddude	-11208
▁waalde	-11209
▁weetii	-11210
▁yooɓii	-11211
▁ɗoftee	-11212
Institut	-11213
entation	-11214
inguisme	-11215
▁gulaali	-11216
▁jawtuɗe	-11217
▁joofnde	-11218
▁kanndaa	-11219
▁kasooji	-11220
▁ngulɗam	-11221
▁penoowo	-11222
▁sahinnd	-11223
▁wonunoo	-11224
▁yaaccii	-11225
▁Ɗumɗoon	-11226
▁Juulirde	-11227
▁pellitii	-11228
▁puɗɗinoo	-11229
▁waajaade	-11230
▁waawnere	-11231
▁addanaani	-11232
▁faamamuya	-11233
▁halifaaɓe	-11234
▁joofnirde	-11235
▁tiiɗtinde	-11236
▁goodaangal	-11237
▁laawɗingol	-11238
▁laaɓtungal	-11239
▁mbirniindi	-11240
▁teskuyaaji	-11241
▁kanndidaaji	-11242
▁maantiniiɗe	-11243
8-	-11244
AH	-11245
MP	-11246
No	-11247
Um	-11248
▁„	-11249
/02	-11250
AIR	-11251
jja	-11252
née	-11253
rig	-11254
▁04	-11255
▁Gi	-11256
▁NJ	-11257
▁nu	-11258
Geno	-11259
aaso	-11260
adis	-11261
anal	-11262
aŋki	-11263
doto	-11264
ered	-11265
irdi	-11266
orat	-11267
▁10.	-11268
▁109	-11269
▁13,	-11270
▁Dañ	-11271
▁Med	-11272
▁Wer	-11273
▁fes	-11274
▁feɗ	-11275
▁teŋ	-11276
▁ɓoo	-11277
aasul	-11278
angel	-11279
daano	-11280
eeson	-11281
illaa	-11282
onngi	-11283
école	-11284
▁000)	-11285
▁AQMI	-11286
▁Geor	-11287
▁Haaj	-11288
▁afri	-11289
▁mily	-11290
▁muɓɓ	-11291
▁yari	-11292
▁yoni	-11293
anngel	-11294
tugaal	-11295
ulfule	-11296
wahili	-11297
▁Kamar	-11298
▁Morso	-11299
▁Neere	-11300
▁Yonta	-11301
▁bayɗo	-11302
▁gawlo	-11303
▁goote	-11304
▁leele	-11305
▁moolo	-11306
▁ngoop	-11307
▁nodde	-11308
▁yaama	-11309
▁ɓamde	-11310
▁ɓeydu	-11311
otoonde	-11312
▁Keytaa	-11313
▁Magreb	-11314
▁Raasin	-11315
▁Subaka	-11316
▁annama	-11317
▁caaɗli	-11318
▁defter	-11319
▁engele	-11320
▁habrii	-11321
▁kaaɗoo	-11322
▁lomtoo	-11323
▁moolii	-11324
▁princi	-11325
▁soomii	-11326
▁suuɗde	-11327
▁teskin	-11328
▁weeɓde	-11329
▁Ɓernde	-11330
▁ƴeewnd	-11331
aasaande	-11332
yankoore	-11333
▁Kanadaa	-11334
▁abbitii	-11335
▁bonoore	-11336
▁fewjude	-11337
▁haalana	-11338
▁heɓitii	-11339
▁kaɗooje	-11340
▁mbaɗana	-11341
▁mbunndi	-11342
▁nduttoo	-11343
▁ronooɓe	-11344
▁seertii	-11345
▁wiyaani	-11346
▁woondii	-11347
aggitorde	-11348
▁Arabeere	-11349
▁Gidimaka	-11350
▁Idiriisa	-11351
▁Kaaliidu	-11352
▁Laatiima	-11353
▁Manngaan	-11354
▁cafroowo	-11355
▁firtaare	-11356
▁halkaare	-11357
▁heerorii	-11358
▁jaabaaki	-11359
▁mettunde	-11360
▁ngaraani	-11361
▁wiyatnoo	-11362
▁Sagataaɓe	-11363
▁jaaynoowo	-11364
▁njeenaaje	-11365
▁particuli	-11366
▁safaruuji	-11367
▁takkusaan	-11368
▁Israélites	-11369
▁aljannaaji	-11370
▁ballifanɗe	-11371
▁gollotooɗo	-11372
▁mbaawkaaji	-11373
▁puŋŋaniiɗo	-11374
▁Jokkondiral	-11375
▁sosiyateeji	-11376
▁humambinnaagu	-11377
-9	-11378
اء	-11379
ALL	-11380
All	-11381
TAA	-11382
Yaa	-11383
ham	-11384
kay	-11385
pli	-11386
vid	-11387
Ɗoo	-11388
ɗel	-11389
▁5.	-11390
▁ew	-11391
MAWM	-11392
abbu	-11393
afik	-11394
ammu	-11395
anto	-11396
apol	-11397
aram	-11398
dsee	-11399
eeni	-11400
emaa	-11401
hara	-11402
nira	-11403
oñce	-11404
seil	-11405
sidé	-11406
ungo	-11407
▁(20	-11408
▁127	-11409
▁179	-11410
▁Egg	-11411
▁Mek	-11412
▁Pré	-11413
▁Tim	-11414
▁Umm	-11415
▁ged	-11416
▁moɓ	-11417
▁nga	-11418
▁sam	-11419
▁sut	-11420
▁ñoh	-11421
▁ƴer	-11422
ONADH	-11423
Tooro	-11424
dinɓe	-11425
istes	-11426
toree	-11427
▁2005	-11428
▁Aaya	-11429
▁Geec	-11430
▁Sunj	-11431
▁Wull	-11432
▁beel	-11433
▁beey	-11434
▁fusi	-11435
▁gabb	-11436
▁goro	-11437
▁hipp	-11438
▁jejj	-11439
▁kakk	-11440
▁kebb	-11441
▁kepp	-11442
▁laan	-11443
▁pama	-11444
▁piya	-11445
▁priv	-11446
▁regg	-11447
▁seɓɓ	-11448
▁siin	-11449
▁siiɓ	-11450
▁yoɓa	-11451
▁ñoot	-11452
▁ɓadi	-11453
▁ɗowa	-11454
Amerik	-11455
Hannde	-11456
aadiri	-11457
iraaɗi	-11458
vembre	-11459
▁Gambi	-11460
▁Jalon	-11461
▁Jaloŋ	-11462
▁Mansa	-11463
▁Mbaay	-11464
▁Yiɗde	-11465
▁hadis	-11466
▁hokku	-11467
▁leñƴi	-11468
▁mahaa	-11469
▁memde	-11470
▁ngoya	-11471
▁pular	-11472
▁reena	-11473
▁suuɗi	-11474
▁toowi	-11475
▁ŋabbi	-11476
▁ɗacci	-11477
aanaaɓe	-11478
dunooɓe	-11479
ptembre	-11480
▁Gannde	-11481
▁Heewii	-11482
▁ayaawo	-11483
▁battin	-11484
▁binnde	-11485
▁buuɗal	-11486
▁classe	-11487
▁compos	-11488
▁giɗgol	-11489
▁hebbin	-11490
▁hewtii	-11491
▁huufde	-11492
▁innama	-11493
▁kongol	-11494
▁mooɗon	-11495
▁ngaree	-11496
▁raɓɓiɗ	-11497
▁timmal	-11498
▁waawno	-11499
▁woɗngo	-11500
▁yamira	-11501
▁yiɗiri	-11502
▁ɓadtii	-11503
▁ɓamtii	-11504
Senegaal	-11505
publique	-11506
▁Maccuɗo	-11507
▁dañaama	-11508
▁laaɓndi	-11509
▁lolluɗo	-11510
▁mbaynii	-11511
▁nattude	-11512
▁paatuɗi	-11513
▁piyanɗe	-11514
▁sompude	-11515
▁taccude	-11516
▁ummotoo	-11517
▁Atlantik	-11518
▁Eɓɓaande	-11519
▁Konostan	-11520
▁mbaraama	-11521
▁taaraade	-11522
▁yeeyooɓe	-11523
▁yooltude	-11524
▁Faatimatu	-11525
▁Ferederik	-11526
▁Yurmeende	-11527
▁daraniiɗo	-11528
▁fitinaaji	-11529
▁française	-11530
▁janngeede	-11531
▁jeertinde	-11532
▁njooɗndam	-11533
▁tonngooɗe	-11534
▁tooweendi	-11535
▁yeewtidde	-11536
Banndiraaɓe	-11537
▁Afriknaajo	-11538
▁wondunooɓe	-11539
▁wullitaade	-11540
▁yuɓɓineede	-11541
▁communautés	-11542
▁jaayndiyanke	-11543
23	-11544
60	-11545
:5	-11546
kw	-11547
00)	-11548
ERE	-11549
Maa	-11550
hic	-11551
hii	-11552
mas	-11553
ome	-11554
oût	-11555
sat	-11556
uss	-11557
ñci	-11558
▁08	-11559
▁ee	-11560
▁va	-11561
aago	-11562
duit	-11563
eero	-11564
eret	-11565
gaas	-11566
iyen	-11567
jokk	-11568
ofor	-11569
rale	-11570
saad	-11571
▁App	-11572
▁Lay	-11573
▁Sis	-11574
▁Tin	-11575
▁bit	-11576
▁fig	-11577
▁gam	-11578
▁had	-11579
▁hak	-11580
▁hef	-11581
▁vie	-11582
▁waw	-11583
▁ɗuh	-11584
deeji	-11585
eewte	-11586
ndiri	-11587
togol	-11588
uvent	-11589
Ɓaawo	-11590
ɗungu	-11591
▁Guin	-11592
▁Iran	-11593
▁Jaɓɓ	-11594
▁caam	-11595
▁cink	-11596
▁diim	-11597
▁faar	-11598
▁ittu	-11599
▁joow	-11600
▁koow	-11601
▁paas	-11602
▁quel	-11603
▁wiis	-11604
▁woya	-11605
▁ñakk	-11606
▁ƴakk	-11607
iraaji	-11608
irooji	-11609
itions	-11610
ndiyam	-11611
niinde	-11612
▁2005,	-11613
▁2017,	-11614
▁ANAIR	-11615
▁Firti	-11616
▁Gaajo	-11617
▁Jamsa	-11618
▁Jiggo	-11619
▁cadre	-11620
▁fotti	-11621
▁garde	-11622
▁jawle	-11623
▁kawle	-11624
▁kawru	-11625
▁kisan	-11626
▁muuyn	-11627
▁niɓɓe	-11628
▁wulde	-11629
▁yeeya	-11630
▁Ɓokki	-11631
ination	-11632
inoonde	-11633
▁Belsik	-11634
▁Gollal	-11635
▁Jagana	-11636
▁dartin	-11637
▁gaadan	-11638
▁jaggii	-11639
▁karmin	-11640
▁maayat	-11641
▁njahaa	-11642
▁njaltu	-11643
▁njuurn	-11644
▁peewɗe	-11645
▁Ñalngu	-11646
anngeeji	-11647
histoire	-11648
▁Esparta	-11649
▁Naamnal	-11650
▁Niijeer	-11651
▁Sabaabu	-11652
▁bonaani	-11653
▁mbaɗiri	-11654
▁peewnir	-11655
▁tawataa	-11656
▁tottude	-11657
▁yahooɓe	-11658
▁ɗawaaɓe	-11659
▁Mustafaa	-11660
▁Sunjatta	-11661
▁addantaa	-11662
▁duumaade	-11663
▁faamaani	-11664
▁gonnooɗe	-11665
▁keefeero	-11666
▁mahdiiji	-11667
▁naatataa	-11668
▁nguurnoo	-11669
▁seppooɓe	-11670
▁siftinii	-11671
▁tottaaɓe	-11672
ganisation	-11673
▁Asaambele	-11674
▁fooftorde	-11675
▁huutortoo	-11676
▁karwasaad	-11677
▁ngaadaata	-11678
▁ngonkaaji	-11679
▁njottiima	-11680
▁softeende	-11681
▁wuurnooɓe	-11682
▁Kumpitiiɗo	-11683
▁naamndaade	-11684
▁sikkitaade	-11685
▁woodanaani	-11686
▁yejjitaani	-11687
▁Atensanaaɓe	-11688
▁Bayyinaango	-11689
▁populations	-11690
▁naalaŋkaagal	-11691
TT	-11692
AMM	-11693
INA	-11694
PAD	-11695
aaa	-11696
aŋe	-11697
ges	-11698
hum	-11699
mbi	-11700
ola	-11701
tus	-11702
▁4)	-11703
▁Ku	-11704
▁Sy	-11705
aadu	-11706
ddol	-11707
dino	-11708
inik	-11709
iyoo	-11710
jaan	-11711
ress	-11712
▁178	-11713
▁Giɗ	-11714
▁Hud	-11715
▁Ily	-11716
▁Lan	-11717
▁Met	-11718
▁ONU	-11719
▁Pay	-11720
▁Tal	-11721
▁emp	-11722
▁iir	-11723
▁pij	-11724
iyaal	-11725
jooni	-11726
kaali	-11727
litii	-11728
nunde	-11729
▁1978	-11730
▁1986	-11731
▁Annd	-11732
▁Njuu	-11733
▁Polo	-11734
▁Siir	-11735
▁Teeŋ	-11736
▁bana	-11737
▁beau	-11738
▁eggi	-11739
▁fere	-11740
▁fuɗi	-11741
▁kesu	-11742
▁mayo	-11743
▁pekk	-11744
▁tant	-11745
▁tiis	-11746
▁wayn	-11747
▁Ñaan	-11748
Muusaa	-11749
anndam	-11750
eyngol	-11751
iniino	-11752
naango	-11753
▁Ahmad	-11754
▁Ardii	-11755
▁Binnd	-11756
▁Jibin	-11757
▁Keeri	-11758
▁Turki	-11759
▁Wenus	-11760
▁arnoo	-11761
▁baɗal	-11762
▁bitik	-11763
▁calti	-11764
▁demal	-11765
▁firta	-11766
▁gasni	-11767
▁gudde	-11768
▁haang	-11769
▁holko	-11770
▁kooti	-11771
▁laawi	-11772
▁muddo	-11773
▁murto	-11774
▁muudo	-11775
▁njima	-11776
▁powle	-11777
▁rewni	-11778
▁saloo	-11779
▁tagaa	-11780
▁tagii	-11781
▁waɗdu	-11782
▁yiyaa	-11783
▁Ɗiiña	-11784
▁ɓokki	-11785
ondiraa	-11786
▁Attaar	-11787
▁Belees	-11788
▁Hiirde	-11789
▁Janngo	-11790
▁Katiir	-11791
▁bellit	-11792
▁deeƴde	-11793
▁heddor	-11794
▁hirjin	-11795
▁juutɗe	-11796
▁leeɓol	-11797
▁lollin	-11798
▁ngonoy	-11799
▁ronkii	-11800
▁taabal	-11801
▁tottat	-11802
▁ñukkin	-11803
▁Adamawa	-11804
▁celluɗo	-11805
▁heɓtini	-11806
▁jooɗtor	-11807
▁peewnit	-11808
▁tafsiir	-11809
▁tanaaji	-11810
▁timmini	-11811
▁travail	-11812
▁walliti	-11813
▁yenanaa	-11814
▁yettini	-11815
▁Jojjanɗe	-11816
▁addannoo	-11817
▁baylagol	-11818
▁fellitde	-11819
▁fewjaare	-11820
▁fuuntude	-11821
▁golliima	-11822
▁haalaama	-11823
▁haysinno	-11824
▁jirlagol	-11825
▁jiɗnooɗo	-11826
▁jooɗiiɓe	-11827
▁mumtugol	-11828
▁wallitii	-11829
▁woɗɗunde	-11830
▁yamirnoo	-11831
▁yeewtude	-11832
▁ɗoftaade	-11833
▁giƴiraaɓe	-11834
▁huuɓtodin	-11835
▁janngirde	-11836
▁maantinɗe	-11837
▁yaajeende	-11838
▁ɓurtungol	-11839
▁Beelinaaɓe	-11840
▁laaminooɗo	-11841
▁nanondirde	-11842
▁tabitingol	-11843
▁Sooninkooɓe	-11844
▁biyeteengol	-11845
▁foksineeruuji	-11846
33	-11847
9-	-11848
Ne	-11849
OR	-11850
UM	-11851
ze	-11852
ƊE	-11853
Eeh	-11854
fit	-11855
ile	-11856
jog	-11857
njo	-11858
ona	-11859
por	-11860
tés	-11861
ume	-11862
ène	-11863
éli	-11864
ɗɓe	-11865
▁Et	-11866
ball	-11867
indi	-11868
lude	-11869
ngen	-11870
ngoo	-11871
oyen	-11872
tike	-11873
ñere	-11874
▁104	-11875
▁110	-11876
▁COD	-11877
▁Cee	-11878
▁Che	-11879
▁Fin	-11880
▁Gol	-11881
▁IBK	-11882
▁Jet	-11883
▁Jib	-11884
▁Mum	-11885
▁Nor	-11886
▁Sat	-11887
▁Tor	-11888
▁jeñ	-11889
▁lég	-11890
▁mow	-11891
▁naɓ	-11892
▁pun	-11893
ambar	-11894
appol	-11895
daaɗo	-11896
geeɓe	-11897
hiidi	-11898
homme	-11899
ingel	-11900
kiiji	-11901
nanii	-11902
neɗɗo	-11903
ñeeje	-11904
▁2006	-11905
▁Bacc	-11906
▁Buri	-11907
▁FLAM	-11908
▁Kuli	-11909
▁Maab	-11910
▁Nous	-11911
▁Song	-11912
▁cara	-11913
▁deeg	-11914
▁dono	-11915
▁huuf	-11916
▁jall	-11917
▁kine	-11918
▁ndoŋ	-11919
▁ngin	-11920
▁peul	-11921
▁seeɗ	-11922
▁sugu	-11923
▁suuf	-11924
▁toni	-11925
▁wiir	-11926
▁wonu	-11927
▁yeen	-11928
▁ɓoli	-11929
Dental	-11930
inooji	-11931
iroowo	-11932
▁Coñce	-11933
▁Lowre	-11934
▁Nguun	-11935
▁Senaa	-11936
▁Tonng	-11937
▁Yemen	-11938
▁bayɗi	-11939
▁cewle	-11940
▁dewel	-11941
▁fewji	-11942
▁foola	-11943
▁gujjo	-11944
▁mbakk	-11945
▁remde	-11946
▁seule	-11947
▁teddi	-11948
▁teppe	-11949
▁wuyɓe	-11950
aabaaɓe	-11951
hington	-11952
itation	-11953
senaajo	-11954
ullaahi	-11955
▁Ismaay	-11956
▁Joseph	-11957
▁Kaasam	-11958
▁Kariim	-11959
▁Kawral	-11960
▁Koolol	-11961
▁Lagine	-11962
▁africa	-11963
▁artata	-11964
▁duumii	-11965
▁kannje	-11966
▁naatna	-11967
▁njaggi	-11968
▁reeson	-11969
▁rokkee	-11970
▁sakkii	-11971
▁takkii	-11972
▁tariik	-11973
▁tunndu	-11974
▁wudere	-11975
▁ɓamtal	-11976
uuteendi	-11977
▁Alfered	-11978
▁Buamatu	-11979
▁Fadduɓe	-11980
▁Girooɓe	-11981
▁Langues	-11982
▁Ngolɗoo	-11983
▁classes	-11984
▁demoowo	-11985
▁gadiiɗi	-11986
▁goɗngel	-11987
▁jeenayi	-11988
▁kolliri	-11989
▁lilluɗe	-11990
▁ndernde	-11991
▁ownugol	-11992
▁renndoy	-11993
▁sallige	-11994
▁teskini	-11995
▁yahataa	-11996
alisation	-11997
▁Hoohooɓe	-11998
▁Ramadaan	-11999
▁Rawaandu	-12000
▁Yaaguuba	-12001
▁dartaaki	-12002
▁fooɗtude	-12003
▁hoolaade	-12004
▁jibnaaɓe	-12005
▁kaaliino	-12006
▁laataaki	-12007
▁leelaani	-12008
▁lewlewal	-12009
▁njaɓataa	-12010
▁njiyaten	-12011
▁rokkaama	-12012
▁sujjande	-12013
▁Ligisayba	-12014
▁baawnooɗo	-12015
▁hoyrebiir	-12016
▁tradition	-12017
▁ummanaade	-12018
▁wammbaaɓe	-12019
▁winndiino	-12020
arabisation	-12021
▁dumunnaaji	-12022
▁jaayndeeji	-12023
▁malaykaaji	-12024
▁musibbaaji	-12025
▁ameriknaaɓe	-12026
▁International	-12027
16	-12028
77	-12029
El	-12030
Oo	-12031
PS	-12032
هِ	-12033
/11	-12034
Bak	-12035
ONU	-12036
YAN	-12037
bee	-12038
eet	-12039
her	-12040
iru	-12041
jah	-12042
kas	-12043
mil	-12044
tik	-12045
ysi	-12046
▁(«	-12047
▁),	-12048
▁).	-12049
▁7.	-12050
▁kg	-12051
Mars	-12052
aaye	-12053
areg	-12054
ayno	-12055
cess	-12056
duko	-12057
joom	-12058
naam	-12059
roup	-12060
sara	-12061
ulli	-12062
▁30,	-12063
▁Few	-12064
▁Jaɓ	-12065
▁Lab	-12066
▁Lel	-12067
▁Suf	-12068
▁ado	-12069
▁ask	-12070
▁but	-12071
▁hof	-12072
▁laŋ	-12073
▁lof	-12074
▁soñ	-12075
▁ull	-12076
▁yof	-12077
Jooni	-12078
ateno	-12079
deele	-12080
diral	-12081
doogu	-12082
eewol	-12083
fants	-12084
guuji	-12085
ieurs	-12086
iyaan	-12087
jaade	-12088
muuna	-12089
▁1960	-12090
▁Jula	-12091
▁Nguu	-12092
▁Sawa	-12093
▁Tuma	-12094
▁baal	-12095
▁duus	-12096
▁faaɗ	-12097
▁fooy	-12098
▁hula	-12099
▁indi	-12100
▁kaɓi	-12101
▁maha	-12102
▁ngos	-12103
▁pale	-12104
▁taho	-12105
▁ɓole	-12106
Tawree	-12107
aluuji	-12108
iyeeɓe	-12109
ndeede	-12110
tangal	-12111
▁1890,	-12112
▁1966,	-12113
▁Bolon	-12114
▁Butel	-12115
▁Gaana	-12116
▁Maars	-12117
▁Njaac	-12118
▁anniy	-12119
▁keedi	-12120
▁keñor	-12121
▁koltu	-12122
▁lampa	-12123
▁looɗe	-12124
▁majja	-12125
▁ndaam	-12126
▁ndaro	-12127
▁paaɗi	-12128
▁puɗol	-12129
▁seese	-12130
▁tuubi	-12131
▁waɗno	-12132
▁ñiŋde	-12133
▁ɓenna	-12134
▁ɓilii	-12135
akawere	-12136
eresiil	-12137
eslaare	-12138
eteendu	-12139
férence	-12140
ottaari	-12141
quement	-12142
tataako	-12143
ɓaleejo	-12144
▁Biibal	-12145
▁George	-12146
▁Lappol	-12147
▁Meksik	-12148
▁Watara	-12149
▁Woolum	-12150
▁chaque	-12151
▁diidol	-12152
▁goddol	-12153
▁jooɗoo	-12154
▁kaalan	-12155
▁kiiɗal	-12156
▁lulnde	-12157
▁nootii	-12158
▁partir	-12159
▁tampii	-12160
▁wuurdi	-12161
▁ñaawaa	-12162
▁Ɗiiɗoo	-12163
▁Kolaajo	-12164
▁Saalihu	-12165
▁Tagoore	-12166
▁bonnata	-12167
▁bonngol	-12168
▁dañiino	-12169
▁jambala	-12170
▁kaantor	-12171
▁koɗorle	-12172
▁ndokkee	-12173
▁njeegom	-12174
▁satelit	-12175
▁umminoo	-12176
▁ñaamata	-12177
Alkoraana	-12178
▁Gaswaani	-12179
▁Kamaruun	-12180
▁Laamorgo	-12181
▁Sonngaay	-12182
▁baɗnooɗe	-12183
▁bismaade	-12184
▁hirjinde	-12185
▁jeyatnoo	-12186
▁maantini	-12187
▁mbaɗiino	-12188
▁muuseeki	-12189
▁naftoroo	-12190
▁njaltina	-12191
▁nootiima	-12192
▁toɗɗaaɗo	-12193
▁wertallo	-12194
▁wuurnude	-12195
▁ɗaɓɓirde	-12196
▁Apartaayd	-12197
▁Jakariyaa	-12198
▁Lillungal	-12199
▁Ministeer	-12200
▁coodguuli	-12201
▁haalatnoo	-12202
▁kuutorgal	-12203
▁meeɗnooɗo	-12204
▁miñiraaɓe	-12205
▁ngondunoo	-12206
▁ngummorii	-12207
▁notamment	-12208
▁Nationales	-12209
▁Sehilbaabi	-12210
▁demminaare	-12211
▁hatanteeɓe	-12212
▁miijotonoo	-12213
▁ɓoccitaade	-12214
▁pelɓondiral	-12215
▁ngoongɗintaa	-12216
46	-12217
DC	-12218
RS	-12219
vé	-12220
ها	-12221
▁&	-12222
GOL	-12223
Yah	-12224
agu	-12225
cat	-12226
daw	-12227
eki	-12228
hel	-12229
hen	-12230
omi	-12231
sos	-12232
sun	-12233
yya	-12234
ête	-12235
ƴii	-12236
ɓdi	-12237
▁!!	-12238
▁..	-12239
▁ph	-12240
▁yu	-12241
Daar	-12242
Eɗen	-12243
dull	-12244
isée	-12245
kkol	-12246
lack	-12247
pris	-12248
tawa	-12249
▁7:1	-12250
▁Ken	-12251
▁Mam	-12252
▁PUL	-12253
▁Pot	-12254
▁cud	-12255
▁kom	-12256
▁num	-12257
▁Ɓog	-12258
aafig	-12259
aires	-12260
ceeje	-12261
eewde	-12262
illes	-12263
irgel	-12264
janng	-12265
jours	-12266
niika	-12267
quuba	-12268
raten	-12269
tawii	-12270
torto	-12271
uubil	-12272
zilla	-12273
▁1979	-12274
▁Addi	-12275
▁Faay	-12276
▁Goom	-12277
▁IFAN	-12278
▁Jaañ	-12279
▁Kaab	-12280
▁Kebl	-12281
▁Nana	-12282
▁Njah	-12283
▁cumu	-12284
▁diiñ	-12285
▁doon	-12286
▁fira	-12287
▁haak	-12288
▁jimi	-12289
▁kirs	-12290
▁mago	-12291
▁main	-12292
▁mant	-12293
▁mooy	-12294
▁ngom	-12295
▁ngut	-12296
▁soit	-12297
▁weel	-12298
▁woyi	-12299
amadou	-12300
asiyon	-12301
atives	-12302
autres	-12303
jectif	-12304
▁2010.	-12305
▁2011.	-12306
▁2018.	-12307
▁Benin	-12308
▁Islam	-12309
▁Sahel	-12310
▁Sarko	-12311
▁Simon	-12312
▁addaa	-12313
▁autor	-12314
▁balal	-12315
▁bonna	-12316
▁dañee	-12317
▁diwde	-12318
▁ethni	-12319
▁faaro	-12320
▁fayɓe	-12321
▁fooɗi	-12322
▁haade	-12323
▁haawi	-12324
▁hannd	-12325
▁hisna	-12326
▁jehre	-12327
▁jeyal	-12328
▁kakin	-12329
▁korka	-12330
▁nattu	-12331
▁njoɓe	-12332
▁pooye	-12333
▁respe	-12334
▁saydu	-12335
▁wulli	-12336
▁yoori	-12337
▁ɓamii	-12338
inkoore	-12339
itaires	-12340
▁Biraan	-12341
▁Doktor	-12342
▁Ilyaas	-12343
▁Sooyib	-12344
▁Yahuud	-12345
▁awluɓe	-12346
▁bidsee	-12347
▁eggude	-12348
▁fiilaa	-12349
▁firtii	-12350
▁inform	-12351
▁kubbal	-12352
▁kulnoo	-12353
▁loocol	-12354
▁loonde	-12355
▁mbaɗen	-12356
▁nature	-12357
▁ndoŋki	-12358
▁ngoɗɗi	-12359
▁rawane	-12360
▁recher	-12361
▁siilto	-12362
▁tooñii	-12363
▁wonkii	-12364
▁woodat	-12365
▁yiɗani	-12366
▁ɓoorno	-12367
▁Aminata	-12368
▁Article	-12369
▁Firefox	-12370
▁Haamaan	-12371
▁Nafoore	-12372
▁Ndonngo	-12373
▁Ngenaar	-12374
▁Sowiyet	-12375
▁barooɗe	-12376
▁constru	-12377
▁donaaɗi	-12378
▁faweede	-12379
▁goɗɗuɗe	-12380
▁haɓeede	-12381
▁malaaɗo	-12382
▁mbinnde	-12383
▁newaade	-12384
▁saliima	-12385
▁tarafik	-12386
▁tataɓol	-12387
▁telefon	-12388
▁toowuɗo	-12389
▁ummiiɗo	-12390
▁ustiima	-12391
▁waɗiraa	-12392
▁yaajngo	-12393
▁yamirde	-12394
▁ƴettata	-12395
▁ɗowataa	-12396
iyankooji	-12397
yankaagal	-12398
▁December	-12399
▁Kulibali	-12400
▁almuudɓe	-12401
▁baylugol	-12402
▁binnduɗo	-12403
▁etinooma	-12404
▁faddaade	-12405
▁humpitde	-12406
▁jiidigal	-12407
▁kereceen	-12408
▁laamiima	-12409
▁moƴƴooje	-12410
▁naskaaɓe	-12411
▁question	-12412
▁salminii	-12413
▁sankiima	-12414
▁teelɗuɓe	-12415
▁toppitoo	-12416
▁ummortoo	-12417
▁werlaaji	-12418
▁woodaano	-12419
▁ganndaaɗo	-12420
▁kaangaaɗo	-12421
▁luurandir	-12422
▁waliyaaɓe	-12423
▁yowitaade	-12424
▁Fonisnaaɓe	-12425
▁cagataagal	-12426
▁juuroyaade	-12427
▁yummiraaɗo	-12428
▁Denɗiraagal	-12429
▁Saralsameen	-12430
▁gollondiral	-12431
▁naalaŋkooɓe	-12432
▁ƴeewtindaare	-12433
▁international	-12434
▁winndiyankooɓe	-12435
.'	-12436
Ah	-12437
DS	-12438
EY	-12439
Es	-12440
Se	-12441
ƴu	-12442
ات	-12443
▁%	-12444
NLA	-12445
ayi	-12446
ché	-12447
esp	-12448
fre	-12449
gut	-12450
sor	-12451
tde	-12452
édi	-12453
ƴal	-12454
▁Wa	-12455
▁Wo	-12456
▁cr	-12457
...,	-12458
Mali	-12459
adda	-12460
andi	-12461
embl	-12462
erek	-12463
holi	-12464
intu	-12465
iyam	-12466
mbar	-12467
nuɓe	-12468
oyee	-12469
oɗon	-12470
temp	-12471
ulle	-12472
urce	-12473
uuɗi	-12474
ɓuri	-12475
▁(2)	-12476
▁102	-12477
▁Air	-12478
▁Alq	-12479
▁Deh	-12480
▁Déc	-12481
▁FMI	-12482
▁For	-12483
▁Jiy	-12484
▁Koo	-12485
▁Mem	-12486
▁Sur	-12487
▁Voi	-12488
▁cim	-12489
▁mai	-12490
▁mel	-12491
▁Ɗun	-12492
▁الل	-12493
Natal	-12494
aanoo	-12495
aynoo	-12496
ctive	-12497
daari	-12498
galle	-12499
immbo	-12500
itoyi	-12501
naali	-12502
naaɗi	-12503
raaɗo	-12504
rewɓe	-12505
tanɗe	-12506
towal	-12507
▁1966	-12508
▁1988	-12509
▁1993	-12510
▁2003	-12511
▁Aden	-12512
▁Debi	-12513
▁Khal	-12514
▁Sura	-12515
▁Toon	-12516
▁Ubay	-12517
▁char	-12518
▁cogg	-12519
▁daɗi	-12520
▁doit	-12521
▁enne	-12522
▁hecc	-12523
▁kopp	-12524
▁kuul	-12525
▁lasl	-12526
▁ooɗo	-12527
▁waya	-12528
▁yoɓi	-12529
▁ƴees	-12530
▁ɗate	-12531
Imaamu	-12532
aawore	-12533
anndol	-12534
indiri	-12535
itoire	-12536
ndaani	-12537
taniri	-12538
yeewal	-12539
▁Aliyu	-12540
▁Cilon	-12541
▁Jehre	-12542
▁Jumaa	-12543
▁Juumo	-12544
▁Kiifa	-12545
▁Ngalu	-12546
▁Niger	-12547
▁Wiɗto	-12548
▁Yeeso	-12549
▁dipol	-12550
▁enndu	-12551
▁gabbe	-12552
▁gooti	-12553
▁grand	-12554
▁haram	-12555
▁haɓɓi	-12556
▁immii	-12557
▁kañji	-12558
▁keɓal	-12559
▁kolon	-12560
▁kooni	-12561
▁koota	-12562
▁nelde	-12563
▁pawɗe	-12564
▁rabat	-12565
▁sakke	-12566
▁tufɗe	-12567
Afrique	-12568
dinaaji	-12569
etruuji	-12570
iyatiim	-12571
▁Daawal	-12572
▁Kerece	-12573
▁Maande	-12574
▁Ngonka	-12575
▁Njanng	-12576
▁Sahara	-12577
▁Samuud	-12578
▁Sillaa	-12579
▁Tabara	-12580
▁Tataɓo	-12581
▁fleuve	-12582
▁kanngo	-12583
▁mboddi	-12584
▁njanii	-12585
▁saŋkii	-12586
▁suusaa	-12587
▁wiyiri	-12588
▁ƴeewen	-12589
▁ƴiiƴan	-12590
allaagal	-12591
tindiide	-12592
▁Abbaasi	-12593
▁Jolfuɓe	-12594
▁Univers	-12595
▁aksidaa	-12596
▁anniyii	-12597
▁considé	-12598
▁feewnit	-12599
▁gasaani	-12600
▁janvier	-12601
▁jogorɓe	-12602
▁kilooji	-12603
▁kulataa	-12604
▁loraaɓe	-12605
▁mantude	-12606
▁naatiri	-12607
▁njeewta	-12608
▁njuɓɓin	-12609
▁tedduɗi	-12610
▁waɗanii	-12611
▁welnere	-12612
▁wuurtin	-12613
▁yedduɓe	-12614
▁yiyataa	-12615
▁Abubakar	-12616
▁arabeeɓe	-12617
▁bonnande	-12618
▁heddiima	-12619
▁heɓtaade	-12620
▁isinaaji	-12621
▁jahdiiɗo	-12622
▁janngata	-12623
▁jaŋtaade	-12624
▁mawninii	-12625
▁mbaɗaten	-12626
▁nayaɓere	-12627
▁njowitii	-12628
▁pollugol	-12629
▁saaktude	-12630
▁tampinde	-12631
▁timtimol	-12632
▁tokosere	-12633
▁tolnooji	-12634
▁tuugiiɗo	-12635
▁wallooɓe	-12636
▁weltiima	-12637
▁werlaade	-12638
▁ƴettunoo	-12639
▁Sammbooru	-12640
▁coodtiigu	-12641
▁hawraande	-12642
▁jaaynirɗe	-12643
▁njanguuji	-12644
▁njuuteeki	-12645
▁yahratnoo	-12646
tiyankaagal	-12647
▁Professeur	-12648
▁communauté	-12649
▁demokaraas	-12650
▁demokarasi	-12651
▁goongɗinii	-12652
▁jamaanuuji	-12653
▁kuudetaaji	-12654
▁nootitiima	-12655
▁Battindiide	-12656
▁mbiirniindi	-12657
▁njokkondiri	-12658
▁humambinnaagal	-12659
68	-12660
CS	-12661
إن	-12662
ْر	-12663
cun	-12664
ese	-12665
fiy	-12666
jim	-12667
lis	-12668
ɓil	-12669
▁9,	-12670
▁HA	-12671
▁If	-12672
/200	-12673
aaha	-12674
ager	-12675
coup	-12676
ghur	-12677
hino	-12678
juul	-12679
leer	-12680
lerk	-12681
mina	-12682
onie	-12683
▁113	-12684
▁140	-12685
▁149	-12686
▁18,	-12687
▁Biy	-12688
▁Cam	-12689
▁Cof	-12690
▁FUL	-12691
▁KAN	-12692
▁Tir	-12693
▁Yes	-12694
▁hom	-12695
▁lun	-12696
▁occ	-12697
▁ool	-12698
▁tuɗ	-12699
▁صلى	-12700
❤️❤️	-12701
Minen	-12702
abbin	-12703
dirta	-12704
ommbo	-12705
roupe	-12706
uwaar	-12707
venir	-12708
ɓotoo	-12709
▁1983	-12710
▁Bara	-12711
▁Ndul	-12712
▁abbo	-12713
▁baar	-12714
▁cons	-12715
▁diwi	-12716
▁ekon	-12717
▁inni	-12718
▁inté	-12719
▁kore	-12720
▁médi	-12721
▁oole	-12722
▁plan	-12723
▁pota	-12724
▁sens	-12725
▁siŋk	-12726
▁tukk	-12727
▁yimi	-12728
▁ɓaaƴ	-12729
natnoo	-12730
nirgal	-12731
oraaki	-12732
ratnoo	-12733
umière	-12734
unaaɓe	-12735
▁Burgu	-12736
▁Colte	-12737
▁Gurmo	-12738
▁Peeje	-12739
▁Seɓɓe	-12740
▁Trans	-12741
▁boyli	-12742
▁diiri	-12743
▁diiwe	-12744
▁feewa	-12745
▁feeña	-12746
▁ferde	-12747
▁impor	-12748
▁koɗii	-12749
▁lesle	-12750
▁looci	-12751
▁moosi	-12752
▁mutal	-12753
▁nafde	-12754
▁nawti	-12755
▁needi	-12756
▁posto	-12757
▁probl	-12758
▁rutti	-12759
▁tottu	-12760
▁weldi	-12761
▁étran	-12762
▁ñaagu	-12763
▁ñiiri	-12764
▁ɓiyam	-12765
dotaako	-12766
ondirɗo	-12767
ɗiraaɓe	-12768
▁Ejipte	-12769
▁Guinée	-12770
▁Njillu	-12771
▁Sidiki	-12772
▁abbere	-12773
▁gargol	-12774
▁horsin	-12775
▁karbon	-12776
▁mahnoo	-12777
▁mettin	-12778
▁njaafo	-12779
▁pamare	-12780
▁sonndu	-12781
▁taaɓal	-12782
▁tuumaa	-12783
▁ɓooyɓe	-12784
golluuje	-12785
▁Jalaali	-12786
▁Kerecee	-12787
▁Kolonel	-12788
▁Malayka	-12789
▁Saralsa	-12790
▁addaani	-12791
▁adiinde	-12792
▁baraaji	-12793
▁cukalon	-12794
▁fodanii	-12795
▁goɗɗuɗo	-12796
▁hulataa	-12797
▁hunduko	-12798
▁justice	-12799
▁kaalani	-12800
▁kulaani	-12801
▁mbaɗtaa	-12802
▁moritan	-12803
▁ngardin	-12804
▁premier	-12805
▁ɓadiima	-12806
▁ɓennude	-12807
Lanndiiɗo	-12808
leñamaagu	-12809
▁Bolondee	-12810
▁Maymuuna	-12811
▁Tawaasul	-12812
▁Yaaquuba	-12813
▁adunaare	-12814
▁adunaaru	-12815
▁dallinde	-12816
▁décembre	-12817
▁fotnooɓe	-12818
▁humpitii	-12819
▁laamorde	-12820
▁maayataa	-12821
▁mbinndaa	-12822
▁mbiyiino	-12823
▁moƴƴooɓe	-12824
▁ngaanndi	-12825
▁ngariino	-12826
▁njahrata	-12827
▁njeddata	-12828
▁njibinaa	-12829
▁première	-12830
▁raɓɓiɗde	-12831
▁ñaamataa	-12832
aateeruuji	-12833
▁Malinaaɓe	-12834
▁Njeenaari	-12835
▁battindii	-12836
▁joginooɗo	-12837
▁ndaartude	-12838
▁njanngina	-12839
▁njilluuji	-12840
▁siforaade	-12841
▁woondirii	-12842
▁ɓitteende	-12843
▁ɗoftangol	-12844
▁Washington	-12845
▁humpitiiɓe	-12846
▁koninkaagu	-12847
▁jokkondirii	-12848
.’	-12849
49	-12850
:6	-12851
Is	-12852
ît	-12853
رس	-12854
▁·	-12855
bla	-12856
jum	-12857
leñ	-12858
pro	-12859
saf	-12860
str	-12861
wan	-12862
ɓiy	-12863
▁AR	-12864
▁TP	-12865
PADS	-12866
aatu	-12867
allu	-12868
cité	-12869
dnoo	-12870
eraa	-12871
grès	-12872
lahi	-12873
loyd	-12874
olel	-12875
part	-12876
rapp	-12877
tire	-12878
tour	-12879
uɗaa	-12880
▁Hus	-12881
▁Kaɓ	-12882
▁Muñ	-12883
▁SAW	-12884
▁Yal	-12885
▁Yan	-12886
▁Yas	-12887
▁Zah	-12888
▁añi	-12889
▁coy	-12890
▁deŋ	-12891
▁doc	-12892
▁fek	-12893
▁laɓ	-12894
▁mer	-12895
▁wot	-12896
▁Ñam	-12897
afrik	-12898
feere	-12899
inter	-12900
kiino	-12901
kosel	-12902
maayo	-12903
maɓɓe	-12904
tinan	-12905
tuɗen	-12906
▁Haan	-12907
▁SIDA	-12908
▁Toro	-12909
▁beɗi	-12910
▁eggu	-12911
▁etii	-12912
▁kiri	-12913
▁moƳƳ	-12914
▁nafi	-12915
▁ndak	-12916
▁teew	-12917
▁telɓ	-12918
▁tina	-12919
▁ɓang	-12920
▁ɗowi	-12921
atubak	-12922
daande	-12923
itinoo	-12924
laamɗo	-12925
laawol	-12926
onooɓe	-12927
taires	-12928
witter	-12929
▁1960,	-12930
▁1999,	-12931
▁2007.	-12932
▁Boobo	-12933
▁Floyd	-12934
▁Jaari	-12935
▁Jahal	-12936
▁Kaaƴe	-12937
▁Micro	-12938
▁Napol	-12939
▁Yerɓo	-12940
▁Yimre	-12941
▁bolle	-12942
▁cokli	-12943
▁condi	-12944
▁daɓɓi	-12945
▁diidi	-12946
▁faamu	-12947
▁geeƴe	-12948
▁jaɓan	-12949
▁kiris	-12950
▁kodda	-12951
▁laten	-12952
▁mbeɗo	-12953
▁moodi	-12954
▁njehi	-12955
▁nulal	-12956
▁taani	-12957
▁tabin	-12958
▁ñallu	-12959
▁ɓawli	-12960
▁ɓennd	-12961
ammburu	-12962
eteengo	-12963
illeurs	-12964
taangal	-12965
tanooɓe	-12966
▁Addani	-12967
▁Asakal	-12968
▁Calame	-12969
▁Itaali	-12970
▁Joomum	-12971
▁Saalif	-12972
▁bonnii	-12973
▁danndu	-12974
▁heɓnoo	-12975
▁hoɗnoo	-12976
▁jaajɗe	-12977
▁juurii	-12978
▁kulɓin	-12979
▁laaɓii	-12980
▁lomlom	-12981
▁luutnd	-12982
▁njahra	-12983
▁njamir	-12984
▁njeeya	-12985
▁potata	-12986
▁tataɓe	-12987
▁techni	-12988
▁waajoo	-12989
▁wallii	-12990
▁yettin	-12991
▁ɗowata	-12992
anteendi	-12993
hooreeji	-12994
▁Bisaawo	-12995
▁Bubakar	-12996
▁Feccere	-12997
▁Haataar	-12998
▁Mbummba	-12999
▁Musiɗɗo	-13000
▁Ngalɗoo	-13001
▁Raamata	-13002
▁Songhay	-13003
▁Tammbaa	-13004
▁dartini	-13005
▁dañataa	-13006
▁dimngal	-13007
▁heeñere	-13008
▁ittaani	-13009
▁jooɗnde	-13010
▁mballif	-13011
▁mettuɗe	-13012
▁nanngal	-13013
▁newaare	-13014
▁ngollii	-13015
▁sippiro	-13016
▁yiɗiino	-13017
▁biɗtoowo	-13018
▁bonnugol	-13019
▁contribu	-13020
▁dognooɓe	-13021
▁feññinde	-13022
▁firtooɓe	-13023
▁gonnooɗi	-13024
▁gowlaali	-13025
▁haalaaka	-13026
▁jiiloowo	-13027
▁manaango	-13028
▁mawniiko	-13029
▁mbajjiri	-13030
▁mooloyii	-13031
▁ngasataa	-13032
▁puɗɗorii	-13033
▁timmoode	-13034
▁tuufeeje	-13035
▁wondaani	-13036
▁woppataa	-13037
▁Almameeɓe	-13038
▁Nationale	-13039
▁duwanaade	-13040
▁imaamuuɓe	-13041
▁jiidnaaɓe	-13042
▁jotondiri	-13043
▁kellifuya	-13044
▁seedtaade	-13045
ouvernement	-13046
▁Enndonaaɓe	-13047
▁Kompaawore	-13048
▁calminaali	-13049
▁daraniinde	-13050
▁pelɓondire	-13051
▁économique	-13052
▁njaatiraaɓe	-13053
▁paamondiral	-13054
▁seedanfaagu	-13055
79	-13056
CI	-13057
GU	-13058
Ji	-13059
NA	-13060
ƴo	-13061
مر	-13062
َب	-13063
▁خ	-13064
/06	-13065
/10	-13066
5).	-13067
Ann	-13068
Man	-13069
Waɗ	-13070
doy	-13071
jkw	-13072
ken	-13073
key	-13074
nie	-13075
nje	-13076
tru	-13077
çon	-13078
ñoo	-13079
▁AF	-13080
▁Az	-13081
▁“.	-13082
)...	-13083
alen	-13084
atre	-13085
ayli	-13086
aɓol	-13087
duru	-13088
ende	-13089
haal	-13090
inté	-13091
jami	-13092
ndol	-13093
okke	-13094
otto	-13095
stri	-13096
tali	-13097
ulel	-13098
ñgol	-13099
▁(10	-13100
▁125	-13101
▁145	-13102
▁Del	-13103
▁Dur	-13104
▁FPU	-13105
▁Kid	-13106
▁Kin	-13107
▁Siñ	-13108
▁dép	-13109
▁dés	-13110
▁fóf	-13111
▁okk	-13112
▁reg	-13113
▁sub	-13114
▁Ñii	-13115
▁ɗat	-13116
aduna	-13117
iinɗo	-13118
ikmah	-13119
llere	-13120
lèves	-13121
towol	-13122
tures	-13123
uural	-13124
▁Asma	-13125
▁Hutu	-13126
▁Maaj	-13127
▁Njum	-13128
▁Samm	-13129
▁Wayl	-13130
▁Zuma	-13131
▁arda	-13132
▁fois	-13133
▁kirj	-13134
▁komi	-13135
▁kuɗi	-13136
▁ndaa	-13137
▁neeɓ	-13138
▁sunu	-13139
▁symb	-13140
▁terr	-13141
▁tumb	-13142
▁vale	-13143
▁wukk	-13144
▁ƴaaŋ	-13145
aawete	-13146
aneeji	-13147
dental	-13148
inooɗi	-13149
ulaire	-13150
▁2003,	-13151
▁20150	-13152
▁Ammba	-13153
▁Haram	-13154
▁Saako	-13155
▁Seeno	-13156
▁ardoo	-13157
▁cubal	-13158
▁femme	-13159
▁fisik	-13160
▁gasɗe	-13161
▁jippo	-13162
▁jonɗe	-13163
▁karah	-13164
▁keɓen	-13165
▁lesre	-13166
▁mbiɗa	-13167
▁meere	-13168
▁miñum	-13169
▁nafig	-13170
▁ndeya	-13171
▁ndiis	-13172
▁ndupp	-13173
▁neldu	-13174
▁ngaad	-13175
▁ngaañ	-13176
▁seeri	-13177
▁simme	-13178
▁ustoo	-13179
▁yaasi	-13180
▁ñiibi	-13181
agement	-13182
tanooki	-13183
ubaarak	-13184
▁Apollo	-13185
▁Baktan	-13186
▁Dirmis	-13187
▁FONADH	-13188
▁Faalil	-13189
▁Fuladu	-13190
▁Guinee	-13191
▁Keewal	-13192
▁Naseer	-13193
▁Ngaari	-13194
▁anndal	-13195
▁bannde	-13196
▁boomde	-13197
▁devant	-13198
▁ganndu	-13199
▁giiɗal	-13200
▁goopal	-13201
▁haftii	-13202
▁heblii	-13203
▁jofnde	-13204
▁joorɗe	-13205
▁mahgol	-13206
▁mbaɗan	-13207
▁mbootu	-13208
▁partie	-13209
▁reento	-13210
▁riiwde	-13211
▁roŋkii	-13212
▁seedam	-13213
▁tottee	-13214
▁waliyu	-13215
fication	-13216
▁Ardiiɓe	-13217
▁Bilkiis	-13218
▁Kaliifa	-13219
▁Mawluud	-13220
▁Tonngol	-13221
▁addunoo	-13222
▁ardiiɗo	-13223
▁binndól	-13224
▁feeñata	-13225
▁hitooji	-13226
▁innirde	-13227
▁jimoowo	-13228
▁joljole	-13229
▁mbaasen	-13230
▁mbeddii	-13231
▁mettini	-13232
▁mumtude	-13233
▁ndaarii	-13234
▁ngontaa	-13235
▁njahata	-13236
▁respons	-13237
▁salaare	-13238
▁taraade	-13239
▁timmata	-13240
▁toɓooli	-13241
▁welaama	-13242
▁yuɓɓude	-13243
▁ñawanɗe	-13244
▁ƴeewndo	-13245
▁Beresiil	-13246
▁Mubaarak	-13247
▁Senngoor	-13248
▁Shingiti	-13249
▁baɗambon	-13250
▁bottaari	-13251
▁cikkataa	-13252
▁ciñcanɗe	-13253
▁hesniiɓe	-13254
▁huutoree	-13255
▁joofnude	-13256
▁keeceeje	-13257
▁lampaaji	-13258
▁saabaade	-13259
▁sereendu	-13260
▁teeruuji	-13261
▁waawirta	-13262
▁wulaango	-13263
▁yahatnoo	-13264
▁ŋguurten	-13265
▁ƴeewaani	-13266
▁ɓesnooje	-13267
▁ɓeydugol	-13268
▁Najeeriya	-13269
▁almameeɓe	-13270
▁formation	-13271
▁jogoraani	-13272
▁leƴƴannde	-13273
▁lonngorɗe	-13274
▁naangeeji	-13275
▁naworaani	-13276
▁ngardiino	-13277
▁ruuhuyaŋk	-13278
▁sikkatnoo	-13279
▁Egliisaaji	-13280
▁Hiirnaange	-13281
▁afriknaaje	-13282
▁ciiñsiiñƴe	-13283
▁faayodinde	-13284
▁gollanaade	-13285
▁hakkilaaji	-13286
▁jontinooje	-13287
▁saggitorde	-13288
▁maanditaare	-13289
▁sanndarmori	-13290
-------------	-13291
▁Konostantiin	-13292
▁bakkodinooɓe	-13293
▁mauritanienne	-13294
▁Jaaɓihaaɗtirde	-13295
▁ndoolndoolaagu	-13296
Di	-13297
EF	-13298
].	-13299
bé	-13300
gé	-13301
uc	-13302
xi	-13303
ْن	-13304
▁#	-13305
▁ك	-13306
💖💖	-13307
/04	-13308
AAL	-13309
Qur	-13310
awo	-13311
haɗ	-13312
kri	-13313
umo	-13314
utu	-13315
ɗno	-13316
▁AV	-13317
▁Ug	-13318
▁om	-13319
,000	-13320
bara	-13321
cune	-13322
habo	-13323
iiwo	-13324
lefi	-13325
line	-13326
omee	-13327
otre	-13328
ouis	-13329
phab	-13330
rewo	-13331
tent	-13332
tiss	-13333
tule	-13334
▁115	-13335
▁Ces	-13336
▁Fou	-13337
▁GOO	-13338
▁Hod	-13339
▁Ish	-13340
▁Lor	-13341
▁Pap	-13342
▁Sew	-13343
▁aɗe	-13344
▁daf	-13345
▁dig	-13346
▁duŋ	-13347
▁gid	-13348
▁opp	-13349
▁roo	-13350
▁yor	-13351
YANKE	-13352
aalel	-13353
aarel	-13354
awore	-13355
croix	-13356
debbo	-13357
dirde	-13358
eeral	-13359
emmbe	-13360
gaaɓe	-13361
iyata	-13362
jourd	-13363
komaa	-13364
nduɗo	-13365
nelle	-13366
périm	-13367
reeji	-13368
umaan	-13369
ñeere	-13370
▁1959	-13371
▁Ceer	-13372
▁July	-13373
▁Kolo	-13374
▁Madi	-13375
▁Moor	-13376
▁Saad	-13377
▁Sadi	-13378
▁Sari	-13379
▁Shar	-13380
▁Taan	-13381
▁afin	-13382
▁atom	-13383
▁baam	-13384
▁barm	-13385
▁camm	-13386
▁duñi	-13387
▁egga	-13388
▁elim	-13389
▁faat	-13390
▁famp	-13391
▁gool	-13392
▁heso	-13393
▁heɗɗ	-13394
▁juma	-13395
▁liim	-13396
▁ngiw	-13397
▁peel	-13398
▁resa	-13399
▁rôle	-13400
▁sirŋ	-13401
▁yiɗa	-13402
▁égal	-13403
Fooyre	-13404
ctions	-13405
iniiɗe	-13406
iniiɗi	-13407
inorde	-13408
njiila	-13409
ouvoir	-13410
vement	-13411
ɗingal	-13412
▁Afgan	-13413
▁Boode	-13414
▁Franç	-13415
▁Huley	-13416
▁Julɓe	-13417
▁Laten	-13418
▁Lebbi	-13419
▁Marsa	-13420
▁SAWRU	-13421
▁Sanam	-13422
▁Tesku	-13423
▁autre	-13424
▁ciiri	-13425
▁dannd	-13426
▁diiso	-13427
▁diwii	-13428
▁finii	-13429
▁fuɗde	-13430
▁geɓal	-13431
▁hokka	-13432
▁human	-13433
▁jaɓɗo	-13434
▁jeyɗo	-13435
▁jiidi	-13436
▁jolde	-13437
▁kiloo	-13438
▁koppi	-13439
▁kuuɗe	-13440
▁laɓɓe	-13441
▁leñɗi	-13442
▁mawna	-13443
▁mehɓe	-13444
▁njaay	-13445
▁paasp	-13446
▁peeñi	-13447
▁tawri	-13448
▁volon	-13449
▁waala	-13450
▁wakil	-13451
anoongu	-13452
antaake	-13453
notooɓe	-13454
tanaama	-13455
tetaake	-13456
toregol	-13457
▁Alghur	-13458
▁Garlol	-13459
▁Haadii	-13460
▁associ	-13461
▁foofde	-13462
▁jaaboo	-13463
▁keɓtii	-13464
▁laanel	-13465
▁matern	-13466
▁mbasiy	-13467
▁muuyni	-13468
▁naskin	-13469
▁nattat	-13470
▁ngayni	-13471
▁ngummi	-13472
▁peewna	-13473
▁peuple	-13474
▁sabuna	-13475
▁seerta	-13476
▁tafngo	-13477
▁waɗtin	-13478
▁woɗɗit	-13479
▁yannge	-13480
▁Ƴeewee	-13481
▁Tedduɗo	-13482
▁Tokosel	-13483
▁boneeji	-13484
▁dentuɗe	-13485
▁faandii	-13486
▁fawaaki	-13487
▁jaleeɗe	-13488
▁keewngu	-13489
▁mbelɗam	-13490
▁nanngii	-13491
▁ndiiɗoo	-13492
▁ngoniri	-13493
▁njonngu	-13494
▁tuubaak	-13495
▁ustaare	-13496
▁ustugol	-13497
asiyonaal	-13498
▁Bahbahel	-13499
▁Dirmisil	-13500
▁Taariika	-13501
▁dowrowal	-13502
▁feɗeendu	-13503
▁gaañiiɓe	-13504
▁jippaade	-13505
▁joopaade	-13506
▁juutaani	-13507
▁limlebbi	-13508
▁muusalla	-13509
▁njeegomo	-13510
▁nokkeeli	-13511
▁ruttiima	-13512
▁siftorii	-13513
▁siyneede	-13514
▁sunnaade	-13515
▁tuwaareg	-13516
▁woodataa	-13517
▁yawtunde	-13518
▁ƴellitii	-13519
▁Kelmeendi	-13520
▁aliyatiim	-13521
▁dokkirgol	-13522
▁foofaandu	-13523
▁gooŋɗinɓe	-13524
▁toŋngooɗe	-13525
▁waklitere	-13526
▁wowlaandu	-13527
▁ɗamininoo	-13528
▁Sambatubak	-13529
▁anndiraaka	-13530
▁sakkitorii	-13531
▁ameriknaajo	-13532
▁feewnitaade	-13533
▁hakkundeeje	-13534
▁ɓiyleydaagu	-13535
▁muritaninaajo	-13536
IP	-13537
ua	-13538
ys	-13539
▁>	-13540
▁|	-13541
bus	-13542
hoɗ	-13543
hui	-13544
ker	-13545
let	-13546
yat	-13547
▁05	-13548
▁6-	-13549
▁XV	-13550
▁là	-13551
▁ve	-13552
ccol	-13553
cide	-13554
erel	-13555
iren	-13556
ngun	-13557
onde	-13558
soft	-13559
suur	-13560
toyo	-13561
uvre	-13562
▁(5)	-13563
▁111	-13564
▁123	-13565
▁25.	-13566
▁900	-13567
▁Agu	-13568
▁Edi	-13569
▁Jur	-13570
▁Kiŋ	-13571
▁RFD	-13572
▁ceɓ	-13573
▁cou	-13574
▁jag	-13575
▁loi	-13576
▁lot	-13577
▁nik	-13578
▁pan	-13579
▁sak	-13580
▁top	-13581
▁vue	-13582
▁wan	-13583
▁web	-13584
▁Ɗow	-13585
▁الْ	-13586
Bakri	-13587
akkaa	-13588
begut	-13589
diiɗi	-13590
dugal	-13591
gooji	-13592
inani	-13593
inira	-13594
jaŋde	-13595
pital	-13596
tanta	-13597
tence	-13598
tundu	-13599
ɓiijo	-13600
ɗinii	-13601
▁1958	-13602
▁1968	-13603
▁Géné	-13604
▁Hujj	-13605
▁Ndii	-13606
▁acca	-13607
▁biro	-13608
▁call	-13609
▁faut	-13610
▁firi	-13611
▁fuut	-13612
▁haɓa	-13613
▁iwde	-13614
▁jubb	-13615
▁kesa	-13616
▁mali	-13617
▁mboɗ	-13618
▁moos	-13619
▁moti	-13620
▁moññ	-13621
▁nawr	-13622
▁oroo	-13623
▁pada	-13624
▁pehe	-13625
▁saam	-13626
▁welo	-13627
▁yamm	-13628
▁yant	-13629
▁ɲaam	-13630
aamiin	-13631
daagal	-13632
inooɗe	-13633
oyooɓe	-13634
tation	-13635
▁Foodi	-13636
▁Jorje	-13637
▁Laaɗe	-13638
▁Muñal	-13639
▁Ndokk	-13640
▁Peuls	-13641
▁abril	-13642
▁almam	-13643
▁angal	-13644
▁avait	-13645
▁baasi	-13646
▁conng	-13647
▁dagoo	-13648
▁deeƴi	-13649
▁diini	-13650
▁fusde	-13651
▁goofi	-13652
▁gural	-13653
▁happu	-13654
▁hawre	-13655
▁hiiri	-13656
▁horɓe	-13657
▁jatti	-13658
▁jiimi	-13659
▁jungo	-13660
▁kawra	-13661
▁laati	-13662
▁mboni	-13663
▁ndonk	-13664
▁njeya	-13665
▁njupp	-13666
▁oolel	-13667
▁reseŋ	-13668
▁seedi	-13669
▁selon	-13670
▁siɗɗo	-13671
▁tekte	-13672
▁ubbaa	-13673
▁ñiiɓi	-13674
▁ƴoƴɗo	-13675
Aljanna	-13676
deftere	-13677
feraand	-13678
gotooɗo	-13679
▁Humpit	-13680
▁Jaayre	-13681
▁Khadii	-13682
▁Kummbi	-13683
▁Mbiyen	-13684
▁Ngayde	-13685
▁Satigi	-13686
▁Yoruba	-13687
▁cinnde	-13688
▁cosaan	-13689
▁cukuli	-13690
▁daɗnda	-13691
▁dekere	-13692
▁dispos	-13693
▁fillii	-13694
▁haande	-13695
▁jaarde	-13696
▁jarabi	-13697
▁joofde	-13698
▁kewata	-13699
▁laañal	-13700
▁laaɓɗe	-13701
▁luurdi	-13702
▁nawata	-13703
▁ngasii	-13704
▁piindi	-13705
▁tagiri	-13706
▁waynii	-13707
▁weltoo	-13708
▁yimata	-13709
▁ñaawee	-13710
▁ɓamtoo	-13711
eteengol	-13712
pération	-13713
▁Faggudu	-13714
▁Konuuji	-13715
▁Laakara	-13716
▁Mamadou	-13717
▁Nasraan	-13718
▁Seynabu	-13719
▁Tafsiir	-13720
▁berbeer	-13721
▁coftuɗo	-13722
▁deental	-13723
▁duumoto	-13724
▁goongɗi	-13725
▁hatojin	-13726
▁hawrata	-13727
▁mbaasaa	-13728
▁ngaddaa	-13729
▁udditaa	-13730
▁umminde	-13731
▁waɗaano	-13732
▁wonirta	-13733
▁yaltata	-13734
▁yiɗeede	-13735
▁ɓurataa	-13736
iyankoore	-13737
uubiliiji	-13738
▁Jaaluuta	-13739
▁Laamiiɗo	-13740
▁awokaaji	-13741
▁caanngol	-13742
▁cakkitii	-13743
▁cooynoto	-13744
▁gaarawol	-13745
▁gardeeɓe	-13746
▁gertooɗe	-13747
▁jaagorɗo	-13748
▁jeertina	-13749
▁joofirde	-13750
▁keewaano	-13751
▁leslesre	-13752
▁nguurdam	-13753
▁paamataa	-13754
▁pawatnoo	-13755
▁ruttitii	-13756
▁scolaire	-13757
▁tooweeki	-13758
▁toujours	-13759
▁ujunaaje	-13760
▁ummiinde	-13761
▁yahnooɓe	-13762
▁ñaaweede	-13763
▁Baktansar	-13764
▁laaɓtundi	-13765
▁lewlewndu	-13766
▁miñiraaɗo	-13767
▁naamnaaki	-13768
▁njoɓɗeele	-13769
▁saretaaji	-13770
▁waɗnoonde	-13771
▁wonndiɓɓe	-13772
▁yimiyanke	-13773
▁yiyotaako	-13774
-----------	-13775
information	-13776
▁Ngenndiire	-13777
▁golloraade	-13778
▁haalaluuji	-13779
▁mawniraaɓe	-13780
▁paabatooɗo	-13781
▁ɓurondiral	-13782
▁luulndiinde	-13783
▁mbelemmaaji	-13784
▁ngaddinaaji	-13785
▁wallondirde	-13786
▁senegaalnaaɓe	-13787
▁ɗanniyankooɓe	-13788
▁ɗemɗiyankaagal	-13789
▁ngenndiyaŋkooɓe	-13790
".	-13791
AB	-13792
GO	-13793
PA	-13794
èg	-13795
تَ	-13796
▁آ	-13797
▁ش	-13798
/08	-13799
GAL	-13800
OMM	-13801
bje	-13802
cca	-13803
gas	-13804
hem	-13805
htt	-13806
oye	-13807
pha	-13808
sid	-13809
sie	-13810
tek	-13811
uuɓ	-13812
uwa	-13813
vor	-13814
ɓtu	-13815
ذين	-13816
▁DE	-13817
▁Un	-13818
▁wó	-13819
▁}[	-13820
▁أن	-13821
Maay	-13822
anɗi	-13823
buru	-13824
ceen	-13825
crim	-13826
kkon	-13827
orma	-13828
péri	-13829
quoi	-13830
sina	-13831
wude	-13832
yeen	-13833
ƴƴam	-13834
▁(3)	-13835
▁117	-13836
▁130	-13837
▁133	-13838
▁173	-13839
▁20.	-13840
▁Are	-13841
▁Bab	-13842
▁Dub	-13843
▁Eɗe	-13844
▁Fun	-13845
▁Ils	-13846
▁Ker	-13847
▁Mik	-13848
▁Suu	-13849
▁eba	-13850
▁ins	-13851
▁lep	-13852
▁loŋ	-13853
▁mit	-13854
▁pak	-13855
▁set	-13856
▁wed	-13857
▁équ	-13858
▁ƴoo	-13859
Miɗen	-13860
aaren	-13861
ables	-13862
amndi	-13863
astor	-13864
gence	-13865
heeda	-13866
itiri	-13867
lugol	-13868
netee	-13869
noode	-13870
phabé	-13871
sible	-13872
siiji	-13873
toyaa	-13874
uloor	-13875
yamin	-13876
▁(197	-13877
▁...)	-13878
▁1981	-13879
▁1998	-13880
▁2004	-13881
▁Anne	-13882
▁Baas	-13883
▁Isma	-13884
▁Koll	-13885
▁Tati	-13886
▁andu	-13887
▁baro	-13888
▁boof	-13889
▁ceek	-13890
▁ejol	-13891
▁endi	-13892
▁faɗo	-13893
▁feso	-13894
▁foor	-13895
▁gaal	-13896
▁hagg	-13897
▁heli	-13898
▁huma	-13899
▁huɗi	-13900
▁meho	-13901
▁mogg	-13902
▁neem	-13903
▁paaɗ	-13904
▁saal	-13905
▁wiye	-13906
UNESCO	-13907
cteurs	-13908
iyaadi	-13909
nungal	-13910
piteen	-13911
uleeki	-13912
ñalnde	-13913
ɗungol	-13914
▁2001,	-13915
▁Jaloo	-13916
▁Jenne	-13917
▁Kaŋŋe	-13918
▁Ndaar	-13919
▁Thabo	-13920
▁colon	-13921
▁engal	-13922
▁haari	-13923
▁heɓta	-13924
▁hulii	-13925
▁joɗle	-13926
▁keɓɗo	-13927
▁koɗɗo	-13928
▁liggo	-13929
▁major	-13930
▁maraa	-13931
▁muuya	-13932
▁nelaa	-13933
▁payɗi	-13934
▁petit	-13935
▁pewji	-13936
▁porog	-13937
▁safra	-13938
▁tooñe	-13939
▁trois	-13940
▁ɗawre	-13941
Kaalden	-13942
aañoowo	-13943
ɗondiri	-13944
▁Askiya	-13945
▁Bagboo	-13946
▁Duujal	-13947
▁Farays	-13948
▁Joɗnde	-13949
▁Liisee	-13950
▁Ndoogu	-13951
▁Njobbo	-13952
▁Siftor	-13953
▁artira	-13954
▁ceerta	-13955
▁coloni	-13956
▁contin	-13957
▁jookdu	-13958
▁kaandu	-13959
▁koddir	-13960
▁leeɓte	-13961
▁mbaali	-13962
▁mooɓam	-13963
▁moƴƴam	-13964
▁ngantu	-13965
▁njetti	-13966
▁puɗɗoo	-13967
▁rewnoo	-13968
▁tagnoo	-13969
▁wonngo	-13970
▁yaynoo	-13971
▁yiyloo	-13972
▁Ɗeeɗoo	-13973
▁ɗiɗmol	-13974
Tawreeta	-13975
atamaare	-13976
leyɗeele	-13977
▁Malaaɗo	-13978
▁Mandela	-13979
▁Mullaay	-13980
▁Tiggere	-13981
▁Wondema	-13982
▁aayaawo	-13983
▁ardinaa	-13984
▁artataa	-13985
▁daraaki	-13986
▁demande	-13987
▁demngal	-13988
▁dewoowo	-13989
▁gadduɗo	-13990
▁heɓataa	-13991
▁hokkata	-13992
▁hukuuma	-13993
▁jaggiri	-13994
▁juillet	-13995
▁koŋngol	-13996
▁kuɗaaɗo	-13997
▁madiina	-13998
▁meeɗnoo	-13999
▁naamndo	-14000
▁ngaddam	-14001
▁sinemaa	-14002
▁tagaaɗo	-14003
▁taƴooɓe	-14004
▁timmina	-14005
▁waɗugol	-14006
▁weliraa	-14007
▁yahuuda	-14008
▁yarnude	-14009
▁ñaawata	-14010
▁Benyamin	-14011
▁Goomuuji	-14012
▁Jokkorde	-14013
▁Miijooji	-14014
▁balloowo	-14015
▁beaucoup	-14016
▁gaññeeje	-14017
▁gooŋɗini	-14018
▁hoolaaɓe	-14019
▁hoonaade	-14020
▁jokkoyde	-14021
▁jooɗorɗe	-14022
▁kaalataa	-14023
▁katojini	-14024
▁kaŋŋeeji	-14025
▁kuutorii	-14026
▁lelnugol	-14027
▁luggiɗde	-14028
▁naalaŋke	-14029
▁nduwanoo	-14030
▁ngaddana	-14031
▁njanngen	-14032
▁njanngii	-14033
▁njeenayo	-14034
▁potnooɗo	-14035
▁tabitini	-14036
▁tolnotoo	-14037
▁waɗteede	-14038
▁weltinde	-14039
▁wonatnoo	-14040
▁yaafaade	-14041
▁yahrooɓe	-14042
▁yakawere	-14043
▁yaltaani	-14044
▁ɓurtunde	-14045
Joomiraaɗo	-14046
feraandoom	-14047
▁Asammbele	-14048
▁Portugaal	-14049
▁feewnitde	-14050
▁goppitgol	-14051
▁janngugol	-14052
▁jinngande	-14053
▁kalfaandi	-14054
▁kominaaji	-14055
▁ngoodanii	-14056
▁njaakorii	-14057
▁njaltinii	-14058
▁waɗɗiinde	-14059
▁Ndulumaaji	-14060
▁République	-14061
▁lawakeewal	-14062
▁mbelemaaji	-14063
▁tillisaaji	-14064
▁winndaande	-14065
▁Ƴellitaare	-14066
▁Afganistaan	-14067
▁anndiraande	-14068
▁hulɓiniinde	-14069
▁wullitaango	-14070
--------------	-14071
▁internationale	-14072
48	-14073
At	-14074
CM	-14075
Ch	-14076
PF	-14077
yr	-14078
ير	-14079
َي	-14080
▁—	-14081
:10	-14082
Alm	-14083
Com	-14084
Def	-14085
Maw	-14086
ase	-14087
ben	-14088
bou	-14089
cii	-14090
cor	-14091
cre	-14092
cré	-14093
fat	-14094
foo	-14095
kir	-14096
las	-14097
tul	-14098
uuñ	-14099
ňol	-14100
▁01	-14101
▁03	-14102
▁DI	-14103
▁Ed	-14104
▁Ey	-14105
▁MB	-14106
▁Yu	-14107
▁em	-14108
▁»)	-14109
anni	-14110
ansa	-14111
bati	-14112
cles	-14113
dugu	-14114
eNst	-14115
oyat	-14116
ruɗe	-14117
uude	-14118
uudi	-14119
uyee	-14120
wara	-14121
weet	-14122
▁114	-14123
▁Ass	-14124
▁Hit	-14125
▁Lat	-14126
▁Sad	-14127
▁Sañ	-14128
▁Tas	-14129
▁cem	-14130
▁dou	-14131
▁ele	-14132
▁fak	-14133
▁joɓ	-14134
▁ŋaa	-14135
Afrik	-14136
Laamu	-14137
aatul	-14138
ddiri	-14139
iiƴam	-14140
isées	-14141
karam	-14142
kiiɗe	-14143
langu	-14144
leyhi	-14145
nande	-14146
oosis	-14147
seeɗa	-14148
siɓil	-14149
tante	-14150
uwaas	-14151
wonde	-14152
ément	-14153
ɗoyde	-14154
▁1974	-14155
▁Amar	-14156
▁Ayse	-14157
▁Dadd	-14158
▁Estu	-14159
▁Faar	-14160
▁Gaar	-14161
▁Hari	-14162
▁Jaco	-14163
▁Kuuɓ	-14164
▁MNLA	-14165
▁Pant	-14166
▁Sett	-14167
▁Sher	-14168
▁Tuug	-14169
▁ango	-14170
▁doge	-14171
▁fenñ	-14172
▁fond	-14173
▁gacc	-14174
▁gooŋ	-14175
▁iwri	-14176
▁lors	-14177
▁mati	-14178
▁muti	-14179
▁ndag	-14180
▁njul	-14181
▁paan	-14182
▁siññ	-14183
▁ubbi	-14184
▁well	-14185
▁weñc	-14186
▁ŋgam	-14187
itoowo	-14188
oriiɗo	-14189
taandi	-14190
torgal	-14191
uhanna	-14192
uments	-14193
Ègypte	-14194
▁Appol	-14195
▁Geɗel	-14196
▁Hiisi	-14197
▁Jawdi	-14198
▁Malik	-14199
▁Ostar	-14200
▁Saint	-14201
▁Sappo	-14202
▁Sarɗi	-14203
▁Siñcu	-14204
▁Wasiŋ	-14205
▁Yuɓɓo	-14206
▁avant	-14207
▁baajo	-14208
▁derni	-14209
▁dooki	-14210
▁duƴƴe	-14211
▁forme	-14212
▁heeda	-14213
▁https	-14214
▁kaaye	-14215
▁kayri	-14216
▁limto	-14217
▁maabo	-14218
▁maana	-14219
▁morso	-14220
▁ndeeƴ	-14221
▁ndono	-14222
▁ngabu	-14223
▁prima	-14224
▁signi	-14225
▁teski	-14226
▁welto	-14227
▁yahɓe	-14228
▁yimbe	-14229
▁ɓanng	-14230
▁ɗatal	-14231
gnorgal	-14232
jeriyaa	-14233
tireede	-14234
▁Janngu	-14235
▁faawru	-14236
▁gaawol	-14237
▁gallol	-14238
▁gorgol	-14239
▁hassan	-14240
▁hootde	-14241
▁idiiɓe	-14242
▁kuurɗo	-14243
▁moyens	-14244
▁naywii	-14245
▁njahda	-14246
▁njedda	-14247
▁njiɗmi	-14248
▁peeñdi	-14249
▁saahal	-14250
▁savoir	-14251
▁warata	-14252
▁wattin	-14253
▁wirtii	-14254
▁woɗɗin	-14255
▁yiyata	-14256
▁Ƴellit	-14257
▁ɓurtii	-14258
anoongal	-14259
▁Cukalel	-14260
▁Daliilu	-14261
▁Haydara	-14262
▁Jaambar	-14263
▁boɗeeje	-14264
▁dillude	-14265
▁facciro	-14266
▁feewnii	-14267
▁firawna	-14268
▁fuɗɗori	-14269
▁hirjino	-14270
▁jeyegol	-14271
▁kanooji	-14272
▁nafaani	-14273
▁nyalnde	-14274
▁pokkiti	-14275
▁potngal	-14276
▁sakkude	-14277
▁sinuwaa	-14278
▁tammbii	-14279
▁telemma	-14280
▁teppere	-14281
▁timmuɗe	-14282
▁toppito	-14283
▁yaɓɓude	-14284
▁Ɓataake	-14285
▁ƴettiti	-14286
▁ɗaminaa	-14287
▁Internet	-14288
▁Jibiriil	-14289
▁Nganndee	-14290
▁Wasiŋton	-14291
▁baayeeji	-14292
▁cubballo	-14293
▁dokkaaɗo	-14294
▁fiileede	-14295
▁fuɗɗotoo	-14296
▁hawrunoo	-14297
▁heddaaki	-14298
▁kawraani	-14299
▁mbinndii	-14300
▁ngonataa	-14301
▁novembre	-14302
▁rokkaani	-14303
▁sabbordu	-14304
▁sellunde	-14305
▁sikkeeji	-14306
▁sonnaaɓe	-14307
▁tampataa	-14308
▁teddeeki	-14309
▁waɗdunoo	-14310
▁wuurdude	-14311
▁yilliima	-14312
▁Kaasamaas	-14313
▁Ruwanndaa	-14314
▁administr	-14315
▁dartingol	-14316
▁fattamlam	-14317
▁jaabtaade	-14318
▁jeertinii	-14319
▁jubbannde	-14320
▁njejjitii	-14321
▁plusieurs	-14322
▁winndirde	-14323
▁Hamɓaleejo	-14324
▁commission	-14325
▁faamaamuya	-14326
▁fuɗɗoraade	-14327
▁jebbilaade	-14328
▁jooɗaniiɓe	-14329
▁naafigeeɓe	-14330
▁sileymaani	-14331
▁toppitiiɓe	-14332
▁deggondirɗi	-14333
▁faamondirde	-14334
▁tinndinoore	-14335
▁winndireede	-14336
▁Faransanaaɓe	-14337
▁ngooŋɗinaani	-14338
▁Deeniyankooɓe	-14339
▁Iisaayankooɓe	-14340
.,	-14341
26	-14342
AF	-14343
Ju	-14344
LN	-14345
UD	-14346
jà	-14347
اب	-14348
قر	-14349
✖️	-14350
/01	-14351
/07	-14352
AJM	-14353
IDA	-14354
Pro	-14355
ald	-14356
dus	-14357
dɓe	-14358
fuɗ	-14359
gré	-14360
had	-14361
isé	-14362
jaw	-14363
rix	-14364
sph	-14365
uji	-14366
équ	-14367
éro	-14368
▁AB	-14369
▁AM	-14370
▁NO	-14371
▁aɗ	-14372
▁pé	-14373
▁وأ	-14374
000)	-14375
Gila	-14376
aaju	-14377
abal	-14378
agas	-14379
arɓe	-14380
iigu	-14381
inir	-14382
isés	-14383
ppoo	-14384
ront	-14385
runo	-14386
ître	-14387
▁112	-14388
▁175	-14389
▁250	-14390
▁Daɗ	-14391
▁Fil	-14392
▁Gee	-14393
▁Hos	-14394
▁Jaŋ	-14395
▁Koɗ	-14396
▁Lum	-14397
▁Pel	-14398
▁Ram	-14399
▁Siy	-14400
▁Ste	-14401
▁The	-14402
▁Tow	-14403
▁civ	-14404
▁jil	-14405
▁nef	-14406
▁nem	-14407
▁raa	-14408
▁tud	-14409
▁Ñas	-14410
▁Ɗos	-14411
ances	-14412
anifa	-14413
baaɓe	-14414
daire	-14415
indol	-14416
itaan	-14417
kamɓe	-14418
oolii	-14419
périe	-14420
senti	-14421
taten	-14422
waɗde	-14423
ɓtugu	-14424
ɗɗere	-14425
▁2002	-14426
▁Aliy	-14427
▁Daab	-14428
▁Emin	-14429
▁Lugg	-14430
▁Miij	-14431
▁Octo	-14432
▁Sele	-14433
▁Tuut	-14434
▁anne	-14435
▁bada	-14436
▁beyi	-14437
▁faru	-14438
▁geƴƴ	-14439
▁haɓi	-14440
▁jalo	-14441
▁kere	-14442
▁komp	-14443
▁koŋŋ	-14444
▁koɗe	-14445
▁lelo	-14446
▁mowl	-14447
▁ndir	-14448
▁ndur	-14449
▁ngir	-14450
▁poɓɓ	-14451
▁rowi	-14452
▁soon	-14453
▁teŋe	-14454
▁wiƴƴ	-14455
▁ɗeya	-14456
atoire	-14457
emblée	-14458
idaaji	-14459
ŋkoore	-14460
▁1960.	-14461
▁1980,	-14462
▁1999.	-14463
▁Fowru	-14464
▁Haama	-14465
▁Ibraa	-14466
▁Jinne	-14467
▁Korka	-14468
▁Lahab	-14469
▁Mboon	-14470
▁Taaya	-14471
▁Waɗii	-14472
▁après	-14473
▁banii	-14474
▁cewɗi	-14475
▁doggi	-14476
▁felli	-14477
▁fetti	-14478
▁gurel	-14479
▁heɓaa	-14480
▁jolni	-14481
▁kesol	-14482
▁mecce	-14483
▁meeri	-14484
▁mooɓi	-14485
▁nawee	-14486
▁ngubb	-14487
▁resii	-14488
▁rewri	-14489
▁senaa	-14490
▁sokaa	-14491
▁taali	-14492
▁tiimi	-14493
▁ustii	-14494
▁véhic	-14495
▁waare	-14496
▁wontu	-14497
▁Ŋgati	-14498
Allaahu	-14499
Farayse	-14500
allaaji	-14501
dotooɗo	-14502
eddooɓe	-14503
ettoode	-14504
nelaaɗo	-14505
olution	-14506
tanaani	-14507
tandira	-14508
▁Amadou	-14509
▁Baagal	-14510
▁Jaafar	-14511
▁London	-14512
▁Pellit	-14513
▁Sarlon	-14514
▁Zahraa	-14515
▁bakkaa	-14516
▁cooyno	-14517
▁hootii	-14518
▁kaalɗo	-14519
▁kaawaa	-14520
▁laaɓta	-14521
▁loowde	-14522
▁moment	-14523
▁neldaa	-14524
▁ngollo	-14525
▁ngoppa	-14526
▁njiyti	-14527
▁ontigi	-14528
▁peccol	-14529
▁potndi	-14530
▁resndi	-14531
▁rowrow	-14532
▁silaam	-14533
▁silsil	-14534
▁tokara	-14535
▁waandu	-14536
▁waɗude	-14537
▁étrang	-14538
▁ɓiyngu	-14539
▁Banndam	-14540
▁Faransi	-14541
▁Huseyni	-14542
▁Musiɓɓe	-14543
▁Swahili	-14544
▁Tumaani	-14545
▁abbaade	-14546
▁alhaali	-14547
▁cemmbol	-14548
▁cuɓagol	-14549
▁enfants	-14550
▁horeejo	-14551
▁jaɓaano	-14552
▁joɗɗini	-14553
▁koronaa	-14554
▁majjiri	-14555
▁ndaɗndi	-14556
▁ngartoy	-14557
▁njiɗɗaa	-14558
▁pulaaku	-14559
▁siftini	-14560
▁tawatee	-14561
▁timmude	-14562
▁waadere	-14563
▁yahdata	-14564
▁ɓadiiɗo	-14565
▁ɗowoowo	-14566
▁ɲalawma	-14567
éducation	-14568
▁Hooreeɓe	-14569
▁Meerkuur	-14570
▁Tarawore	-14571
▁findinde	-14572
▁haalataa	-14573
▁heewaano	-14574
▁horsinde	-14575
▁kuɓtodin	-14576
▁laaɓaani	-14577
▁majjataa	-14578
▁majjinde	-14579
▁mbaawɗen	-14580
▁mooftude	-14581
▁nattataa	-14582
▁ndaranii	-14583
▁ndoondii	-14584
▁saɗeende	-14585
▁seniinde	-14586
▁tawtoree	-14587
▁teskinɗe	-14588
▁tiiɗaani	-14589
▁tiiɗngal	-14590
▁weytaare	-14591
▁yiɗnooɓe	-14592
▁yuɓɓinaa	-14593
▁ñaagiima	-14594
▁Ɗiɗaɓere	-14595
▁ɓadtiiɓe	-14596
▁Guwarnama	-14597
▁bammbaaɗo	-14598
▁guwerneer	-14599
▁jibinaaka	-14600
▁keɓtingol	-14601
▁ndenndina	-14602
▁ndenndini	-14603
▁saayaande	-14604
▁scientifi	-14605
▁sooynaade	-14606
▁tiisubaar	-14607
▁yuɓɓinnoo	-14608
▁Ismaayiila	-14609
▁binnditgol	-14610
▁denɗiraaɓe	-14611
▁njanngaani	-14612
▁promouvoir	-14613
▁seyɗaneeji	-14614
▁seɓɓitiiɓe	-14615
▁taƴondiral	-14616
▁ammbasadeer	-14617
▁teemedannde	-14618
▁telefoŋaaji	-14619
▁winndereeje	-14620
▁tooñanngeeji	-14621
▁hooreleydaagu	-14622
▁Islaamiyaŋkooɓe	-14623
DH	-14624
KA	-14625
eŋ	-14626
“.	-14627
▁$	-14628
✔️	-14629
EER	-14630
Goo	-14631
Sok	-14632
car	-14633
few	-14634
fis	-14635
iyo	-14636
kes	-14637
ong	-14638
plo	-14639
égi	-14640
▁02	-14641
▁6)	-14642
▁AA	-14643
▁AS	-14644
▁Po	-14645
▁VI	-14646
▁ol	-14647
▁sp	-14648
▁إن	-14649
Amen	-14650
Arab	-14651
alah	-14652
ambi	-14653
daan	-14654
geɗe	-14655
heew	-14656
jata	-14657
laan	-14658
mini	-14659
opol	-14660
prim	-14661
quer	-14662
serv	-14663
tari	-14664
uɗar	-14665
vité	-14666
yaan	-14667
État	-14668
ɗɗii	-14669
▁118	-14670
▁155	-14671
▁183	-14672
▁22,	-14673
▁Als	-14674
▁Eeh	-14675
▁Heb	-14676
▁Mit	-14677
▁Pet	-14678
▁Sed	-14679
▁Sem	-14680
▁Sul	-14681
▁Tot	-14682
▁USA	-14683
▁duh	-14684
▁eng	-14685
▁ɗak	-14686
Fulɓe	-14687
Wonaa	-14688
aajol	-14689
gorko	-14690
ittoo	-14691
jibin	-14692
tagaa	-14693
urent	-14694
▁000.	-14695
▁1957	-14696
▁1975	-14697
▁1984	-14698
▁Ahik	-14699
▁Amru	-14700
▁Elis	-14701
▁Ennj	-14702
▁Mool	-14703
▁Ngom	-14704
▁Njet	-14705
▁Rokk	-14706
▁Sadd	-14707
▁Snim	-14708
▁Topp	-14709
▁cent	-14710
▁chez	-14711
▁deɓɓ	-14712
▁dogg	-14713
▁feri	-14714
▁kell	-14715
▁lawƴ	-14716
▁long	-14717
▁maak	-14718
▁ngaw	-14719
▁nouv	-14720
▁pooƴ	-14721
▁reer	-14722
▁saar	-14723
▁sogg	-14724
▁soow	-14725
▁suma	-14726
▁waam	-14727
▁Ñawu	-14728
▁ɓama	-14729
aambur	-14730
etaaji	-14731
itirde	-14732
iɗngel	-14733
moosis	-14734
naandi	-14735
onomie	-14736
oriima	-14737
tiingo	-14738
wirnde	-14739
▁1992,	-14740
▁2004,	-14741
▁2017.	-14742
▁Bamba	-14743
▁Black	-14744
▁Daaka	-14745
▁Guuro	-14746
▁Hamsa	-14747
▁Jacob	-14748
▁Joomi	-14749
▁Lawɓe	-14750
▁Maari	-14751
▁Natal	-14752
▁Neero	-14753
▁Saawo	-14754
▁Wahab	-14755
▁boobo	-14756
▁cunii	-14757
▁cuuɗo	-14758
▁dihal	-14759
▁doŋle	-14760
▁doŋre	-14761
▁fawti	-14762
▁fooɗa	-14763
▁hajji	-14764
▁hawru	-14765
▁hoota	-14766
▁juuta	-14767
▁kuuje	-14768
▁leňol	-14769
▁leɓta	-14770
▁mbaaj	-14771
▁moder	-14772
▁morle	-14773
▁ndeka	-14774
▁ngala	-14775
▁ngost	-14776
▁pamɗi	-14777
▁poocc	-14778
▁poɗɗe	-14779
▁terme	-14780
▁tuumi	-14781
▁victi	-14782
▁welii	-14783
▁wooti	-14784
▁ñaawi	-14785
anteere	-14786
anteeɗo	-14787
ication	-14788
injiila	-14789
irtenoo	-14790
lewaaji	-14791
tondire	-14792
tonooɗo	-14793
wonande	-14794
▁Anngel	-14795
▁Bammba	-14796
▁Daarel	-14797
▁Gaagaa	-14798
▁Gadano	-14799
▁Gawdal	-14800
▁Jeewte	-14801
▁Juulɗo	-14802
▁Mahdii	-14803
▁Master	-14804
▁Mbaalo	-14805
▁Rabaat	-14806
▁Saaleh	-14807
▁daabaa	-14808
▁dabare	-14809
▁faandi	-14810
▁fawtii	-14811
▁gasata	-14812
▁golloo	-14813
▁haawaa	-14814
▁hunnde	-14815
▁huuɓti	-14816
▁jaɓani	-14817
▁kaalee	-14818
▁loopal	-14819
▁ndutti	-14820
▁ngooti	-14821
▁ngoppu	-14822
▁paamir	-14823
▁pottit	-14824
▁raison	-14825
▁siifde	-14826
▁sikkit	-14827
▁toɗɗit	-14828
▁woɗndu	-14829
▁wuurna	-14830
▁ɗeɓata	-14831
gollaagu	-14832
issement	-14833
▁Biraama	-14834
▁Gaaynde	-14835
▁Islaamu	-14836
▁Napolin	-14837
▁Saddaam	-14838
▁Sersiis	-14839
▁Sifaaji	-14840
▁baɗaaɗe	-14841
▁baɗaaɗi	-14842
▁domaine	-14843
▁jaatara	-14844
▁karalle	-14845
▁kawriti	-14846
▁kerecee	-14847
▁laborat	-14848
▁manière	-14849
▁murtuɓe	-14850
▁naatnii	-14851
▁naworde	-14852
▁newnani	-14853
▁njebbil	-14854
▁pulfule	-14855
▁sakkiti	-14856
▁sarwiis	-14857
▁tonngii	-14858
▁univers	-14859
▁volonté	-14860
▁étaient	-14861
▁ñalande	-14862
atullaahi	-14863
▁Ciftoren	-14864
▁Jibriilu	-14865
▁Ruwannda	-14866
▁Supiteer	-14867
▁anndinii	-14868
▁ceerataa	-14869
▁defterdu	-14870
▁heddotoo	-14871
▁jammbere	-14872
▁jipporde	-14873
▁laylayti	-14874
▁maayoowo	-14875
▁mbiyaani	-14876
▁muulirde	-14877
▁naataani	-14878
▁njahiino	-14879
▁nootitii	-14880
▁paawngal	-14881
▁rennduɓe	-14882
▁sappeeji	-14883
▁seedtini	-14884
▁sellinde	-14885
▁sirkooɓe	-14886
▁soodooɓe	-14887
▁teeŋtina	-14888
▁ñaagunde	-14889
▁ƴettugol	-14890
▁ɓeydotoo	-14891
▁ɓurnaaɗo	-14892
▁ɓurtinɓe	-14893
▁banngagol	-14894
▁biyeteeɗi	-14895
▁deweteeɗo	-14896
▁duwawuuji	-14897
▁garaangal	-14898
▁gollorgal	-14899
▁heɗotooɓe	-14900
▁jeyanooɗo	-14901
▁kaalatnoo	-14902
▁koloniiji	-14903
▁laamlaamu	-14904
▁ngaanumma	-14905
▁nganniyii	-14906
▁tooñaange	-14907
▁Seereraaɓe	-14908
▁Tuutmoosis	-14909
▁jebbilaare	-14910
▁joomiraaɓe	-14911
▁kellifaaɗo	-14912
▁laamateeri	-14913
▁moolinooɓe	-14914
▁peewnatnoo	-14915
▁rewindaade	-14916
▁taccinaaɓe	-14917
▁tiiɗtingol	-14918
▁différentes	-14919
▁faarnoraade	-14920
▁njejjitaani	-14921
▁Espartanaaɓe	-14922
▁NGENNDIYANKE	-14923
▁miijanteendi	-14924
▁Moritaninaaɓe	-14925
▁harbiyankooɓe	-14926
",	-14927
%)	-14928
80	-14929
90	-14930
FƁ	-14931
IF	-14932
MR	-14933
OS	-14934
UR	-14935
sh	-14936
▁ń	-14937
/05	-14938
AAW	-14939
Ass	-14940
Sah	-14941
aññ	-14942
cad	-14943
ena	-14944
iji	-14945
ode	-14946
pes	-14947
pin	-14948
sek	-14949
uel	-14950
éta	-14951
ɓit	-14952
ِين	-14953
▁Er	-14954
▁Ru	-14955
▁Vi	-14956
▁XI	-14957
▁iP	-14958
▁ul	-14959
▁لا	-14960
Ndee	-14961
Ngar	-14962
OORE	-14963
aafo	-14964
alam	-14965
anen	-14966
bina	-14967
eesu	-14968
eral	-14969
etoo	-14970
hari	-14971
imil	-14972
iɗam	-14973
koro	-14974
riil	-14975
ston	-14976
tein	-14977
ugal	-14978
utre	-14979
woto	-14980
▁116	-14981
▁124	-14982
▁143	-14983
▁187	-14984
▁21,	-14985
▁APP	-14986
▁Gan	-14987
▁Lii	-14988
▁Nin	-14989
▁TPM	-14990
▁Taa	-14991
▁Woɗ	-14992
▁cur	-14993
▁jed	-14994
▁lis	-14995
▁nuu	-14996
▁ras	-14997
▁réc	-14998
▁som	-14999
▁wof	-15000
▁ñil	-15001
▁ñir	-15002
DIINA	-15003
Hasan	-15004
Worgo	-15005
araam	-15006
dinta	-15007
diraa	-15008
haadi	-15009
khbar	-15010
kkuɓe	-15011
kooje	-15012
kooji	-15013
koore	-15014
laabi	-15015
parte	-15016
polis	-15017
▁1776	-15018
▁Dame	-15019
▁Jime	-15020
▁Luul	-15021
▁Muul	-15022
▁Nuun	-15023
▁Sakk	-15024
▁Sepp	-15025
▁Suus	-15026
▁camp	-15027
▁cela	-15028
▁ceɓɓ	-15029
▁dabi	-15030
▁deey	-15031
▁fuur	-15032
▁gaaɓ	-15033
▁geej	-15034
▁ghur	-15035
▁goog	-15036
▁gori	-15037
▁gude	-15038
▁jank	-15039
▁koka	-15040
▁mocc	-15041
▁ngow	-15042
▁niiw	-15043
▁njur	-15044
▁orig	-15045
▁soko	-15046
▁suis	-15047
▁taal	-15048
▁took	-15049
▁waɗu	-15050
▁Ñaam	-15051
▁ɓiye	-15052
Gannde	-15053
aateer	-15054
ankati	-15055
emaaji	-15056
ematik	-15057
oyiima	-15058
vision	-15059
▁1985,	-15060
▁1991.	-15061
▁Ainsi	-15062
▁Anndu	-15063
▁Baylo	-15064
▁COVID	-15065
▁Daesh	-15066
▁Dogon	-15067
▁Feder	-15068
▁Inaal	-15069
▁Inter	-15070
▁Jommb	-15071
▁Mesop	-15072
▁Space	-15073
▁Union	-15074
▁aawde	-15075
▁année	-15076
▁avoir	-15077
▁baaji	-15078
▁elles	-15079
▁hunii	-15080
▁hurmb	-15081
▁jaabo	-15082
▁jahɗo	-15083
▁jalaŋ	-15084
▁kaɗaa	-15085
▁kette	-15086
▁laami	-15087
▁luɓal	-15088
▁malal	-15089
▁njigg	-15090
▁progr	-15091
▁roɓin	-15092
▁suddi	-15093
▁sujji	-15094
▁turii	-15095
▁ñaaƴe	-15096
▁ŋakku	-15097
▁ŋgati	-15098
▁ɓalɗe	-15099
▁ɓiyɗo	-15100
▁ɗaano	-15101
▁ɗacce	-15102
aahiima	-15103
aameela	-15104
allaahu	-15105
ciences	-15106
lotooɗo	-15107
pendant	-15108
ukuloor	-15109
▁Daarol	-15110
▁Daddah	-15111
▁Fonndu	-15112
▁Niimaa	-15113
▁Salaam	-15114
▁Sheekh	-15115
▁arabes	-15116
▁baɗɗii	-15117
▁bonndu	-15118
▁fuɗnaa	-15119
▁fuɗɗaa	-15120
▁gollaa	-15121
▁guurte	-15122
▁jaggal	-15123
▁jamais	-15124
▁karnal	-15125
▁kesɗit	-15126
▁muulde	-15127
▁naatɗo	-15128
▁nannda	-15129
▁nannoo	-15130
▁ngeɗon	-15131
▁niɓɓiɗ	-15132
▁njuula	-15133
▁nyande	-15134
▁portaa	-15135
▁renfor	-15136
▁sahnga	-15137
▁seedii	-15138
▁tabita	-15139
▁ummoto	-15140
▁yottin	-15141
▁élèves	-15142
▁ñiiɓde	-15143
▁ɓingel	-15144
▁ɓornii	-15145
▁ɓuuɓde	-15146
▁ɗoftii	-15147
alastiin	-15148
inenaaɓe	-15149
limtinɗi	-15150
phabétis	-15151
périence	-15152
▁Berbeer	-15153
▁Kanaana	-15154
▁Kikiiɗe	-15155
▁Landing	-15156
▁Mozilla	-15157
▁October	-15158
▁Soninke	-15159
▁baroowo	-15160
▁gidiiɗo	-15161
▁haaɗata	-15162
▁ittugol	-15163
▁jogitii	-15164
▁keewɗam	-15165
▁kiraaɗe	-15166
▁kisiyee	-15167
▁leliiɓe	-15168
▁lommbii	-15169
▁nayaɓal	-15170
▁ndillii	-15171
▁neliino	-15172
▁ngartaa	-15173
▁njettoo	-15174
▁njippii	-15175
▁octobre	-15176
▁reconna	-15177
▁ruttude	-15178
▁takkere	-15179
▁tawaaɗo	-15180
▁tekkere	-15181
▁telewis	-15182
▁tippude	-15183
▁uddugol	-15184
▁ustaade	-15185
▁waɗanoo	-15186
▁welaaka	-15187
▁winndee	-15188
▁yuurnit	-15189
▁Ɓaleejo	-15190
▁ɓiɗngel	-15191
▁ɓooynde	-15192
▁Gaynaako	-15193
▁Mandelaa	-15194
▁Muntagaa	-15195
▁Wiɗtooji	-15196
▁cakkital	-15197
▁cultures	-15198
▁elewaaji	-15199
▁gertogal	-15200
▁hiisaade	-15201
▁huftodin	-15202
▁jeeyirɗe	-15203
▁kiikiiɗe	-15204
▁kuutoree	-15205
▁miskiino	-15206
▁muuyaaɗe	-15207
▁naamndoo	-15208
▁nanngira	-15209
▁neeniije	-15210
▁ngaddiin	-15211
▁ngumndam	-15212
▁renndina	-15213
▁safrirdu	-15214
▁sciences	-15215
▁seerataa	-15216
▁semmbina	-15217
▁sikkaani	-15218
▁taaniiko	-15219
▁tooñoowo	-15220
▁waɗtaama	-15221
▁yenaande	-15222
▁ñaamaani	-15223
▁Pakistaan	-15224
▁Président	-15225
▁ceerungal	-15226
▁daɗndoore	-15227
▁ganndaaɗe	-15228
▁janngoyde	-15229
▁jibinaaɓe	-15230
▁ndaamordi	-15231
▁nderndere	-15232
▁njooɗinoo	-15233
▁premières	-15234
▁situation	-15235
▁suɓngooji	-15236
▁yontannde	-15237
▁Koninkooɓe	-15238
▁Njuuteendi	-15239
▁aaɓnotaako	-15240
▁hattanaani	-15241
▁heblanaade	-15242
▁misranaaɓe	-15243
▁territoire	-15244
▁Hawsankoore	-15245
▁huutortooɓe	-15246
▁warhooreeji	-15247
▁Abdarahmaani	-15248
▁banndiraagal	-15249
▁enseignement	-15250
▁gouvernement	-15251
▁taccinanooɓe	-15252
▁ɓaɗambonneeji	-15253
CA	-15254
NT	-15255
ly	-15256
éé	-15257
ƊI	-15258
ɲi	-15259
ري	-15260
مَ	-15261
▁ج	-15262
▁✍	-15263
/20	-15264
AAT	-15265
Bar	-15266
Haa	-15267
Mis	-15268
Oon	-15269
Sar	-15270
cap	-15271
fel	-15272
fil	-15273
jon	-15274
noy	-15275
tot	-15276
tto	-15277
wam	-15278
wor	-15279
xte	-15280
ولي	-15281
▁06	-15282
▁LA	-15283
▁Os	-15284
alak	-15285
aran	-15286
aɗen	-15287
baan	-15288
bble	-15289
eefo	-15290
iram	-15291
irka	-15292
jjaa	-15293
kiir	-15294
limp	-15295
mane	-15296
miɗo	-15297
noon	-15298
orta	-15299
rend	-15300
roid	-15301
ɗino	-15302
▁11,	-15303
▁119	-15304
▁132	-15305
▁159	-15306
▁160	-15307
▁Bul	-15308
▁Cos	-15309
▁Fee	-15310
▁GUN	-15311
▁Gah	-15312
▁Hap	-15313
▁Mir	-15314
▁Puɗ	-15315
▁Tak	-15316
▁Zey	-15317
▁feu	-15318
▁feƴ	-15319
▁mod	-15320
▁nju	-15321
▁ƴuu	-15322
Fuuta	-15323
Miijo	-15324
Neene	-15325
Sokna	-15326
isons	-15327
kitin	-15328
liiɗo	-15329
niraa	-15330
nirka	-15331
poque	-15332
rance	-15333
telli	-15334
temps	-15335
tiree	-15336
toyta	-15337
▁3000	-15338
▁Haaw	-15339
▁Hara	-15340
▁Jaan	-15341
▁Ngad	-15342
▁Norm	-15343
▁Pucc	-15344
▁actu	-15345
▁bagi	-15346
▁cefi	-15347
▁chef	-15348
▁fili	-15349
▁font	-15350
▁hibb	-15351
▁hisa	-15352
▁jurm	-15353
▁keel	-15354
▁lacc	-15355
▁nawl	-15356
▁pees	-15357
▁pent	-15358
▁reli	-15359
▁roni	-15360
▁réal	-15361
▁seen	-15362
▁siiw	-15363
▁sumi	-15364
▁tamm	-15365
▁teer	-15366
▁wóni	-15367
▁ñaaɗ	-15368
Laamɗo	-15369
aayeer	-15370
agodin	-15371
anaaɗi	-15372
anndii	-15373
iriino	-15374
ndirta	-15375
noondu	-15376
oraaɓe	-15377
relati	-15378
tirnoo	-15379
ɗaagal	-15380
▁1980.	-15381
▁1993,	-15382
▁2016.	-15383
▁20190	-15384
▁2020.	-15385
▁Banii	-15386
▁Banke	-15387
▁Enɗam	-15388
▁Giɗli	-15389
▁Haawa	-15390
[...]
