<unk>	0
<s>	0
</s>	0
<pad>	0
aa	-0
de	-1
▁n	-2
oo	-3
▁k	-4
▁e	-5
▁m	-6
ee	-7
al	-8
ii	-9
▁w	-10
▁h	-11
ɓe	-12
an	-13
on	-14
in	-15
▁ko	-16
▁t	-17
▁ɗ	-18
di	-19
uu	-20
▁s	-21
▁l	-22
▁j	-23
am	-24
re	-25
ol	-26
um	-27
▁f	-28
▁ng	-29
▁g	-30
ar	-31
▁y	-32
en	-33
nde	-34
ng	-35
ɗo	-36
at	-37
aw	-38
▁d	-39
▁A	-40
▁nde	-41
▁o	-42
kk	-43
it	-44
ɗe	-45
ji	-46
▁ɓe	-47
▁won	-48
la	-49
nd	-50
ir	-51
el	-52
▁ma	-53
▁b	-54
iy	-55
▁p	-56
▁M	-57
▁ɓ	-58
▁c	-59
▁K	-60
aan	-61
▁le	-62
ay	-63
aɗ	-64
▁S	-65
or	-66
aam	-67
▁in	-68
ur	-69
▁mb	-70
le	-71
oon	-72
▁mum	-73
du	-74
▁haa	-75
▁(	-76
▁N	-77
▁ina	-78
een	-79
ti	-80
▁en	-81
ɗi	-82
ul	-83
noo	-84
aaw	-85
▁mo	-86
▁a	-87
eew	-88
▁de	-89
▁nj	-90
▁no	-91
ag	-92
er	-93
▁ɗum	-94
▁he	-95
ot	-96
im	-97
▁Al	-98
ah	-99
aade	-100
▁ka	-101
aar	-102
ma	-103
▁to	-104
et	-105
ono	-106
ude	-107
▁H	-108
▁taw	-109
▁J	-110
▁ñ	-111
▁1	-112
ab	-113
gal	-114
▁maa	-115
is	-116
dii	-117
te	-118
▁B	-119
▁so	-120
▁fo	-121
▁ley	-122
▁E	-123
▁F	-124
▁waɗ	-125
▁nder	-126
aani	-127
aaɓe	-128
ri	-129
kko	-130
ooɓe	-131
il	-132
aal	-133
▁ha	-134
▁ɗe	-135
ndi	-136
▁T	-137
▁Ko	-138
▁heen	-139
▁Alla	-140
▁makko	-141
▁2	-142
▁fof	-143
▁leydi	-144
▁O	-145
no	-146
to	-147
es	-148
▁goo	-149
eer	-150
▁G	-151
uum	-152
ow	-153
ɓɓe	-154
ta	-155
anng	-156
ko	-157
ey	-158
ata	-159
ala	-160
annd	-161
je	-162
og	-163
▁r	-164
aaji	-165
▁oo	-166
▁D	-167
ed	-168
▁wal	-169
▁wiy	-170
tin	-171
na	-172
tii	-173
ngal	-174
tu	-175
gol	-176
▁ne	-177
▁L	-178
▁re	-179
pp	-180
▁W	-181
▁:	-182
▁al	-183
annde	-184
▁I	-185
ka	-186
▁laam	-187
▁C	-188
▁“	-189
▁noon	-190
▁mi	-191
▁woni	-192
om	-193
ani	-194
▁ɓur	-195
ba	-196
oɗ	-197
taa	-198
▁kadi	-199
gu	-200
aande	-201
▁maɓɓe	-202
imɓe	-203
▁walla	-204
kku	-205
▁kala	-206
▁P	-207
un	-208
▁ɗi	-209
uur	-210
▁ar	-211
▁ngal	-212
ɓɓ	-213
oore	-214
uuji	-215
aay	-216
▁tan	-217
iɗ	-218
▁yimɓe	-219
jo	-220
oow	-221
cc	-222
▁ɗuum	-223
oll	-224
ad	-225
▁maw	-226
oor	-227
dir	-228
aaɗo	-229
▁am	-230
▁Ɓ	-231
▁ngam	-232
▁«	-233
▁ɗo	-234
▁ngon	-235
eede	-236
▁Y	-237
mo	-238
ki	-239
▁nd	-240
li	-241
▁Ɗ	-242
uɗ	-243
as	-244
aas	-245
ɓi	-246
oy	-247
▁men	-248
iin	-249
aggal	-250
▁si	-251
▁ndee	-252
okk	-253
▁wonde	-254
em	-255
▁ƴ	-256
▁Nde	-257
ati	-258
▁kono	-259
▁on	-260
▁dow	-261
▁laa	-262
aama	-263
ere	-264
▁waaw	-265
▁wonaa	-266
ank	-267
▁20	-268
▁woo	-269
▁min	-270
ɗen	-271
ƴƴ	-272
tor	-273
oom	-274
aang	-275
▁So	-276
▁ndi	-277
aŋ	-278
all	-279
▁ɗem	-280
bb	-281
ele	-282
ndu	-283
▁te	-284
▁wi	-285
▁»	-286
us	-287
▁hay	-288
amm	-289
af	-290
ondir	-291
abu	-292
▁laamu	-293
iri	-294
ataa	-295
ande	-296
ru	-297
ɗɗo	-298
umm	-299
▁ñal	-300
tee	-301
▁kam	-302
▁ɗee	-303
▁su	-304
etee	-305
bu	-306
▁feew	-307
▁gooto	-308
▁alaa	-309
▁hit	-310
da	-311
▁jey	-312
kkunde	-313
▁19	-314
▁rew	-315
aare	-316
▁huu	-317
--	-318
▁hitaande	-319
ik	-320
▁dar	-321
▁nji	-322
▁ɓee	-323
▁hono	-324
▁heew	-325
ell	-326
ool	-327
▁keew	-328
▁jog	-329
▁hakkunde	-330
uul	-331
tude	-332
ooji	-333
▁R	-334
nnd	-335
jj	-336
▁sabu	-337
anndi	-338
▁yah	-339
▁nii	-340
▁caggal	-341
itii	-342
▁tee	-343
▁maay	-344
▁neɗɗo	-345
▁mbaɗ	-346
▁yo	-347
mi	-348
oowo	-349
akk	-350
añ	-351
eeji	-352
▁ɗoo	-353
▁win	-354
▁ad	-355
▁waɗi	-356
ama	-357
▁ge	-358
aat	-359
▁ke	-360
ngu	-361
▁kon	-362
▁duu	-363
tere	-364
▁ɓuri	-365
ɗaa	-366
ut	-367
qu	-368
▁ɗoon	-369
▁oon	-370
eeɓe	-371
se	-372
▁jam	-373
▁omo	-374
ngol	-375
▁ngoo	-376
ann	-377
▁janng	-378
ini	-379
iima	-380
olle	-381
edde	-382
ngo	-383
urit	-384
ak	-385
inoo	-386
aab	-387
▁3	-388
▁Kono	-389
uw	-390
▁ji	-391
ulaar	-392
▁goɗ	-393
▁mon	-394
▁di	-395
▁ngol	-396
too	-397
00	-398
oto	-399
gg	-400
▁bon	-401
▁hannde	-402
▁wiyi	-403
ila	-404
tan	-405
eele	-406
ke	-407
▁annd	-408
si	-409
aange	-410
▁tawa	-411
▁ɗii	-412
▁geɗe	-413
▁la	-414
ooy	-415
▁way	-416
▁golle	-417
ent	-418
ara	-419
uro	-420
aagu	-421
▁U	-422
▁eɓe	-423
),	-424
▁koo	-425
▁Ab	-426
▁moƴƴ	-427
uus	-428
▁goll	-429
uritani	-430
▁ndeen	-431
iil	-432
uɓɓ	-433
▁ɗemngal	-434
dan	-435
annge	-436
ɗoo	-437
iis	-438
atnoo	-439
ɗii	-440
▁tawi	-441
inde	-442
irde	-443
ni	-444
▁haal	-445
..	-446
▁duuɓi	-447
fri	-448
▁goong	-449
▁mbele	-450
▁les	-451
▁Mb	-452
▁nan	-453
nii	-454
eere	-455
...	-456
▁Ng	-457
▁joo	-458
ud	-459
▁ndii	-460
▁mbaaw	-461
mb	-462
aano	-463
▁umm	-464
▁huunde	-465
▁def	-466
▁wuro	-467
▁mbiy	-468
▁mii	-469
ll	-470
▁heɓ	-471
▁hee	-472
▁Ɓe	-473
anoo	-474
▁hakk	-475
▁bannge	-476
naaɓe	-477
amma	-478
ali	-479
▁tawii	-480
agol	-481
▁4	-482
ooje	-483
▁nguur	-484
▁sah	-485
▁mumen	-486
ñol	-487
▁toon	-488
▁nel	-489
ulɓe	-490
ina	-491
▁gila	-492
ew	-493
so	-494
▁ɓeen	-495
frik	-496
eeje	-497
daa	-498
▁–	-499
▁kaal	-500
▁201	-501
▁et	-502
ation	-503
anko	-504
▁lew	-505
▁ndu	-506
gi	-507
▁Muritani	-508
▁5	-509
duna	-510
▁yiɗ	-511
▁kaa	-512
▁waawi	-513
▁kuu	-514
▁see	-515
▁ñalnde	-516
▁hed	-517
▁hol	-518
eerno	-519
ɗa	-520
▁laaw	-521
bi	-522
▁ja	-523
din	-524
eey	-525
▁Ñ	-526
ro	-527
▁du	-528
eejo	-529
▁fot	-530
▁fuɗ	-531
▁hoore	-532
uɓe	-533
▁ngar	-534
▁nguu	-535
▁Bah	-536
▁ɗiɗi	-537
ndii	-538
▁gar	-539
aagal	-540
▁yoo	-541
alle	-542
iti	-543
▁sa	-544
go	-545
▁yiy	-546
bbo	-547
eh	-548
anii	-549
▁tag	-550
ndam	-551
▁feewi	-552
▁leñol	-553
▁ɓal	-554
otoo	-555
▁yi	-556
inii	-557
▁mbi	-558
ra	-559
▁ngo	-560
aaba	-561
ondiral	-562
▁juu	-563
▁nokku	-564
▁Afrik	-565
nude	-566
▁aduna	-567
▁po	-568
▁ene	-569
▁?	-570
innd	-571
taare	-572
ooni	-573
▁tuu	-574
▁gannd	-575
▁lewru	-576
▁yal	-577
amadu	-578
▁rennd	-579
▁wel	-580
▁Pulaar	-581
▁war	-582
naa	-583
taade	-584
ɗon	-585
▁sar	-586
iim	-587
▁ŋ	-588
▁Aamadu	-589
▁laaɓ	-590
▁Si	-591
▁Far	-592
▁;	-593
▁too	-594
▁laawol	-595
nu	-596
▁jaŋ	-597
----	-598
▁6	-599
▁woɗ	-600
▁fir	-601
▁Ɗum	-602
▁ɓey	-603
▁pin	-604
▁"	-605
iya	-606
ɗin	-607
tal	-608
aali	-609
▁Ina	-610
iino	-611
▁sahaa	-612
▁ngen	-613
▁wonnoo	-614
▁holl	-615
▁suu	-616
▁ena	-617
▁ɗemɗe	-618
ce	-619
▁dañ	-620
agg	-621
iiw	-622
dude	-623
ene	-624
aaɗe	-625
▁debbo	-626
▁waɗde	-627
ci	-628
me	-629
ku	-630
▁bat	-631
▁!	-632
▁ta	-633
▁ni	-634
of	-635
▁gor	-636
▁sibu	-637
▁kanko	-638
▁des	-639
oŋ	-640
▁joom	-641
▁nguurndam	-642
diiɓe	-643
▁mee	-644
sa	-645
▁Caggal	-646
▁ngu	-647
▁ngoni	-648
▁galle	-649
▁gon	-650
▁maj	-651
yam	-652
▁sif	-653
▁naat	-654
▁haala	-655
▁nod	-656
aari	-657
▁Hol	-658
os	-659
▁rokk	-660
▁fay	-661
▁Jom	-662
▁fa	-663
▁7	-664
▁juul	-665
▁An	-666
lo	-667
bar	-668
▁jokk	-669
tol	-670
aɓɓ	-671
aaka	-672
elle	-673
que	-674
▁,	-675
▁tes	-676
▁diin	-677
ammadu	-678
▁Am	-679
▁ci	-680
ira	-681
▁yaa	-682
ne	-683
▁doo	-684
kooɓe	-685
ayse	-686
▁tii	-687
▁ɓam	-688
uk	-689
ecc	-690
▁ngannd	-691
ure	-692
anɗe	-693
▁Mo	-694
bin	-695
▁”	-696
uɗo	-697
aana	-698
▁hakkil	-699
eende	-700
▁Won	-701
▁jogii	-702
ankooɓe	-703
▁amen	-704
000	-705
ya	-706
▁Ceerno	-707
▁naam	-708
▁Is	-709
▁-	-710
▁ted	-711
▁as	-712
▁foti	-713
aandi	-714
▁naa	-715
▁jaŋde	-716
▁yon	-717
gaal	-718
▁koy	-719
▁yet	-720
▁naf	-721
eteeɗo	-722
ɗeele	-723
▁may	-724
▁200	-725
imm	-726
▁Ar	-727
▁gorko	-728
▁ɓes	-729
▁Ndeen	-730
iir	-731
▁mawɗo	-732
irɗe	-733
naange	-734
ellit	-735
do	-736
▁wor	-737
▁ti	-738
▁wiyde	-739
aɗa	-740
▁yee	-741
▁biy	-742
awr	-743
▁nat	-744
ana	-745
eno	-746
nooɓe	-747
▁jooni	-748
▁deftere	-749
▁Nj	-750
st	-751
▁kul	-752
▁caɗ	-753
▁rewɓe	-754
enegaal	-755
▁8	-756
▁njog	-757
uuta	-758
anndir	-759
▁hoor	-760
br	-761
▁jaw	-762
uun	-763
▁teeŋ	-764
iiɗo	-765
aah	-766
▁goonga	-767
▁ganndal	-768
▁pot	-769
▁Mi	-770
▁ndiyam	-771
kaaɓe	-772
▁ñaaw	-773
▁ɓiy	-774
▁keɓ	-775
▁ñaam	-776
▁eɗen	-777
▁Laam	-778
▁i	-779
▁tati	-780
▁fedde	-781
▁diine	-782
▁faw	-783
anke	-784
▁Muus	-785
orii	-786
▁pinal	-787
▁Ma	-788
▁com	-789
▁Farayse	-790
ondi	-791
laam	-792
▁sukaaɓe	-793
▁ngel	-794
▁wul	-795
▁naw	-796
▁renndo	-797
▁winnde	-798
▁wood	-799
eeñ	-800
▁Um	-801
▁kamɓe	-802
▁ɓooy	-803
▁njiy	-804
▁nay	-805
▁laamɗo	-806
▁tesk	-807
aag	-808
▁miij	-809
aadi	-810
▁winnd	-811
▁yam	-812
ant	-813
▁jee	-814
▁innde	-815
▁mil	-816
aañ	-817
▁Fulɓe	-818
▁Abdu	-819
ans	-820
▁naange	-821
▁mah	-822
uh	-823
pit	-824
▁ƴeew	-825
▁Min	-826
laaji	-827
▁mbay	-828
▁haɗ	-829
▁ɗeen	-830
fi	-831
▁à	-832
▁kañ	-833
▁caɗeele	-834
▁Senegaal	-835
erik	-836
▁10	-837
▁000	-838
aaki	-839
▁ƴet	-840
▁Samm	-841
▁ɓen	-842
opp	-843
ire	-844
tir	-845
▁9	-846
abi	-847
▁Muusaa	-848
alnde	-849
▁par	-850
ugg	-851
aak	-852
▁aɗa	-853
ulde	-854
▁sal	-855
▁Nuw	-856
▁jaɓ	-857
▁wuur	-858
▁pol	-859
▁jeyaa	-860
▁miijo	-861
tiima	-862
awma	-863
ŋe	-864
▁se	-865
oot	-866
tinde	-867
▁baɗ	-868
▁kar	-869
ter	-870
▁As	-871
uf	-872
▁bal	-873
oof	-874
▁keewɗe	-875
▁njah	-876
▁Fuuta	-877
▁ngenndi	-878
ori	-879
min	-880
▁den	-881
▁heewde	-882
udi	-883
aaɗi	-884
▁Fedde	-885
▁feewde	-886
iiɓe	-887
aj	-888
▁heewi	-889
▁wall	-890
ate	-891
▁Sammba	-892
▁yeeso	-893
▁jaay	-894
allo	-895
▁kañum	-896
aangal	-897
▁Ɗuum	-898
▁u	-899
emmb	-900
▁Amerik	-901
ɗal	-902
▁18	-903
▁nden	-904
iɗɗo	-905
▁ɓer	-906
▁wayi	-907
▁kes	-908
ari	-909
▁faam	-910
▁seer	-911
▁suudu	-912
eru	-913
ucc	-914
▁ñaw	-915
anaa	-916
ppo	-917
uɗal	-918
▁dog	-919
▁gas	-920
ten	-921
▁nokk	-922
▁ɓesngu	-923
▁winndere	-924
▁leyɗeele	-925
▁diiw	-926
▁con	-927
▁Kala	-928
▁adii	-929
▁teddu	-930
kara	-931
▁seeɗa	-932
ap	-933
▁Hay	-934
▁wonande	-935
amp	-936
▁En	-937
ƴƴi	-938
ƴe	-939
▁v	-940
▁leyɗe	-941
ite	-942
▁fotde	-943
ine	-944
▁kay	-945
▁woodi	-946
inndi	-947
▁waas	-948
▁aade	-949
▁hooreejo	-950
▁wiyetee	-951
▁batte	-952
▁nelaaɗo	-953
▁dennd	-954
▁Iis	-955
▁pulaar	-956
ch	-957
wal	-958
ley	-959
aango	-960
acc	-961
amaan	-962
▁ñalawma	-963
▁weey	-964
tini	-965
▁faa	-966
▁it	-967
▁konngol	-968
▁jo	-969
ɗu	-970
▁Mar	-971
▁hare	-972
▁lee	-973
mu	-974
▁sag	-975
hu	-976
onng	-977
▁sikk	-978
▁ud	-979
▁un	-980
▁tol	-981
▁ɗam	-982
▁fulɓe	-983
diiɗo	-984
▁goɗɗe	-985
▁add	-986
▁Nel	-987
aale	-988
▁Waɗ	-989
▁keewɗi	-990
▁hir	-991
▁taƴ	-992
▁nanng	-993
▁wii	-994
▁juuɗe	-995
▁Mali	-996
bl	-997
kn	-998
▁wol	-999
▁majje	-1000
▁qu	-1001
▁ann	-1002
▁yiɗde	-1003
▁wiyee	-1004
▁baaba	-1005
▁jibin	-1006
▁ine	-1007
▁To	-1008
▁defte	-1009
▁goɗɗo	-1010
ulf	-1011
atee	-1012
edd	-1013
uru	-1014
▁heewɓe	-1015
▁daar	-1016
urm	-1017
▁hum	-1018
▁li	-1019
itde	-1020
ɓo	-1021
▁saf	-1022
▁njuɓɓ	-1023
▁mbaawi	-1024
▁tot	-1025
alf	-1026
▁yuɓɓ	-1027
▁lim	-1028
▁ceer	-1029
▁toow	-1030
nooɗo	-1031
ge	-1032
▁Le	-1033
▁ndew	-1034
inaa	-1035
▁peew	-1036
▁feere	-1037
▁Say	-1038
▁binnd	-1039
▁miliy	-1040
▁Muh	-1041
ɗam	-1042
orɗe	-1043
▁ɗaɓɓ	-1044
▁gad	-1045
▁lel	-1046
lle	-1047
▁fen	-1048
▁timm	-1049
▁15	-1050
▁ɗiin	-1051
adi	-1052
▁haɓ	-1053
▁jom	-1054
eendi	-1055
▁doole	-1056
▁Oon	-1057
▁dew	-1058
aaj	-1059
▁konu	-1060
▁kaŋ	-1061
▁aadee	-1062
▁Joo	-1063
▁jii	-1064
▁weeyo	-1065
▁miin	-1066
tion	-1067
ino	-1068
ano	-1069
▁kis	-1070
▁kaɓ	-1071
▁anndi	-1072
▁laabi	-1073
aako	-1074
▁Iisaa	-1075
▁bi	-1076
▁ekn	-1077
▁maayo	-1078
▁hakkille	-1079
oode	-1080
ulfulde	-1081
▁biyeteeɗo	-1082
ok	-1083
▁jipp	-1084
▁woto	-1085
orde	-1086
▁é	-1087
▁wona	-1088
▁ari	-1089
ig	-1090
▁wa	-1091
teer	-1092
▁Geno	-1093
uɓ	-1094
ers	-1095
▁leƴƴi	-1096
iraa	-1097
▁11	-1098
▁majj	-1099
▁baaw	-1100
▁mbel	-1101
▁12	-1102
▁yeew	-1103
▁Ala	-1104
▁nokkuuji	-1105
▁lom	-1106
tugol	-1107
oli	-1108
iɓɓe	-1109
uut	-1110
▁Ibr	-1111
▁ball	-1112
▁Mammadu	-1113
▁tuug	-1114
▁Nelaaɗo	-1115
▁jawdi	-1116
▁Mis	-1117
▁balɗe	-1118
maa	-1119
▁mbo	-1120
▁met	-1121
▁kaaw	-1122
▁Boo	-1123
▁kaw	-1124
▁ce	-1125
eñ	-1126
eydi	-1127
ill	-1128
▁mayre	-1129
▁aan	-1130
aaru	-1131
angu	-1132
tat	-1133
eeki	-1134
▁nih	-1135
▁miɗo	-1136
aad	-1137
ement	-1138
▁ho	-1139
▁har	-1140
ing	-1141
▁yiɗi	-1142
▁darnde	-1143
▁ter	-1144
▁Ɓeen	-1145
▁mu	-1146
▁kaalis	-1147
▁denndaangal	-1148
▁Moh	-1149
▁wiɗ	-1150
▁na	-1151
--------	-1152
adde	-1153
▁jaab	-1154
▁au	-1155
▁fi	-1156
ugol	-1157
rop	-1158
ooro	-1159
▁hade	-1160
▁far	-1161
ero	-1162
▁sappo	-1163
▁huutor	-1164
▁tawnoo	-1165
▁taar	-1166
imoore	-1167
iraaɗo	-1168
onoo	-1169
▁asamaan	-1170
▁koll	-1171
ondiri	-1172
▁Ñalnde	-1173
▁Nuwaas	-1174
toy	-1175
▁wee	-1176
▁wopp	-1177
▁Ann	-1178
tuɗe	-1179
▁hoɗ	-1180
▁loll	-1181
▁kee	-1182
▁puɗ	-1183
iiɗe	-1184
▁fecc	-1185
▁leɓ	-1186
res	-1187
aaf	-1188
islaam	-1189
és	-1190
kki	-1191
▁yamir	-1192
▁yan	-1193
AA	-1194
kin	-1195
▁198	-1196
alla	-1197
▁jamma	-1198
ɗɗe	-1199
▁nduu	-1200
innde	-1201
▁diiwaan	-1202
fa	-1203
▁teeŋti	-1204
▁ngad	-1205
ɓal	-1206
▁14	-1207
▁yurm	-1208
▁pelle	-1209
▁mag	-1210
ou	-1211
bbi	-1212
▁kew	-1213
▁mawn	-1214
kar	-1215
▁wonnde	-1216
ɓii	-1217
▁De	-1218
▁kor	-1219
▁mar	-1220
▁Mbele	-1221
be	-1222
▁wak	-1223
ingol	-1224
▁199	-1225
▁firti	-1226
▁haw	-1227
iraaɓe	-1228
ɗum	-1229
▁hedde	-1230
▁aay	-1231
otooɓe	-1232
▁etee	-1233
▁kuutor	-1234
▁ɓiɓɓe	-1235
aajo	-1236
▁woote	-1237
▁ngonnoo	-1238
gel	-1239
▁Eɗen	-1240
tuɗo	-1241
▁17	-1242
▁goongɗin	-1243
20	-1244
▁tooñ	-1245
ran	-1246
▁poti	-1247
▁Jallo	-1248
ndo	-1249
▁waawde	-1250
▁juulɓe	-1251
oga	-1252
▁njal	-1253
▁holi	-1254
oraade	-1255
▁ɗen	-1256
▁gure	-1257
▁Su	-1258
▁Pul	-1259
ees	-1260
▁nganndu	-1261
daade	-1262
ɗor	-1263
otaako	-1264
▁(1	-1265
▁winndi	-1266
▁rut	-1267
▁maayde	-1268
▁nganndi	-1269
laa	-1270
▁Ɓam	-1271
▁bar	-1272
ale	-1273
tata	-1274
▁ñande	-1275
▁mawɓe	-1276
▁reen	-1277
▁13	-1278
▁Saydu	-1279
▁Ji	-1280
iyee	-1281
▁duɗal	-1282
▁oɗon	-1283
▁Baaba	-1284
maan	-1285
▁Allah	-1286
▁ki	-1287
▁sago	-1288
▁pe	-1289
inooɓe	-1290
▁uddi	-1291
ngel	-1292
▁Eɓe	-1293
▁jiy	-1294
▁sen	-1295
▁mawnde	-1296
abit	-1297
▁fann	-1298
▁»,	-1299
▁worɓe	-1300
▁cal	-1301
▁faay	-1302
▁woɗɓe	-1303
▁addani	-1304
doo	-1305
▁hi	-1306
▁ngoong	-1307
irta	-1308
▁Annabi	-1309
anna	-1310
▁tiiɗ	-1311
▁macc	-1312
oorka	-1313
▁dans	-1314
▁cuu	-1315
▁paw	-1316
▁njuɓɓudi	-1317
▁sariya	-1318
▁an	-1319
▁dee	-1320
▁naati	-1321
aara	-1322
▁Arab	-1323
inaaɓe	-1324
ato	-1325
▁njo	-1326
▁Ngen	-1327
▁gannde	-1328
bo	-1329
▁See	-1330
▁Ha	-1331
▁keer	-1332
▁daɗ	-1333
▁cif	-1334
eddii	-1335
tre	-1336
▁kaaƴe	-1337
ondirde	-1338
▁pay	-1339
ppi	-1340
taani	-1341
ve	-1342
▁heɓi	-1343
itik	-1344
▁Ɓamtaare	-1345
dagol	-1346
▁wootere	-1347
▁dé	-1348
▁hoy	-1349
▁jeyi	-1350
▁pul	-1351
▁Sal	-1352
▁ndar	-1353
▁inn	-1354
itaade	-1355
ooɗo	-1356
tooɓe	-1357
▁Omo	-1358
▁No	-1359
diin	-1360
▁Bar	-1361
ammed	-1362
ood	-1363
▁annduɓe	-1364
▁han	-1365
ammb	-1366
▁worgo	-1367
▁neh	-1368
anndiraaɓe	-1369
▁yot	-1370
▁jooɗ	-1371
▁yurmeende	-1372
▁ceerno	-1373
otooɗo	-1374
▁jal	-1375
▁waɗii	-1376
rude	-1377
Al	-1378
▁langu	-1379
oni	-1380
▁daw	-1381
▁tamp	-1382
ndiije	-1383
▁goɗɗi	-1384
▁toɗ	-1385
”,	-1386
▁Hono	-1387
▁arti	-1388
▁diw	-1389
▁gite	-1390
▁tawo	-1391
▁Abdull	-1392
▁Haa	-1393
umma	-1394
naade	-1395
lii	-1396
▁sab	-1397
▁ndim	-1398
▁anndude	-1399
orgal	-1400
▁paam	-1401
▁semmb	-1402
▁Ti	-1403
▁jamaan	-1404
▁Laamɗo	-1405
▁njiɗ	-1406
sii	-1407
tina	-1408
▁Joom	-1409
dee	-1410
▁fit	-1411
oyi	-1412
▁majji	-1413
▁...	-1414
▁wer	-1415
▁Kan	-1416
▁jin	-1417
▁njet	-1418
▁rewo	-1419
ili	-1420
▁mbaɗi	-1421
▁kisal	-1422
ita	-1423
▁pr	-1424
▁mbiyi	-1425
▁waawaa	-1426
▁16	-1427
ejj	-1428
▁hul	-1429
▁Umar	-1430
▁Kon	-1431
▁jagg	-1432
▁foo	-1433
kka	-1434
aggu	-1435
▁addan	-1436
▁daande	-1437
▁Aad	-1438
▁Q	-1439
▁pour	-1440
oog	-1441
oodi	-1442
▁moƴƴere	-1443
▁Nuwaasoot	-1444
▁Orop	-1445
▁Fir	-1446
▁Alh	-1447
▁bay	-1448
▁ngonka	-1449
▁ballal	-1450
▁ɓaleeɓe	-1451
jun	-1452
▁ɓernde	-1453
iyankooɓe	-1454
ille	-1455
▁yaaf	-1456
▁fam	-1457
▁hakke	-1458
▁ɓiɗɗo	-1459
eeli	-1460
▁Abdul	-1461
▁ɗiɗo	-1462
▁feeñ	-1463
▁yeru	-1464
▁iw	-1465
iiƴ	-1466
atno	-1467
ée	-1468
emm	-1469
▁leɓte	-1470
▁ba	-1471
▁heddii	-1472
anaade	-1473
▁politik	-1474
aawo	-1475
Ko	-1476
▁‘	-1477
unoo	-1478
▁ƴellit	-1479
▁ɗow	-1480
owitii	-1481
▁us	-1482
▁mawɗe	-1483
▁njoo	-1484
▁jamaanu	-1485
▁tawde	-1486
▁tugg	-1487
▁Mal	-1488
iinde	-1489
▁Leydi	-1490
▁anndaa	-1491
▁co	-1492
▁dental	-1493
▁25	-1494
▁gee	-1495
▁son	-1496
▁njanng	-1497
▁jah	-1498
id	-1499
▁wondude	-1500
▁Fulfulde	-1501
▁yar	-1502
tuɗi	-1503
uudu	-1504
▁Taw	-1505
app	-1506
▁mus	-1507
▁tigi	-1508
atal	-1509
▁ngul	-1510
uuda	-1511
hay	-1512
▁fii	-1513
▁ngalu	-1514
nge	-1515
▁gall	-1516
▁ndokk	-1517
▁daartol	-1518
▁moo	-1519
▁miliyoŋ	-1520
ha	-1521
▁Maal	-1522
▁Room	-1523
uud	-1524
▁fenaande	-1525
▁laana	-1526
ub	-1527
▁Sabu	-1528
▁yoga	-1529
ga	-1530
ankaagal	-1531
op	-1532
▁cuk	-1533
▁mool	-1534
▁moƴƴi	-1535
▁Alm	-1536
▁baŋ	-1537
ental	-1538
▁sos	-1539
▁El	-1540
▁ujun	-1541
▁peeje	-1542
aten	-1543
▁haay	-1544
sp	-1545
▁alm	-1546
▁jol	-1547
▁njogii	-1548
janna	-1549
▁hu	-1550
▁wolde	-1551
▁new	-1552
ité	-1553
maani	-1554
▁Ne	-1555
▁ƴiiƴ	-1556
▁fuɗɗii	-1557
▁binndi	-1558
▁Maw	-1559
alfin	-1560
anndu	-1561
▁njey	-1562
▁jun	-1563
ela	-1564
▁yahde	-1565
▁Sii	-1566
▁que	-1567
▁hirnaange	-1568
aabu	-1569
▁ngalaa	-1570
abb	-1571
▁goomu	-1572
▁tonng	-1573
toor	-1574
ehil	-1575
▁maayi	-1576
▁njeen	-1577
del	-1578
▁Hannde	-1579
▁tawtor	-1580
▁cee	-1581
▁Kam	-1582
▁ndañ	-1583
▁Yimɓe	-1584
irii	-1585
▁kel	-1586
▁doos	-1587
▁Kay	-1588
uulal	-1589
he	-1590
eene	-1591
▁Li	-1592
ajji	-1593
▁lebbi	-1594
▁jay	-1595
▁jim	-1596
ɗini	-1597
▁Aadama	-1598
▁qui	-1599
▁mbar	-1600
▁ré	-1601
▁wayl	-1602
ooyre	-1603
▁heer	-1604
tern	-1605
▁197	-1606
ɗude	-1607
ise	-1608
▁hen	-1609
▁saab	-1610
▁Ah	-1611
ndaare	-1612
0,	-1613
▁dille	-1614
▁Us	-1615
ete	-1616
▁joof	-1617
▁noddi	-1618
▁luul	-1619
▁fayti	-1620
ehey	-1621
anne	-1622
▁196	-1623
▁cap	-1624
▁bakk	-1625
▁Waɗde	-1626
▁koye	-1627
▁eɓɓ	-1628
▁junngo	-1629
san	-1630
orgo	-1631
wol	-1632
tooji	-1633
▁Alaa	-1634
▁Holi	-1635
▁Asiis	-1636
yanke	-1637
▁21	-1638
▁muu	-1639
▁yim	-1640
▁keewi	-1641
▁Umaar	-1642
▁Sih	-1643
aaɓ	-1644
▁añ	-1645
▁man	-1646
▁saɗ	-1647
▁gardagol	-1648
▁jar	-1649
▁mal	-1650
▁Abuu	-1651
▁ƴiiƴam	-1652
eten	-1653
▁ɗumen	-1654
tinii	-1655
▁dam	-1656
▁kawr	-1657
▁waɗa	-1658
uure	-1659
▁haalde	-1660
▁njoɓ	-1661
▁per	-1662
▁muus	-1663
▁Ƴ	-1664
naajo	-1665
▁cell	-1666
▁haaw	-1667
iyaa	-1668
urs	-1669
ux	-1670
ule	-1671
▁Nd	-1672
▁Se	-1673
eeri	-1674
tirde	-1675
▁sakk	-1676
▁ɓerɗe	-1677
▁haayre	-1678
▁ndimaagu	-1679
▁Kanko	-1680
▁ngaal	-1681
attan	-1682
▁yonta	-1683
▁dii	-1684
▁Yero	-1685
▁koode	-1686
▁nafoore	-1687
urum	-1688
▁Sey	-1689
▁kum	-1690
▁yahi	-1691
JK	-1692
ons	-1693
ooɗe	-1694
haa	-1695
▁teddungal	-1696
▁Yah	-1697
ren	-1698
▁Ibraah	-1699
iila	-1700
orm	-1701
▁wonti	-1702
tagol	-1703
▁laaɗe	-1704
▁ɓurɗo	-1705
uɗi	-1706
aambar	-1707
▁Ay	-1708
▁luur	-1709
nugol	-1710
nj	-1711
uma	-1712
▁wir	-1713
▁maan	-1714
▁kan	-1715
▁ngonaa	-1716
iida	-1717
▁Gel	-1718
▁tin	-1719
▁jan	-1720
irɗo	-1721
▁yamiroore	-1722
▁fe	-1723
kaaji	-1724
▁tuuba	-1725
▁pecc	-1726
▁topp	-1727
aɓ	-1728
ane	-1729
▁sin	-1730
▁mem	-1731
leymaani	-1732
▁cu	-1733
▁janngin	-1734
▁Jah	-1735
▁ndaar	-1736
uuhu	-1737
▁ndut	-1738
JKM	-1739
▁Wiy	-1740
▁ladde	-1741
▁Njaay	-1742
alif	-1743
▁acc	-1744
▁poo	-1745
eji	-1746
▁kal	-1747
▁waɗti	-1748
pe	-1749
▁22	-1750
oomu	-1751
▁res	-1752
▁sok	-1753
▁kaay	-1754
▁binndol	-1755
inkooɓe	-1756
▁ay	-1757
▁haali	-1758
▁suɓ	-1759
▁cakk	-1760
▁gollal	-1761
▁koɗ	-1762
▁bonannde	-1763
aggudu	-1764
taar	-1765
▁taf	-1766
▁Aali	-1767
kadi	-1768
tunde	-1769
▁duum	-1770
▁Joop	-1771
▁jaɓɓ	-1772
▁ummii	-1773
tes	-1774
taandu	-1775
fol	-1776
tiri	-1777
▁Aladiin	-1778
▁Sar	-1779
▁humpit	-1780
▁jaaynde	-1781
▁ɓamtaare	-1782
ie	-1783
▁ñii	-1784
▁enen	-1785
▁ñaawoore	-1786
den	-1787
oya	-1788
▁tabit	-1789
▁yoɓ	-1790
ngalteer	-1791
llee	-1792
teede	-1793
▁ngenndiije	-1794
ju	-1795
uɗol	-1796
▁Gannd	-1797
▁njeenaari	-1798
▁jib	-1799
▁ron	-1800
taaki	-1801
lif	-1802
ment	-1803
▁est	-1804
▁muñ	-1805
▁mawnude	-1806
▁bel	-1807
▁ñi	-1808
▁hoo	-1809
▁28	-1810
▁30	-1811
▁Bookara	-1812
▁sur	-1813
▁meeɗaa	-1814
lit	-1815
▁goongɗinɓe	-1816
atu	-1817
▁onon	-1818
▁yaw	-1819
▁waasde	-1820
▁miijooji	-1821
▁24	-1822
kor	-1823
▁jeer	-1824
▁hawr	-1825
▁Dental	-1826
▁Nii	-1827
▁une	-1828
andir	-1829
▁ɓoor	-1830
▁neɗ	-1831
▁Gila	-1832
▁yaaj	-1833
▁ɓuu	-1834
od	-1835
▁suka	-1836
▁winndannde	-1837
ales	-1838
▁kaŋŋe	-1839
alɓe	-1840
▁He	-1841
alel	-1842
uritan	-1843
▁Makk	-1844
——	-1845
▁hool	-1846
ɗaani	-1847
OO	-1848
emmba	-1849
▁yeewtere	-1850
ɗiɗi	-1851
▁huuɓ	-1852
▁faamde	-1853
▁il	-1854
▁arab	-1855
oyde	-1856
▁yaaw	-1857
▁baas	-1858
▁boom	-1859
▁heɓde	-1860
faa	-1861
▁nana	-1862
▁sun	-1863
▁hebl	-1864
▁tata	-1865
▁dey	-1866
▁fuɗnaange	-1867
▁nuun	-1868
▁jaa	-1869
▁capanɗe	-1870
▁faggudu	-1871
ɓɓere	-1872
▁Hamma	-1873
▁few	-1874
ɗee	-1875
▁Kadi	-1876
▁Lislaam	-1877
▁leɗɗe	-1878
uli	-1879
▁terɗe	-1880
▁Mor	-1881
ndude	-1882
té	-1883
▁Goomu	-1884
▁yalti	-1885
▁ummorii	-1886
▁pi	-1887
awna	-1888
iiji	-1889
▁yumma	-1890
▁mbiyen	-1891
▁jogaade	-1892
▁Gine	-1893
▁Yuus	-1894
▁ngari	-1895
▁galleeji	-1896
▁ligg	-1897
▁Yo	-1898
▁ɗaa	-1899
oowal	-1900
▁yedd	-1901
▁--------	-1902
antaa	-1903
▁nanndi	-1904
▁In	-1905
▁wut	-1906
▁juut	-1907
-1	-1908
▁nge	-1909
▁Sah	-1910
▁deeƴ	-1911
▁hel	-1912
▁ciim	-1913
uɗe	-1914
wo	-1915
▁Demmba	-1916
▁tagi	-1917
tr	-1918
▁saare	-1919
▁his	-1920
▁Siin	-1921
nga	-1922
▁non	-1923
▁Dow	-1924
▁adan	-1925
▁kas	-1926
mere	-1927
▁Qur	-1928
▁suw	-1929
▁low	-1930
▁23	-1931
umaa	-1932
adii	-1933
▁geec	-1934
▁Maa	-1935
▁pool	-1936
▁arii	-1937
▁janngude	-1938
9,	-1939
ital	-1940
▁pal	-1941
taama	-1942
▁teem	-1943
▁yer	-1944
ñc	-1945
▁ooɗoo	-1946
▁kol	-1947
▁Abdel	-1948
▁Kar	-1949
▁waawa	-1950
▁Yuusuf	-1951
▁Hammadi	-1952
ogg	-1953
▁Goo	-1954
▁hakkillaaji	-1955
aasi	-1956
▁fiy	-1957
eri	-1958
ques	-1959
▁kil	-1960
tataa	-1961
oodere	-1962
▁Jooni	-1963
duɓe	-1964
▁jon	-1965
▁laakara	-1966
anooɓe	-1967
▁mba	-1968
▁fayde	-1969
▁mbaydi	-1970
▁27	-1971
▁duw	-1972
▁naal	-1973
tunoo	-1974
eewu	-1975
inooɗo	-1976
▁feccere	-1977
iyanke	-1978
▁Koorka	-1979
▁addi	-1980
▁fell	-1981
▁loow	-1982
une	-1983
▁Woto	-1984
▁inɗe	-1985
▁henndu	-1986
▁hiir	-1987
▁Siidi	-1988
▁sir	-1989
▁Daaw	-1990
▁bone	-1991
▁kaŋko	-1992
▁kit	-1993
▁tacc	-1994
▁Fooyre	-1995
▁ƴetti	-1996
▁Usmaan	-1997
▁Bur	-1998
enng	-1999
▁pas	-2000
raa	-2001
▁tar	-2002
▁rewi	-2003
▁ɓalndu	-2004
▁Neɗɗo	-2005
▁kaayit	-2006
▁0	-2007
▁kab	-2008
▁pine	-2009
otonoo	-2010
▁jojj	-2011
▁gardiiɗo	-2012
▁sabaabu	-2013
▁rokki	-2014
ummb	-2015
▁yiil	-2016
▁saw	-2017
▁ndon	-2018
▁laaɓi	-2019
▁joɗ	-2020
▁sehil	-2021
▁car	-2022
▁dowla	-2023
▁keddii	-2024
▁Bay	-2025
▁gaa	-2026
dunoo	-2027
iif	-2028
▁simoore	-2029
▁ɓad	-2030
▁kii	-2031
▁Sh	-2032
▁gay	-2033
sin	-2034
iisa	-2035
Alla	-2036
▁Ib	-2037
▁baŋŋe	-2038
asiy	-2039
▁fannu	-2040
▁nanondiral	-2041
▁hes	-2042
▁duɗe	-2043
ism	-2044
▁Ɗem	-2045
▁waɗnoo	-2046
▁nani	-2047
▁janngo	-2048
▁Mohammadu	-2049
▁Laamu	-2050
▁wonii	-2051
▁yeddooɓe	-2052
baka	-2053
rugol	-2054
▁ñaag	-2055
▁mis	-2056
▁yejj	-2057
▁Muhammed	-2058
pte	-2059
▁Alhajji	-2060
▁fool	-2061
▁mayri	-2062
yankooɓe	-2063
▁Ngenndi	-2064
▁dañde	-2065
▁Anngalteer	-2066
tel	-2067
▁Soh	-2068
▁fer	-2069
▁ñawu	-2070
▁hun	-2071
kule	-2072
▁daaw	-2073
▁wondi	-2074
▁ɓurɗe	-2075
daani	-2076
ef	-2077
tani	-2078
▁joy	-2079
iral	-2080
ondire	-2081
▁Islaam	-2082
ère	-2083
▁Yeru	-2084
▁fuu	-2085
ton	-2086
arab	-2087
▁geɗal	-2088
▁sifaa	-2089
▁Tooro	-2090
?”	-2091
ja	-2092
uv	-2093
uuba	-2094
lam	-2095
ede	-2096
eel	-2097
iɗɓe	-2098
▁Miɗo	-2099
anooma	-2100
▁jokki	-2101
diina	-2102
▁jaag	-2103
▁Tijj	-2104
▁aldaa	-2105
ddi	-2106
▁26	-2107
▁don	-2108
gom	-2109
▁por	-2110
▁fiɓ	-2111
▁Mus	-2112
anaaɓe	-2113
▁gonɗo	-2114
oƴ	-2115
né	-2116
ces	-2117
▁aw	-2118
▁nguleeki	-2119
▁ree	-2120
▁semmbe	-2121
▁lollirɗo	-2122
antee	-2123
▁wiya	-2124
briil	-2125
▁jeeɗiɗi	-2126
▁pen	-2127
inal	-2128
hayɗi	-2129
uy	-2130
tam	-2131
▁koyɗe	-2132
▁ngoll	-2133
▁njiim	-2134
data	-2135
uuɓi	-2136
▁cikk	-2137
▁guur	-2138
▁afrik	-2139
oondi	-2140
▁Muhammadu	-2141
▁ŋakk	-2142
▁je	-2143
▁jooɗii	-2144
▁karall	-2145
▁joomum	-2146
▁Tes	-2147
▁wuu	-2148
▁yettii	-2149
▁hucc	-2150
▁dokk	-2151
tingol	-2152
▁iwdi	-2153
▁taarii	-2154
▁ummoraade	-2155
▁)	-2156
eññ	-2157
▁set	-2158
▁gootol	-2159
▁jayngol	-2160
▁On	-2161
▁sell	-2162
1,	-2163
inta	-2164
▁saak	-2165
▁Ka	-2166
▁Seek	-2167
IR	-2168
▁Joomiraaɗo	-2169
taaɓe	-2170
▁waktu	-2171
aati	-2172
▁/	-2173
▁195	-2174
ternet	-2175
uya	-2176
ɗde	-2177
aaje	-2178
iyaŋ	-2179
irtee	-2180
▁ganndo	-2181
▁lo	-2182
▁sara	-2183
iw	-2184
taali	-2185
▁fayi	-2186
▁alla	-2187
▁njokk	-2188
▁ardiiɓe	-2189
▁kool	-2190
▁cuuɗi	-2191
▁lekki	-2192
▁laamuuji	-2193
koo	-2194
▁Aan	-2195
▁yamiri	-2196
eddi	-2197
▁100	-2198
au	-2199
▁Den	-2200
▁njii	-2201
▁law	-2202
▁njam	-2203
▁ju	-2204
▁hor	-2205
▁hawri	-2206
▁njiɗi	-2207
▁pullo	-2208
▁juuti	-2209
iɗo	-2210
▁hoto	-2211
▁maccuɓe	-2212
▁aa	-2213
▁lor	-2214
itani	-2215
▁maggal	-2216
anti	-2217
naaje	-2218
▁hino	-2219
▁joginoo	-2220
▁kitaale	-2221
▁fuɗɗ	-2222
▁yii	-2223
▁lesdi	-2224
ammbar	-2225
▁naamn	-2226
▁Baal	-2227
ré	-2228
digal	-2229
▁Joob	-2230
▁jeew	-2231
▁laamɓe	-2232
▁aayeeje	-2233
aami	-2234
▁juɓɓ	-2235
aadibu	-2236
▁or	-2237
▁•	-2238
▁km	-2239
aalo	-2240
▁ɗof	-2241
▁cukalel	-2242
▁ren	-2243
▁arde	-2244
▁seed	-2245
▁subaka	-2246
▁V	-2247
▁kaɓirɗe	-2248
▁go	-2249
▁wonɓe	-2250
▁nation	-2251
dun	-2252
▁heɓii	-2253
▁nattii	-2254
▁Ibraahiima	-2255
mokar	-2256
▁Te	-2257
▁Taal	-2258
▁Jam	-2259
▁kir	-2260
▁pucc	-2261
aamb	-2262
▁Kayhayɗi	-2263
▁aɓe	-2264
▁magg	-2265
▁Ɗoon	-2266
▁tuggi	-2267
8,	-2268
uuna	-2269
anngal	-2270
ooreejo	-2271
▁fawaade	-2272
▁Nuwaadibu	-2273
▁reedu	-2274
▁sanne	-2275
▁kalfin	-2276
ɗuɓe	-2277
ondira	-2278
▁feewn	-2279
▁lefol	-2280
▁Ndeke	-2281
▁faayiida	-2282
▁Af	-2283
▁ton	-2284
col	-2285
ang	-2286
irnoo	-2287
▁2019	-2288
▁gootal	-2289
ito	-2290
▁comci	-2291
▁waɗata	-2292
mp	-2293
ofeere	-2294
▁gaw	-2295
▁tuubakooɓe	-2296
iree	-2297
▁wat	-2298
ens	-2299
kke	-2300
oos	-2301
▁hoyre	-2302
In	-2303
▁ellee	-2304
▁ro	-2305
▁Haw	-2306
▁Misira	-2307
▁mawngal	-2308
AM	-2309
▁29	-2310
▁kaɗ	-2311
▁Heen	-2312
▁Aljanna	-2313
▁Ad	-2314
ture	-2315
▁woy	-2316
▁yeey	-2317
▁pl	-2318
▁Waɗi	-2319
▁banndiraaɓe	-2320
uri	-2321
▁Tee	-2322
▁Ibrah	-2323
▁damal	-2324
▁alkule	-2325
▁hokk	-2326
▁wonno	-2327
▁miliyaar	-2328
2,	-2329
co	-2330
dde	-2331
▁Abdullaay	-2332
▁ɗaŋ	-2333
▁anndir	-2334
ajo	-2335
▁haan	-2336
▁ɓuuɓ	-2337
AN	-2338
EN	-2339
▁annabi	-2340
hi	-2341
taw	-2342
▁ndennd	-2343
dere	-2344
▁batu	-2345
▁waɗaa	-2346
▁nee	-2347
est	-2348
▁Par	-2349
▁heb	-2350
ungal	-2351
▁Gor	-2352
▁daranii	-2353
▁langue	-2354
ƴƴe	-2355
▁tim	-2356
aandu	-2357
itere	-2358
▁hoodere	-2359
jji	-2360
▁saka	-2361
▁ɓooyi	-2362
uritaninaaɓe	-2363
▁ngoɗ	-2364
▁ɗoof	-2365
▁jogori	-2366
▁ref	-2367
aanga	-2368
tudi	-2369
▁Walla	-2370
▁Mate	-2371
▁tele	-2372
isaaji	-2373
▁mbaas	-2374
▁wayno	-2375
ink	-2376
anuuji	-2377
▁ngumm	-2378
▁lowre	-2379
iijo	-2380
todin	-2381
▁jeegom	-2382
▁mbaadi	-2383
▁hakkeeji	-2384
▁teemedde	-2385
les	-2386
ortoo	-2387
▁baawɗe	-2388
▁kabaaru	-2389
▁karallaagal	-2390
ingiral	-2391
▁aadi	-2392
▁boowal	-2393
▁mbaawa	-2394
▁njiimaandi	-2395
AL	-2396
▁jot	-2397
5,	-2398
▁njar	-2399
unde	-2400
uuli	-2401
▁gasa	-2402
▁dawrugol	-2403
ction	-2404
▁doosɗe	-2405
tinoo	-2406
▁tolnoo	-2407
3,	-2408
▁ñam	-2409
▁ɗiɗ	-2410
▁Leñol	-2411
▁Ger	-2412
▁nul	-2413
▁yaha	-2414
▁jibinaa	-2415
▁Abdullaah	-2416
▁takk	-2417
ال	-2418
amb	-2419
▁Daar	-2420
uddu	-2421
▁ser	-2422
▁darii	-2423
DE	-2424
▁nayi	-2425
▁hab	-2426
awree	-2427
iyank	-2428
▁Kamɓe	-2429
▁Mauritani	-2430
▁foof	-2431
▁cellal	-2432
taagu	-2433
▁ñalɗi	-2434
▁ɓalli	-2435
▁Miin	-2436
esa	-2437
abaaɓe	-2438
▁ŋg	-2439
aane	-2440
ɓere	-2441
▁meeɗ	-2442
▁haani	-2443
▁lam	-2444
etenoo	-2445
▁ngoon	-2446
atnooɓe	-2447
▁mbaɗti	-2448
▁Kuulal	-2449
▁japp	-2450
▁Maalik	-2451
▁siftor	-2452
▁ɓeydii	-2453
▁moƴƴude	-2454
▁kucc	-2455
▁Pinal	-2456
21	-2457
yank	-2458
noore	-2459
▁Duɗal	-2460
▁faati	-2461
▁ñaamde	-2462
▁wonaano	-2463
▁nganndaa	-2464
▁Esp	-2465
▁raf	-2466
▁laamorgo	-2467
▁ɓennu	-2468
▁rewrude	-2469
▁be	-2470
▁do	-2471
ations	-2472
▁nehdi	-2473
▁wiyeteende	-2474
ais	-2475
jal	-2476
▁Abd	-2477
itiiɗo	-2478
▁hal	-2479
hooɓe	-2480
▁saabii	-2481
▁mbaawaa	-2482
▁noo	-2483
▁ɓanndu	-2484
▁ri	-2485
inke	-2486
kaaru	-2487
ongal	-2488
▁ɓurnoo	-2489
ays	-2490
▁cof	-2491
▁dum	-2492
taaji	-2493
▁tuub	-2494
So	-2495
▁fow	-2496
▁baab	-2497
▁mbaɗii	-2498
▁tagofeere	-2499
▁peeñ	-2500
▁njeey	-2501
▁kalif	-2502
aton	-2503
madu	-2504
par	-2505
▁Ibrahiima	-2506
aake	-2507
▁fal	-2508
▁ardii	-2509
asi	-2510
▁Mah	-2511
▁yiɗaa	-2512
▁Nda	-2513
▁ñalngu	-2514
▁Ta	-2515
aŋk	-2516
▁ñeeñ	-2517
▁lislaam	-2518
▁Mur	-2519
▁sul	-2520
▁Simoore	-2521
▁langues	-2522
anee	-2523
▁kulle	-2524
▁wuuri	-2525
emma	-2526
▁njuul	-2527
▁naatde	-2528
▁huutoraade	-2529
▁cuɓ	-2530
▁ɗaɗ	-2531
▁weeɓ	-2532
▁2020	-2533
aayo	-2534
▁egg	-2535
iilo	-2536
nata	-2537
ellitaare	-2538
6,	-2539
fer	-2540
sam	-2541
▁tam	-2542
▁hanki	-2543
▁rokkude	-2544
▁bakkaat	-2545
▁dan	-2546
ɗinde	-2547
▁saanga	-2548
4,	-2549
angal	-2550
oggee	-2551
▁ndeer	-2552
▁nguura	-2553
rata	-2554
▁pet	-2555
▁dañi	-2556
▁Nuuhu	-2557
▁yiyde	-2558
▁Ngam	-2559
▁ngool	-2560
▁dingiral	-2561
aate	-2562
acce	-2563
▁wiɗto	-2564
▁winndude	-2565
▁rem	-2566
▁Misra	-2567
▁daawal	-2568
▁yaltin	-2569
▁moof	-2570
tuɓe	-2571
▁Wol	-2572
▁rewde	-2573
emb	-2574
▁heɓɓ	-2575
▁kese	-2576
anooɗo	-2577
▁Mannde	-2578
▁Ham	-2579
▁majjere	-2580
7,	-2581
▁hii	-2582
▁kaan	-2583
▁tell	-2584
▁ɓeydoo	-2585
▁Moritani	-2586
oro	-2587
▁keewal	-2588
dal	-2589
▁It	-2590
▁Mawɗo	-2591
itoo	-2592
atooɗo	-2593
▁mun	-2594
▁gonɗe	-2595
▁mbiya	-2596
▁mawɗi	-2597
▁mbinnd	-2598
▁juur	-2599
▁Ndakaaru	-2600
▁paa	-2601
▁ku	-2602
▁ard	-2603
▁cul	-2604
▁Nan	-2605
▁hankadi	-2606
▁heddiiɓe	-2607
ulaagu	-2608
▁kulol	-2609
▁50	-2610
oonde	-2611
▁duunde	-2612
▁eɗe	-2613
diiji	-2614
itiiɓe	-2615
▁Hooreejo	-2616
ort	-2617
▁ex	-2618
▁kuuɓ	-2619
▁enɗam	-2620
▁parti	-2621
inee	-2622
▁Ismaa	-2623
▁tun	-2624
▁geno	-2625
▁Gerees	-2626
▁jeewte	-2627
▁Ɓoggee	-2628
yo	-2629
kon	-2630
ŋk	-2631
▁fon	-2632
▁sil	-2633
taake	-2634
▁Rew	-2635
▁sahaaji	-2636
▁aad	-2637
▁cos	-2638
toowo	-2639
▁Pullo	-2640
nement	-2641
▁demokar	-2642
iiɗi	-2643
▁aar	-2644
▁mbaɗa	-2645
koraana	-2646
▁ɲ	-2647
▁Ndee	-2648
▁neɗɗaa	-2649
▁Daawuuda	-2650
aangu	-2651
▁toɗɗ	-2652
ver	-2653
▁Yoo	-2654
▁yowitii	-2655
ins	-2656
owol	-2657
tindii	-2658
▁fet	-2659
▁diis	-2660
▁kasoo	-2661
▁Almaañ	-2662
▁maayɓe	-2663
▁politi	-2664
▁Tijjaani	-2665
▁Eehey	-2666
▁tuugn	-2667
med	-2668
asii	-2669
inɗo	-2670
▁njaɓ	-2671
▁Tawree	-2672
▁(19	-2673
▁yumm	-2674
▁fiɓnde	-2675
▁jowitii	-2676
son	-2677
▁Sen	-2678
▁fil	-2679
▁weltaare	-2680
pé	-2681
▁ruɗ	-2682
▁saaw	-2683
▁ndeke	-2684
aba	-2685
▁Hamm	-2686
▁gol	-2687
etaake	-2688
boo	-2689
▁njill	-2690
ranç	-2691
▁san	-2692
▁siy	-2693
▁Tesko	-2694
▁ngoongɗini	-2695
▁Ge	-2696
▁njiyaagu	-2697
▁heeriinde	-2698
▁fee	-2699
▁ges	-2700
▁catal	-2701
▁nanii	-2702
▁nannd	-2703
▁toowɗo	-2704
▁meh	-2705
tiiɗo	-2706
▁mball	-2707
▁nelaaɓe	-2708
cu	-2709
▁koorka	-2710
/0	-2711
row	-2712
unna	-2713
▁Man	-2714
▁dal	-2715
▁minen	-2716
▁Saar	-2717
isation	-2718
▁bo	-2719
▁nodd	-2720
taŋ	-2721
▁ñaan	-2722
▁joɗnde	-2723
▁dim	-2724
▁pir	-2725
RE	-2726
ril	-2727
▁fin	-2728
▁heɗ	-2729
tiino	-2730
/1	-2731
▁mooɓ	-2732
▁ɗann	-2733
itiima	-2734
▁pa	-2735
▁maccuɗo	-2736
agge	-2737
▁riiw	-2738
▁Manndelaa	-2739
▁haɗi	-2740
ngooji	-2741
▁moƴƴo	-2742
▁peewal	-2743
nooɗe	-2744
eeruuji	-2745
▁woodnoo	-2746
iyya	-2747
danii	-2748
irigi	-2749
▁joop	-2750
ommb	-2751
▁abb	-2752
▁njot	-2753
toonde	-2754
▁roo	-2755
▁Haar	-2756
▁adun	-2757
▁fawii	-2758
▁fotaani	-2759
lu	-2760
▁ara	-2761
▁Juul	-2762
▁ngesa	-2763
vi	-2764
uko	-2765
iiko	-2766
aneede	-2767
▁njaaw	-2768
jir	-2769
jom	-2770
▁of	-2771
ŋaaji	-2772
▁dag	-2773
aaku	-2774
▁bism	-2775
ɗtirde	-2776
▁kuule	-2777
▁Gelaajo	-2778
▁dillere	-2779
nee	-2780
▁(2	-2781
▁Gar	-2782
▁haɓde	-2783
▁hikka	-2784
▁Mohammed	-2785
sik	-2786
▁boni	-2787
▁luut	-2788
▁Maam	-2789
▁sinno	-2790
age	-2791
▁ɗon	-2792
▁warde	-2793
bal	-2794
lim	-2795
vers	-2796
▁kebl	-2797
masii	-2798
ataake	-2799
▁woodani	-2800
▁wonata	-2801
▁dun	-2802
▁fiɗ	-2803
▁suwee	-2804
▁taan	-2805
▁natal	-2806
▁pellit	-2807
▁nuunɗal	-2808
▁koninkooɓe	-2809
▁kaaɗ	-2810
▁gah	-2811
▁ndiin	-2812
toto	-2813
▁hiis	-2814
▁yiɗnoo	-2815
▁ɓurnde	-2816
oir	-2817
▁ngati	-2818
rii	-2819
▁Kor	-2820
▁ciftor	-2821
▁Madiina	-2822
if	-2823
▁Oo	-2824
ette	-2825
▁tuma	-2826
▁kattan	-2827
▁bonde	-2828
▁baawɗo	-2829
wa	-2830
noowo	-2831
ph	-2832
▁Ɗo	-2833
▁194	-2834
▁Mariy	-2835
▁kawgel	-2836
yi	-2837
▁fu	-2838
▁alk	-2839
▁yani	-2840
▁31	-2841
▁ou	-2842
iifa	-2843
▁nate	-2844
▁wela	-2845
▁jojjanɗe	-2846
▁40	-2847
▁Kol	-2848
teeji	-2849
▁teeme	-2850
masiihu	-2851
▁ngalaano	-2852
▁mas	-2853
▁half	-2854
▁hujj	-2855
▁Makka	-2856
arn	-2857
won	-2858
▁Naange	-2859
▁cer	-2860
▁mur	-2861
▁La	-2862
▁Suw	-2863
▁yow	-2864
▁Neene	-2865
▁kaayitaaji	-2866
yee	-2867
▁Bir	-2868
nguuji	-2869
▁loo	-2870
ŋkooɓe	-2871
▁jogor	-2872
▁ngopp	-2873
▁Yuusufa	-2874
▁hoohooɓe	-2875
itee	-2876
▁Aduna	-2877
▁culture	-2878
ƊO	-2879
▁Jal	-2880
aayre	-2881
▁tato	-2882
▁ɗacc	-2883
▁Sileymaani	-2884
oyii	-2885
inooma	-2886
▁tinnd	-2887
▁juulde	-2888
wil	-2889
▁Di	-2890
▁juum	-2891
anndaa	-2892
▁kuuɓal	-2893
▁haɗaani	-2894
▁Alkoraana	-2895
ist	-2896
▁Ngal	-2897
▁ndema	-2898
▁polis	-2899
!”	-2900
inj	-2901
▁baasal	-2902
aaro	-2903
▁gadano	-2904
▁mbaawka	-2905
éné	-2906
bbil	-2907
▁Dar	-2908
▁coñ	-2909
▁eɗi	-2910
▁luulndo	-2911
▁internet	-2912
sion	-2913
iilu	-2914
▁dem	-2915
▁mawni	-2916
inɗe	-2917
▁teddin	-2918
▁Mauritanie	-2919
nda	-2920
▁gañ	-2921
we	-2922
ès	-2923
▁tig	-2924
▁feññ	-2925
▁ñiiɓ	-2926
▁moƴƴe	-2927
▁helmere	-2928
▁tawtoreede	-2929
▁muul	-2930
▁hiirde	-2931
▁fittaandu	-2932
deero	-2933
uunde	-2934
occ	-2935
▁mom	-2936
▁haɗde	-2937
kii	-2938
▁goɗɗum	-2939
add	-2940
▁tedduɗo	-2941
tiin	-2942
▁pro	-2943
▁cood	-2944
ca	-2945
ñaal	-2946
▁Almasiihu	-2947
ɗoon	-2948
▁JOO	-2949
▁Burk	-2950
▁almuu	-2951
▁fun	-2952
▁mor	-2953
▁firo	-2954
▁kuɗol	-2955
▁yahii	-2956
antaagal	-2957
jin	-2958
dini	-2959
ataano	-2960
▁jeyaaɗo	-2961
dé	-2962
▁'	-2963
▁sank	-2964
uwtor	-2965
▁ndaɗ	-2966
▁ngay	-2967
ON	-2968
fe	-2969
▁Mbaañ	-2970
▁seernaaɓe	-2971
awol	-2972
ataaɓe	-2973
▁maaje	-2974
▁wallitde	-2975
▁jeytaare	-2976
▁Jol	-2977
▁luu	-2978
faaɓe	-2979
▁muuy	-2980
▁ngañ	-2981
▁maggol	-2982
▁tagoore	-2983
:1	-2984
▁ال	-2985
ppol	-2986
▁Lew	-2987
▁Ɗee	-2988
urumdeero	-2989
▁cok	-2990
▁Laaw	-2991
▁njee	-2992
▁ndeeɗoo	-2993
fo	-2994
jii	-2995
aahi	-2996
▁woɗnde	-2997
▁Ɗemngal	-2998
▁sooy	-2999
uraana	-3000
anndiraaɗo	-3001
addaa	-3002
▁ƴellitaare	-3003
▁Me	-3004
▁jaar	-3005
▁aarab	-3006
▁potal	-3007
▁tuum	-3008
▁puɗɗii	-3009
▁comp	-3010
ireede	-3011
▁jaaɓi	-3012
▁wasiy	-3013
▁ɓiɗɓe	-3014
wi	-3015
▁Maamuudu	-3016
▁ngootaagu	-3017
itu	-3018
▁Wul	-3019
▁Koli	-3020
▁keso	-3021
▁safr	-3022
▁waaj	-3023
Mb	-3024
▁lugg	-3025
▁pays	-3026
▁ɗeeɗoo	-3027
▁njulaagu	-3028
▁faandaare	-3029
▁jokkondiral	-3030
mis	-3031
ɗuɗo	-3032
▁Saw	-3033
▁kuude	-3034
▁sey	-3035
ummba	-3036
▁njeyaa	-3037
ires	-3038
▁kolo	-3039
▁Tugg	-3040
▁ngas	-3041
▁daaɗe	-3042
▁haaju	-3043
▁wutte	-3044
▁Il	-3045
seig	-3046
ɓiire	-3047
dinnde	-3048
▁faade	-3049
▁heege	-3050
▁jiɗɗo	-3051
tuuji	-3052
▁Faran	-3053
▁wellitaare	-3054
▁fotnoo	-3055
▁tolnii	-3056
▁Muritaninaaɓe	-3057
▁jul	-3058
▁annabaaɓe	-3059
▁el	-3060
▁fiil	-3061
▁seede	-3062
▁Murtuɗo	-3063
▁yaltude	-3064
▁=	-3065
▁Bad	-3066
▁Jaa	-3067
▁maayii	-3068
tum	-3069
upp	-3070
▁Kuu	-3071
kos	-3072
duɗo	-3073
▁Def	-3074
▁dir	-3075
▁ɓol	-3076
eewal	-3077
▁Ahmed	-3078
▁jiidaa	-3079
▁safaara	-3080
▁Z	-3081
uura	-3082
uurn	-3083
iindi	-3084
▁ñaamo	-3085
annda	-3086
tenoo	-3087
anndee	-3088
ilifaaɓe	-3089
▁fannuuji	-3090
▁teemedere	-3091
irl	-3092
▁plus	-3093
▁ɓura	-3094
▁seedan	-3095
dani	-3096
▁dill	-3097
▁jaal	-3098
▁jiiɓ	-3099
▁Jo	-3100
▁Ley	-3101
▁Ñal	-3102
ndaade	-3103
Min	-3104
▁vo	-3105
▁Buu	-3106
▁sel	-3107
▁Tawreeta	-3108
▁aba	-3109
▁Firawna	-3110
▁tolno	-3111
▁tooñooɓe	-3112
▁ceed	-3113
▁sood	-3114
▁biyetee	-3115
▁Haaruuna	-3116
▁ɓesnguuji	-3117
▁jih	-3118
▁ngoƴ	-3119
▁ngaluuji	-3120
▁dañii	-3121
▁woodaani	-3122
aabi	-3123
uuje	-3124
▁buu	-3125
▁fuɗɗoo	-3126
▁wiɗtooji	-3127
▁nande	-3128
▁Ibnu	-3129
▁ɗaan	-3130
iyoŋ	-3131
▁roŋ	-3132
sidaa	-3133
▁pell	-3134
▁Wonaa	-3135
▁famɗi	-3136
baruuji	-3137
▁njuulu	-3138
▁konuuji	-3139
201	-3140
oroo	-3141
▁Sam	-3142
ingal	-3143
▁tokoo	-3144
▁ngondi	-3145
▁ň	-3146
con	-3147
▁Les	-3148
▁miñ	-3149
▁teewu	-3150
▁ñenng	-3151
▁naftor	-3152
Hol	-3153
man	-3154
rel	-3155
tt	-3156
▁ny	-3157
▁fartaŋ	-3158
▁33	-3159
▁Har	-3160
▁njoɓdi	-3161
▁Janng	-3162
ondirii	-3163
-19	-3164
▁cen	-3165
itaa	-3166
▁noddir	-3167
▁Tag	-3168
▁gadan	-3169
▁wolla	-3170
▁ɓurɗi	-3171
▁me	-3172
▁oto	-3173
▁tra	-3174
▁Caam	-3175
▁Wolof	-3176
▁jamaa	-3177
▁ɗiiɗoo	-3178
▁koloñaal	-3179
▁ujunnaaje	-3180
IN	-3181
diino	-3182
▁safalɓe	-3183
tungal	-3184
▁Gooto	-3185
▁mbela	-3186
▁Yahuuda	-3187
anta	-3188
▁ekk	-3189
▁for	-3190
▁piɗ	-3191
▁wonta	-3192
aawe	-3193
▁konng	-3194
▁mbaylii	-3195
▁sol	-3196
▁jeya	-3197
▁Kuɗol	-3198
▁Ays	-3199
▁felliti	-3200
▁waɗeede	-3201
▁ut	-3202
▁aada	-3203
tis	-3204
▁ruttii	-3205
▁warngo	-3206
▁hilifaaɓe	-3207
cr	-3208
▁Con	-3209
▁toɓɓe	-3210
▁ɓural	-3211
▁waɗtude	-3212
kis	-3213
▁ch	-3214
▁ow	-3215
abet	-3216
naaki	-3217
ɗorde	-3218
▁ardi	-3219
▁cuus	-3220
▁nanngi	-3221
▁mbinndi	-3222
▁pu	-3223
▁dol	-3224
▁mud	-3225
▁miliyoŋaaji	-3226
▁idii	-3227
inaade	-3228
▁ngoongɗin	-3229
50	-3230
ooru	-3231
iyaaji	-3232
▁kuugal	-3233
__	-3234
illa	-3235
▁hojom	-3236
▁kelme	-3237
▁kuulal	-3238
▁tuggude	-3239
▁asamaanuuji	-3240
▁ɗuu	-3241
▁woɗɗi	-3242
▁gootel	-3243
ées	-3244
▁36	-3245
▁Ir	-3246
▁Ɗoo	-3247
jam	-3248
oori	-3249
▁rim	-3250
ɗinii	-3251
opeeje	-3252
▁Duuɓi	-3253
▁Miijo	-3254
▁Jurumdeero	-3255
▁tum	-3256
naaɗo	-3257
▁wari	-3258
▁jaayɗe	-3259
▁Abu	-3260
▁dot	-3261
jju	-3262
▁da	-3263
▁ga	-3264
▁jeey	-3265
▁Ɗeen	-3266
▁Takko	-3267
▁nguun	-3268
ES	-3269
▁Es	-3270
▁ñiŋ	-3271
unaas	-3272
▁gasi	-3273
▁kuɓɓ	-3274
▁ndog	-3275
▁noow	-3276
anndal	-3277
▁miskin	-3278
▁Sa	-3279
▁boo	-3280
▁annoore	-3281
nguɗi	-3282
tanoo	-3283
▁keeri	-3284
▁Hakkunde	-3285
alo	-3286
oyr	-3287
▁mette	-3288
▁kabaruuji	-3289
▁ok	-3290
▁ɓog	-3291
hoore	-3292
letee	-3293
maaji	-3294
▁maande	-3295
▁ɓaleejo	-3296
Eehey	-3297
▁2021	-3298
▁uddit	-3299
▁jappeere	-3300
▁ñaa	-3301
▁sikki	-3302
▁tawee	-3303
▁teskaade	-3304
▁Ke	-3305
ammu	-3306
▁anndu	-3307
▁kawri	-3308
▁ngaan	-3309
▁meeɗii	-3310
▁ndin	-3311
▁jaɓde	-3312
▁peewn	-3313
▁tedduɓe	-3314
ora	-3315
ndal	-3316
▁tesku	-3317
▁binndanɗe	-3318
▁AN	-3319
▁Isr	-3320
▁Nul	-3321
▁ɗin	-3322
▁dowrow	-3323
▁yuɓɓin	-3324
▁farayse	-3325
▁sehilaaɓe	-3326
ff	-3327
▁*	-3328
dat	-3329
▁Aɗa	-3330
▁ƴoƴ	-3331
ammad	-3332
▁dool	-3333
▁artir	-3334
▁mayru	-3335
ello	-3336
▁nawi	-3337
▁ndiw	-3338
ber	-3339
apon	-3340
irooje	-3341
▁jibini	-3342
▁kaaldigal	-3343
tooɗe	-3344
▁Naam	-3345
▁hoɗɓe	-3346
▁sawru	-3347
▁Ch	-3348
▁Je	-3349
▁noog	-3350
▁sont	-3351
▁poolgu	-3352
▁haawnii	-3353
iɗen	-3354
▁abriil	-3355
▁gollaade	-3356
▁Suleymaani	-3357
ada	-3358
▁Alasan	-3359
▁haŋ	-3360
▁bonn	-3361
▁fewj	-3362
▁ɗaŋre	-3363
▁naatii	-3364
▁Dowlaaji	-3365
jumaa	-3366
bariyee	-3367
▁Wonande	-3368
▁hollitii	-3369
imo	-3370
————	-3371
▁aux	-3372
torii	-3373
uunus	-3374
▁sikke	-3375
▁wu	-3376
itte	-3377
▁sett	-3378
▁Alfaa	-3379
▁jamɗe	-3380
▁yaltini	-3381
ngele	-3382
▁Linj	-3383
▁lay	-3384
▁tipp	-3385
▁toɗɗii	-3386
▁saawiyee	-3387
▁kalfinaaɗo	-3388
cti	-3389
▁cooy	-3390
▁mbon	-3391
ikiiɗe	-3392
▁yahra	-3393
▁Ñande	-3394
aawu	-3395
tiiɓe	-3396
▁banng	-3397
▁waktuuji	-3398
ence	-3399
▁Son	-3400
▁Haal	-3401
▁gooŋ	-3402
▁neene	-3403
▁ngacc	-3404
▁jebbil	-3405
▁allaaji	-3406
▁tu	-3407
oros	-3408
▁saay	-3409
▁ɓurɓe	-3410
▁jaabii	-3411
▁sulyee	-3412
pr	-3413
ern	-3414
IRAA	-3415
irgal	-3416
▁teel	-3417
▁jaɓii	-3418
▁kumpit	-3419
▁jiyaaɓe	-3420
▁Jey	-3421
▁all	-3422
▁noot	-3423
▁yill	-3424
teende	-3425
DI	-3426
▁av	-3427
▁waal	-3428
▁abada	-3429
▁Gelongal	-3430
waar	-3431
▁Niis	-3432
▁soom	-3433
kaa	-3434
▁32	-3435
▁wo	-3436
ingu	-3437
naaji	-3438
▁sosiy	-3439
▁ciimtol	-3440
▁paltoor	-3441
▁soo	-3442
▁sepp	-3443
▁Dowla	-3444
▁Malal	-3445
yoo	-3446
▁Ndi	-3447
cation	-3448
▁kosam	-3449
▁wallit	-3450
alaa	-3451
▁hoolaare	-3452
diri	-3453
▁pel	-3454
▁yuɓɓinde	-3455
▁tel	-3456
tanii	-3457
▁fawi	-3458
▁heed	-3459
▁njettii	-3460
▁BA	-3461
▁FƁ	-3462
▁guw	-3463
iingu	-3464
▁maley	-3465
▁ngarii	-3466
);	-3467
▁sof	-3468
inooje	-3469
▁mbiɗo	-3470
▁wuurde	-3471
ŋŋ	-3472
ient	-3473
totoo	-3474
▁yiyl	-3475
▁warngooji	-3476
oyo	-3477
ñam	-3478
▁th	-3479
▁ɗaw	-3480
▁Mars	-3481
▁jamm	-3482
▁wano	-3483
toobar	-3484
▁Faati	-3485
PM	-3486
yu	-3487
MIRAA	-3488
tande	-3489
▁Nuwaasot	-3490
▁Ene	-3491
▁Moo	-3492
▁fuun	-3493
▁mbii	-3494
▁fartaŋŋe	-3495
irdu	-3496
nduɓe	-3497
▁jime	-3498
▁kewu	-3499
▁Ñaaw	-3500
▁wiyaa	-3501
atnooɗo	-3502
▁jeertin	-3503
▁miijaade	-3504
aggi	-3505
▁Mut	-3506
▁Mahm	-3507
▁Sibu	-3508
▁yitere	-3509
ég	-3510
▁laɓɓ	-3511
▁ndun	-3512
▁puɗɗ	-3513
▁heddi	-3514
iye	-3515
▁Ful	-3516
▁waasa	-3517
▁wontii	-3518
▁kuudetaa	-3519
iro	-3520
enne	-3521
▁fat	-3522
▁añɓe	-3523
MIRAAƊO	-3524
▁Espaañ	-3525
ts	-3526
bon	-3527
▁kur	-3528
▁hedd	-3529
▁rafi	-3530
▁gonɗi	-3531
▁njoginoo	-3532
ɗiiji	-3533
▁fooɗ	-3534
▁ɓeyd	-3535
▁bonɗe	-3536
▁diisn	-3537
▁kattanɗe	-3538
▁yol	-3539
▁jokkude	-3540
▁tampere	-3541
muuji	-3542
isi	-3543
▁Tabit	-3544
rançais	-3545
▁fuɗɗor	-3546
▁Pulaagu	-3547
▁masi	-3548
▁diina	-3549
▁senngo	-3550
▁janngi	-3551
▁teemin	-3552
▁miskineeɓe	-3553
▁noowammbar	-3554
ui	-3555
ndoo	-3556
neeji	-3557
▁Hade	-3558
▁gaas	-3559
▁nagge	-3560
▁ɓeydi	-3561
▁addude	-3562
▁humpito	-3563
aŋke	-3564
▁cañ	-3565
▁las	-3566
itaande	-3567
▁jeyeede	-3568
ƴi	-3569
nal	-3570
▁‘’	-3571
▁Ben	-3572
▁Yer	-3573
▁bayy	-3574
▁gann	-3575
▁leur	-3576
▁waawnoo	-3577
ɗit	-3578
▁60	-3579
▁yen	-3580
▁alaano	-3581
▁teeŋtude	-3582
▁dah	-3583
▁lar	-3584
▁Heew	-3585
▁heefer	-3586
▁heɓɓitii	-3587
▁sagataaɓe	-3588
▁gollotooɓe	-3589
▁hulɓ	-3590
▁weli	-3591
eeteer	-3592
▁njejj	-3593
▁timmi	-3594
▁leegal	-3595
▁jeyaaɓe	-3596
CO	-3597
▁gi	-3598
otono	-3599
▁depit	-3600
▁jemma	-3601
▁Nulaaɗo	-3602
iyaŋkooɓe	-3603
▁Ngenndiyanke	-3604
eeru	-3605
▁Aarab	-3606
▁Ahmadu	-3607
▁wallif	-3608
▁jaagorɗe	-3609
ejo	-3610
▁35	-3611
▁tou	-3612
nooɗi	-3613
▁2013	-3614
▁comme	-3615
▁ngona	-3616
▁pellital	-3617
IM	-3618
ven	-3619
▁Woni	-3620
▁salm	-3621
▁saraaji	-3622
▁tagopeeje	-3623
dam	-3624
▁aaye	-3625
totaako	-3626
ont	-3627
▁Hakk	-3628
▁Ngol	-3629
arnama	-3630
ubli	-3631
▁Afri	-3632
▁haɓɓ	-3633
oyraat	-3634
▁juulɗo	-3635
▁daranaade	-3636
pt	-3637
eli	-3638
vec	-3639
▁2012	-3640
▁Ƴeew	-3641
▁Debbo	-3642
tati	-3643
▁Kaw	-3644
▁pat	-3645
▁jeen	-3646
▁ɓocc	-3647
▁waɗta	-3648
▁doggol	-3649
▁huuɓtan	-3650
annga	-3651
▁Baab	-3652
▁leel	-3653
▁dente	-3654
▁jaambar	-3655
▁noogaas	-3656
Ng	-3657
▁500	-3658
▁aadaaji	-3659
▁aljanna	-3660
ɗir	-3661
iidu	-3662
▁Lam	-3663
▁jaaj	-3664
ooninke	-3665
aŋde	-3666
wole	-3667
▁caf	-3668
▁cii	-3669
tooje	-3670
▁Isra	-3671
▁Seyɗ	-3672
▁Ɗiin	-3673
▁salii	-3674
▁maayɗo	-3675
▁yejjit	-3676
▁sifaaji	-3677
▁hollitde	-3678
▁keddiiɗe	-3679
▁tonngoode	-3680
▁JOOMIRAAƊO	-3681
▁Ennd	-3682
▁njan	-3683
▁yiyi	-3684
▁Jaw	-3685
▁tuf	-3686
▁ɓit	-3687
▁Etee	-3688
oktoor	-3689
▁ñeeñal	-3690
▁jeyanoo	-3691
▁ñalaande	-3692
4)	-3693
lon	-3694
▁Nji	-3695
▁faab	-3696
▁Afiri	-3697
▁Dooro	-3698
▁gawri	-3699
PR	-3700
▁45	-3701
adak	-3702
oyaade	-3703
▁Maruk	-3704
▁naata	-3705
▁oktoobar	-3706
yaa	-3707
▁38	-3708
▁tergal	-3709
ace	-3710
▁jaɓi	-3711
enaaɓe	-3712
▁diƴƴe	-3713
▁haaɗi	-3714
▁nguru	-3715
▁rokku	-3716
▁reende	-3717
seignement	-3718
▁X	-3719
usi	-3720
▁fel	-3721
taaɗo	-3722
annama	-3723
▁lonng	-3724
uurndam	-3725
▁hunuko	-3726
▁luulndii	-3727
▁feebariyee	-3728
cte	-3729
mbo	-3730
tooɗo	-3731
▁Wuro	-3732
▁ngoodi	-3733
▁fiɗtaandu	-3734
▁huuɓtandinnde	-3735
▁aaw	-3736
▁pit	-3737
▁ubb	-3738
▁njaw	-3739
30	-3740
Jom	-3741
▁37	-3742
araa	-3743
daaji	-3744
niima	-3745
▁fagg	-3746
▁mbir	-3747
▁majjum	-3748
▁wiyata	-3749
▁fuɗɗoode	-3750
ɓde	-3751
ante	-3752
▁huɓ	-3753
▁sow	-3754
itgol	-3755
▁deen	-3756
▁dumunna	-3757
▁salaade	-3758
uuru	-3759
teeɓe	-3760
▁ɓii	-3761
▁tawata	-3762
▁ɓataake	-3763
▁Ngenndiije	-3764
▁Go	-3765
▁Kur	-3766
▁njooɗ	-3767
▁Muttaar	-3768
▁kaawisaaji	-3769
▁mber	-3770
ateeɗo	-3771
▁Tar	-3772
taako	-3773
▁dara	-3774
▁mate	-3775
▁artii	-3776
▁Faransa	-3777
▁jannginooɓe	-3778
▁ca	-3779
▁Com	-3780
▁Ŋ	-3781
ost	-3782
▁jiim	-3783
▁koko	-3784
▁Golle	-3785
Mi	-3786
▁at	-3787
▁Ɗii	-3788
tiiji	-3789
▁heɓa	-3790
▁famɗude	-3791
▁wallude	-3792
▁q	-3793
▁dur	-3794
▁jir	-3795
▁kun	-3796
Mbele	-3797
▁Doos	-3798
▁jaamb	-3799
▁siwil	-3800
▁ɓurata	-3801
▁Daartol	-3802
▁Mahmuud	-3803
▁baabiraaɓe	-3804
▁Diin	-3805
▁maantin	-3806
▁jannginoowo	-3807
▁giɗ	-3808
▁Shee	-3809
▁rajo	-3810
▁yool	-3811
orinoo	-3812
▁Paate	-3813
▁darnga	-3814
▁kikiiɗe	-3815
▁ujunere	-3816
yn	-3817
che	-3818
▁Bak	-3819
▁Mas	-3820
▁Mbi	-3821
▁mbe	-3822
▁mes	-3823
aniiɗo	-3824
▁May	-3825
naako	-3826
▁ɗiɗa	-3827
▁coñce	-3828
▁kawral	-3829
▁Gannduɗo	-3830
up	-3831
▁kammu	-3832
▁Tabital	-3833
▁konnguɗi	-3834
ème	-3835
▁gul	-3836
dinde	-3837
▁caak	-3838
▁kanum	-3839
▁ɗaɓɓi	-3840
▁janngooɓe	-3841
pulaar	-3842
ukaaɓe	-3843
▁bannd	-3844
▁fooli	-3845
▁mbayl	-3846
▁yaltinde	-3847
mar	-3848
aarn	-3849
abil	-3850
▁ken	-3851
giyya	-3852
▁feeñi	-3853
▁holli	-3854
aŋkooɓe	-3855
▁goomuuji	-3856
iyankaagal	-3857
▁tiitoonde	-3858
ct	-3859
lel	-3860
...)	-3861
diima	-3862
▁muum	-3863
ex	-3864
ue	-3865
ɓol	-3866
toyi	-3867
▁Han	-3868
naaka	-3869
▁cuur	-3870
▁alanaa	-3871
▁ngenndii	-3872
book	-3873
▁Kat	-3874
▁raw	-3875
▁jamf	-3876
▁yanti	-3877
fes	-3878
tira	-3879
▁Lih	-3880
▁jigg	-3881
▁njahi	-3882
▁ɗumɗoo	-3883
▁holliti	-3884
▁kaawnii	-3885
SA	-3886
yde	-3887
▁Baydi	-3888
lay	-3889
ral	-3890
▁Per	-3891
▁bol	-3892
toode	-3893
▁gumm	-3894
inaajo	-3895
▁dewbo	-3896
▁naalankaagal	-3897
bel	-3898
▁34	-3899
▁2018	-3900
▁gese	-3901
▁mbuu	-3902
▁neen	-3903
▁mbiyaa	-3904
▁mbaɗata	-3905
’’	-3906
gan	-3907
▁gu	-3908
eema	-3909
▁Goll	-3910
▁Libi	-3911
▁njeñ	-3912
▁woow	-3913
inoowo	-3914
tannde	-3915
▁pille	-3916
▁golwole	-3917
▁laaɓtin	-3918
▁pulaagu	-3919
▁nationales	-3920
▁46	-3921
edda	-3922
▁Jibi	-3923
▁itti	-3924
▁yiɗii	-3925
▁deeƴre	-3926
▁waɗɗii	-3927
▁ɓooyaani	-3928
Holi	-3929
▁kuɓ	-3930
▁tiim	-3931
▁lajal	-3932
allaahi	-3933
▁manaam	-3934
haaɗtirde	-3935
▁Roomnaaɓe	-3936
▁teeminannde	-3937
atuuji	-3938
▁Yanti	-3939
▁lomtii	-3940
▁daraade	-3941
aaɗ	-3942
aye	-3943
buk	-3944
muɓɓe	-3945
dungal	-3946
▁kaala	-3947
▁ugiyya	-3948
▁aynaaɓe	-3949
▁teskuya	-3950
▁tinaani	-3951
▁toɓɓere	-3952
▁Banndiraaɓe	-3953
5)	-3954
▁avec	-3955
▁heedi	-3956
▁Aysata	-3957
▁lappol	-3958
tonoo	-3959
▁natti	-3960
▁naamnii	-3961
for	-3962
inndu	-3963
unndi	-3964
▁jaas	-3965
▁siim	-3966
itaare	-3967
▁barke	-3968
▁mudda	-3969
▁eɓɓaande	-3970
▁jamirooje	-3971
cl	-3972
see	-3973
orɗo	-3974
▁Maas	-3975
▁woor	-3976
▁kaawise	-3977
uba	-3978
▁ceŋ	-3979
taaka	-3980
▁gacce	-3981
AD	-3982
▁es	-3983
▁ran	-3984
eraal	-3985
▁Aten	-3986
▁njoor	-3987
▁dewgal	-3988
▁finnde	-3989
▁njillu	-3990
▁Jibriil	-3991
▁im	-3992
ines	-3993
▁ont	-3994
▁2008	-3995
▁kaɓɓ	-3996
▁ɓure	-3997
▁Kummba	-3998
▁Quraan	-3999
▁mawnin	-4000
▁nano	-4001
▁tago	-4002
▁ñall	-4003
aayiil	-4004
akuuji	-4005
taango	-4006
▁leppi	-4007
▁njeew	-4008
▁seppo	-4009
▁wolof	-4010
▁dolaar	-4011
▁falnde	-4012
▁waɗaani	-4013
▁aarabeeɓe	-4014
ves	-4015
tana	-4016
▁toɓo	-4017
▁njaha	-4018
▁tokos	-4019
ternation	-4020
▁neɗɗaagu	-4021
gr	-4022
isa	-4023
▁piy	-4024
▁arta	-4025
▁sadak	-4026
▁yiyii	-4027
▁yaawde	-4028
▁almuudo	-4029
▁diwooje	-4030
ɓa	-4031
▁dis	-4032
▁Ɓee	-4033
▁2009	-4034
▁Haam	-4035
▁wiyeede	-4036
▁yettaade	-4037
▁yontaaji	-4038
▁Sank	-4039
▁kuur	-4040
▁pecce	-4041
▁juɓɓule	-4042
mba	-4043
ppu	-4044
▁tab	-4045
▁ende	-4046
▁gaño	-4047
▁kecc	-4048
irɗi	-4049
▁marse	-4050
▁noppi	-4051
▁mboros	-4052
▁njogor	-4053
▁teskii	-4054
▁yolnde	-4055
▁yaafuya	-4056
▁sariyaaji	-4057
2)	-4058
urmo	-4059
▁Pol	-4060
▁col	-4061
▁lab	-4062
tetee	-4063
▁rokka	-4064
alleeɓe	-4065
▁kalifu	-4066
▁woodde	-4067
▁doosgal	-4068
▁Bo	-4069
▁Gey	-4070
inaani	-4071
▁cette	-4072
▁yiɗɓe	-4073
Ganndal	-4074
▁baagal	-4075
▁keewɗo	-4076
▁baa	-4077
▁coo	-4078
tinaa	-4079
▁Geɗe	-4080
▁mbiyata	-4081
▁fuɗɗiima	-4082
▁Wad	-4083
▁welde	-4084
▁naamndii	-4085
rib	-4086
taaɗe	-4087
walla	-4088
▁70	-4089
▁Gay	-4090
▁Hab	-4091
▁hon	-4092
▁2014	-4093
▁Barak	-4094
▁luure	-4095
▁sarɗiiji	-4096
▁is	-4097
▁nja	-4098
▁Gorko	-4099
▁Bookar	-4100
▁hesere	-4101
oowa	-4102
raan	-4103
jiilo	-4104
▁seyɗ	-4105
▁ganni	-4106
▁hinnde	-4107
▁luural	-4108
▁almuɓɓe	-4109
▁Suwoyraat	-4110
erec	-4111
tine	-4112
▁nas	-4113
▁2017	-4114
▁maaɗa	-4115
▁Nation	-4116
▁heewaani	-4117
3)	-4118
akal	-4119
dent	-4120
▁2011	-4121
▁waɗe	-4122
▁woot	-4123
▁haalata	-4124
▁ɗaɓɓude	-4125
▁fulfulde	-4126
▁haalooɓe	-4127
iisi	-4128
▁Sok	-4129
▁Tan	-4130
anooka	-4131
▁Tawde	-4132
▁njiɗnoo	-4133
▁the	-4134
▁himm	-4135
▁neɗɗ	-4136
aga	-4137
mes	-4138
▁sy	-4139
owal	-4140
▁ngara	-4141
▁heefereeɓe	-4142
lé	-4143
der	-4144
empe	-4145
▁Fon	-4146
▁fad	-4147
▁pam	-4148
▁keed	-4149
▁nous	-4150
▁Lewru	-4151
▁Tuure	-4152
▁jeenay	-4153
▁feewnude	-4154
▁Ɗi	-4155
angol	-4156
▁jeeri	-4157
▁kinɗe	-4158
▁pre	-4159
buktu	-4160
neede	-4161
torde	-4162
▁miɗen	-4163
▁welaa	-4164
▁niɓɓere	-4165
▁ɗal	-4166
▁2015	-4167
▁senegaal	-4168
uutankooɓe	-4169
▁hump	-4170
inguis	-4171
▁wiyɓe	-4172
▁jahannama	-4173
iɗde	-4174
▁gel	-4175
▁saa	-4176
▁ƴee	-4177
torɗe	-4178
▁Ganndal	-4179
▁laawɗin	-4180
otde	-4181
tique	-4182
▁bonɗo	-4183
▁pucci	-4184
▁sunaare	-4185
▁jinnaaɓe	-4186
AR	-4187
olli	-4188
▁koɗo	-4189
▁yottii	-4190
▁ɓennii	-4191
▁ngalɗoo	-4192
▁ɗanngal	-4193
▁settaambar	-4194
ami	-4195
▁Hi	-4196
▁tr	-4197
▁Aam	-4198
▁Kul	-4199
▁pré	-4200
▁puu	-4201
▁Ɓal	-4202
▁Maay	-4203
otooɗe	-4204
▁Galle	-4205
▁Sikke	-4206
▁arsik	-4207
▁maaya	-4208
▁wooto	-4209
▁loowdi	-4210
ER	-4211
and	-4212
bba	-4213
▁193	-4214
meendi	-4215
▁njagg	-4216
▁wonan	-4217
▁Ɗemɗe	-4218
▁yaajde	-4219
▁adannde	-4220
arul	-4221
itan	-4222
▁jet	-4223
▁ɓall	-4224
▁wiyii	-4225
▁koreeji	-4226
▁tippudi	-4227
▁juulirde	-4228
▁kuutoragol	-4229
▁pew	-4230
▁sii	-4231
▁ardin	-4232
▁njaɓɓ	-4233
addaafi	-4234
▁jeetati	-4235
ddir	-4236
ités	-4237
▁amin	-4238
iilirde	-4239
▁naamnal	-4240
▁guwarnama	-4241
jel	-4242
jjo	-4243
▁Moodi	-4244
uuteendi	-4245
▁hareeji	-4246
▁ƴettude	-4247
▁warhoore	-4248
nat	-4249
▁Hu	-4250
ecce	-4251
▁Jaal	-4252
▁Maley	-4253
▁Suudu	-4254
▁almud	-4255
▁heblo	-4256
▁milit	-4257
▁waasɓe	-4258
▁Niiseer	-4259
▁goɗngol	-4260
▁diiwanuuji	-4261
▁huutoreede	-4262
»,	-4263
dia	-4264
▁Ro	-4265
oolo	-4266
▁duñ	-4267
▁yed	-4268
stitu	-4269
▁ittude	-4270
▁otooji	-4271
▁wonaani	-4272
▁Kaddaafi	-4273
▁yiyannde	-4274
OL	-4275
vel	-4276
▁app	-4277
▁bee	-4278
ɗeeli	-4279
▁Elim	-4280
▁fitir	-4281
▁humam	-4282
▁njaaj	-4283
▁mbaasa	-4284
▁jawɗeele	-4285
▁tigirigi	-4286
oraa	-4287
kkere	-4288
▁Ndar	-4289
▁jang	-4290
▁njol	-4291
▁tawaa	-4292
▁wooda	-4293
▁Sukaaɓe	-4294
illi	-4295
tinee	-4296
▁Alas	-4297
▁Jaaf	-4298
ngaagu	-4299
▁sahre	-4300
▁ɓaawo	-4301
▁ANC	-4302
▁kat	-4303
▁Sene	-4304
iɗa	-4305
▁yay	-4306
aawol	-4307
lagol	-4308
▁kiis	-4309
anooɗe	-4310
emmbol	-4311
▁baali	-4312
▁ndewi	-4313
▁Badarul	-4314
▁suukara	-4315
kal	-4316
iiba	-4317
▁Jib	-4318
▁Muk	-4319
▁jagge	-4320
▁tataɓo	-4321
▁njamndi	-4322
▁demokaraasi	-4323
ck	-4324
abba	-4325
ères	-4326
▁kesi	-4327
▁Itali	-4328
▁kesal	-4329
▁konngi	-4330
▁dowlaaji	-4331
▁gonnooɗo	-4332
▁culturelle	-4333
iik	-4334
ind	-4335
nes	-4336
▁yeh	-4337
balɓe	-4338
dugol	-4339
▁kump	-4340
▁ndoo	-4341
▁yaawi	-4342
II	-4343
tas	-4344
iide	-4345
▁Faa	-4346
▁wull	-4347
Ñalnde	-4348
▁tiiɗi	-4349
▁Sankara	-4350
▁musiɗɗo	-4351
▁mooliiɓe	-4352
awu	-4353
▁Mu	-4354
▁fod	-4355
▁has	-4356
▁giɗo	-4357
▁yooɓ	-4358
ineede	-4359
▁tuddu	-4360
▁laaɓal	-4361
▁ngardii	-4362
▁wooteeji	-4363
---	-4364
ard	-4365
▁80	-4366
ants	-4367
kaan	-4368
▁Nas	-4369
▁Maaw	-4370
▁Nder	-4371
▁neli	-4372
▁cukko	-4373
▁ekkol	-4374
▁njaaf	-4375
▁woppi	-4376
▁Almaami	-4377
▁ndeenka	-4378
ps	-4379
ooɗi	-4380
▁jinng	-4381
▁ɓadii	-4382
▁jaɓaani	-4383
bil	-4384
int	-4385
orto	-4386
oɗen	-4387
▁sañ	-4388
▁Diine	-4389
▁maggo	-4390
▁winndir	-4391
▁miliyaaruuji	-4392
DA	-4393
▁41	-4394
▁42	-4395
▁Mag	-4396
▁piɓ	-4397
▁nayo	-4398
▁Ndu	-4399
▁Pari	-4400
▁njim	-4401
▁ɗaɗi	-4402
taagal	-4403
▁holliri	-4404
▁njaaweeki	-4405
iss	-4406
atoj	-4407
▁Bel	-4408
▁Dem	-4409
▁Ted	-4410
▁eer	-4411
unndu	-4412
▁salli	-4413
WM	-4414
goo	-4415
iɗɗi	-4416
uɗaa	-4417
▁ruu	-4418
▁tijj	-4419
▁2009,	-4420
▁mbayliigu	-4421
▁Abdallaahi	-4422
ram	-4423
▁Laa	-4424
▁jof	-4425
▁sew	-4426
▁sor	-4427
▁njaar	-4428
inaango	-4429
▁hattan	-4430
iv	-4431
pen	-4432
ɗto	-4433
▁Ju	-4434
ayri	-4435
être	-4436
▁189	-4437
▁Bal	-4438
▁ala	-4439
irgol	-4440
▁Jaay	-4441
▁jaaw	-4442
▁Muusa	-4443
▁garɗo	-4444
▁muñal	-4445
illaaji	-4446
▁coftal	-4447
▁ɓeeɗoo	-4448
▁Israayiil	-4449
ull	-4450
ump	-4451
▁Wi	-4452
▁ab	-4453
aado	-4454
▁Fas	-4455
daama	-4456
tinta	-4457
▁jiil	-4458
▁Maayo	-4459
▁Nuuru	-4460
▁hulde	-4461
▁jooɗo	-4462
▁ɓenni	-4463
▁njalti	-4464
▁aljumaa	-4465
▁ndenndi	-4466
▁?”	-4467
▁ŋar	-4468
oogle	-4469
▁Seeku	-4470
▁sanam	-4471
▁Ɗumɗoo	-4472
▁kollitii	-4473
▁persidaa	-4474
ura	-4475
oole	-4476
inaare	-4477
ndaale	-4478
▁waɗee	-4479
▁inniri	-4480
▁winndii	-4481
▁haralleeɓe	-4482
▁43	-4483
▁48	-4484
fici	-4485
▁Jii	-4486
▁Tuu	-4487
▁ber	-4488
▁bur	-4489
▁tef	-4490
anngu	-4491
▁wakk	-4492
inaama	-4493
▁arata	-4494
▁entre	-4495
▁jimɗi	-4496
▁sarɗi	-4497
▁ñaama	-4498
▁ngonti	-4499
nan	-4500
ɗuɗe	-4501
▁jogi	-4502
itagol	-4503
▁Buubu	-4504
▁refti	-4505
▁kaliifa	-4506
▁nafooje	-4507
ña	-4508
▁Etaa	-4509
▁dupp	-4510
▁Jaŋde	-4511
▁addana	-4512
▁mawngu	-4513
▁remooɓe	-4514
▁moƴƴaani	-4515
▁fiyakuuji	-4516
▁jannginde	-4517
▁UN	-4518
dana	-4519
▁jook	-4520
▁pagg	-4521
inaaji	-4522
▁alkam	-4523
▁hollit	-4524
▁keeweendi	-4525
▁bakkatuuji	-4526
oh	-4527
▁Gu	-4528
▁Faal	-4529
▁goob	-4530
▁jala	-4531
▁ndaw	-4532
iyaaɓe	-4533
ima	-4534
▁39	-4535
roit	-4536
runoo	-4537
▁dall	-4538
▁haaj	-4539
▁huɓɓ	-4540
▁joyi	-4541
▁keɓa	-4542
▁kaake	-4543
▁neldi	-4544
▁puccu	-4545
▁47	-4546
Mate	-4547
tant	-4548
ures	-4549
▁Faat	-4550
▁werl	-4551
▁Makki	-4552
▁Engele	-4553
▁jogiiɗo	-4554
▁koyngal	-4555
▁français	-4556
enseignement	-4557
hare	-4558
▁Taf	-4559
▁2010	-4560
▁Hare	-4561
▁ngoƴa	-4562
▁Maasina	-4563
kit	-4564
ndir	-4565
▁jiɗ	-4566
▁lut	-4567
▁ngee	-4568
▁pooɗ	-4569
▁siif	-4570
iraama	-4571
▁Catal	-4572
▁Faatim	-4573
▁Haayre	-4574
▁waylude	-4575
▁hooreeɓe	-4576
▁Mariyaama	-4577
▁Gereesnaaɓe	-4578
ks	-4579
▁ɓul	-4580
▁ciif	-4581
▁daɓɓ	-4582
▁annde	-4583
▁hujjaaji	-4584
▁ngenndiyankooɓe	-4585
istr	-4586
ogol	-4587
ordu	-4588
▁400	-4589
▁eew	-4590
▁hat	-4591
▁joñ	-4592
teeɗo	-4593
▁poof	-4594
▁this	-4595
▁keerol	-4596
▁maggel	-4597
▁yantude	-4598
▁Yiilirde	-4599
▁ceertuɗi	-4600
▁humambin	-4601
▁naalanke	-4602
ott	-4603
▁cew	-4604
▁ger	-4605
elles	-4606
kaare	-4607
▁Kaal	-4608
▁puɗi	-4609
▁makka	-4610
▁anndiraa	-4611
▁Ibraahiim	-4612
say	-4613
uwal	-4614
▁Sin	-4615
▁fait	-4616
▁good	-4617
▁jikk	-4618
▁Ɓooy	-4619
▁baɗɗo	-4620
▁lelii	-4621
▁mbaal	-4622
▁haalan	-4623
▁lewndu	-4624
▁Salannga	-4625
va	-4626
jol	-4627
efti	-4628
olog	-4629
naani	-4630
▁Ngoo	-4631
▁Tawi	-4632
▁capp	-4633
▁suus	-4634
▁golli	-4635
▁waɗan	-4636
▁naamne	-4637
▁Afriknaaɓe	-4638
form	-4639
▁Ine	-4640
▁aaɓ	-4641
▁wow	-4642
▁Tawa	-4643
▁doga	-4644
▁seto	-4645
tamlam	-4646
▁wadde	-4647
▁gollude	-4648
▁jippini	-4649
bbe	-4650
▁fus	-4651
▁sat	-4652
▁tor	-4653
▁ɓeya	-4654
▁Yumma	-4655
▁teskiima	-4656
ago	-4657
▁gen	-4658
▁Ajii	-4659
▁baɗe	-4660
▁Pales	-4661
▁beeli	-4662
▁kollit	-4663
▁nguuri	-4664
▁taaniraaɓe	-4665
▁Ap	-4666
▁Pe	-4667
▁Ren	-4668
▁cor	-4669
▁deƴƴ	-4670
▁ɓakk	-4671
▁laaɓa	-4672
▁Juulɓe	-4673
▁nafata	-4674
▁njogit	-4675
▁ceertuɗe	-4676
▁44	-4677
▁CO	-4678
▁déc	-4679
▁keɓi	-4680
▁ndes	-4681
eeriya	-4682
▁mboɗo	-4683
▁telef	-4684
▁Deftere	-4685
▁maayirɗe	-4686
▁ker	-4687
▁goodal	-4688
▁laatii	-4689
▁toowde	-4690
▁ardaade	-4691
LA	-4692
UN	-4693
mii	-4694
umi	-4695
▁Ɓur	-4696
arabe	-4697
▁Jaag	-4698
▁Mbiy	-4699
▁mars	-4700
ereeji	-4701
▁notre	-4702
▁Gorgol	-4703
▁mbaɗaa	-4704
▁Burkina	-4705
▁njeeygu	-4706
▁ummaade	-4707
cci	-4708
▁Ɗe	-4709
▁sifa	-4710
▁Japon	-4711
▁teskaa	-4712
▁laatiima	-4713
UL	-4714
cle	-4715
▁51	-4716
/201	-4717
éren	-4718
▁ɓaɗ	-4719
▁Aaye	-4720
▁annda	-4721
ooninkooɓe	-4722
bah	-4723
ESCO	-4724
▁All	-4725
▁bir	-4726
▁keɓii	-4727
▁fitina	-4728
▁wondiiɓe	-4729
har	-4730
lew	-4731
▁Cif	-4732
▁Tom	-4733
▁Diis	-4734
asiihu	-4735
▁koolol	-4736
yel	-4737
▁ii	-4738
▁Saf	-4739
▁horm	-4740
▁ordin	-4741
▁haalii	-4742
▁noddaa	-4743
▁ƴeewtin	-4744
dr	-4745
are	-4746
▁Ob	-4747
kiri	-4748
ooba	-4749
▁dimo	-4750
▁maale	-4751
▁yuɓɓo	-4752
▁njiɗii	-4753
▁potnoo	-4754
▁potaani	-4755
ondiraani	-4756
▁ganndiraaɗo	-4757
hat	-4758
▁ye	-4759
▁Rab	-4760
▁Bakk	-4761
▁giɗli	-4762
▁njuum	-4763
▁weeɓaani	-4764
▁[	-4765
til	-4766
nere	-4767
▁aut	-4768
▁was	-4769
tirɗe	-4770
▁2016	-4771
▁facc	-4772
▁gaañ	-4773
▁soci	-4774
▁yahdu	-4775
▁keeriiɗo	-4776
▁maleykaaji	-4777
▁tuugnorgal	-4778
▁ummoriinde	-4779
▁San	-4780
▁arɓe	-4781
▁kilom	-4782
▁Afirik	-4783
▁ngaari	-4784
▁fodoore	-4785
ddu	-4786
ême	-4787
aala	-4788
▁cate	-4789
aniiɓe	-4790
▁hiisi	-4791
▁seeda	-4792
▁yuurn	-4793
▁anniya	-4794
▁laaɓti	-4795
▁ngarti	-4796
▁piɗtaali	-4797
waa	-4798
ɗol	-4799
▁Re	-4800
ooli	-4801
▁Mbay	-4802
▁Siley	-4803
▁lannda	-4804
baa	-4805
des	-4806
las	-4807
mum	-4808
per	-4809
ɗina	-4810
▁Jak	-4811
▁Sud	-4812
▁tumar	-4813
▁njooɗii	-4814
▁yontere	-4815
▁renndooji	-4816
aaga	-4817
▁dab	-4818
▁diid	-4819
▁arabe	-4820
▁gadanal	-4821
▁62	-4822
umata	-4823
ements	-4824
tit	-4825
▁Nig	-4826
▁nim	-4827
▁yuum	-4828
tungol	-4829
▁fijir	-4830
▁bonnde	-4831
▁Senegal	-4832
▁heɓtude	-4833
able	-4834
okki	-4835
oral	-4836
uddi	-4837
▁Tum	-4838
▁din	-4839
▁imm	-4840
▁yaɓɓ	-4841
▁ɗaŋe	-4842
▁waalo	-4843
▁garooji	-4844
▁cakkitii	-4845
bre	-4846
tar	-4847
▁Ce	-4848
iije	-4849
▁Kool	-4850
▁naya	-4851
▁nduw	-4852
▁niɓɓ	-4853
▁ɓiyi	-4854
▁laaci	-4855
▁ƴeewde	-4856
▁toppitii	-4857
0)	-4858
awa	-4859
ukk	-4860
▁elle	-4861
▁raɓɓ	-4862
▁Sahre	-4863
▁suɓii	-4864
▁tammb	-4865
▁ɓiyum	-4866
Masiihu	-4867
▁Ganndo	-4868
▁adiiɓe	-4869
▁foolde	-4870
▁kiloom	-4871
▁kuutorɗe	-4872
ogo	-4873
iire	-4874
▁Bat	-4875
▁bil	-4876
▁sato	-4877
▁suuɗ	-4878
▁ƴoog	-4879
ateeri	-4880
▁jaŋng	-4881
▁wanng	-4882
▁mbuuɗu	-4883
▁miijii	-4884
▁siftorde	-4885
hey	-4886
▁56	-4887
▁Im	-4888
ɗɗal	-4889
▁gal	-4890
▁hep	-4891
▁Araf	-4892
▁Rajo	-4893
▁Toow	-4894
▁daari	-4895
▁kaali	-4896
▁Ajiiju	-4897
▁faandu	-4898
▁ndarii	-4899
▁toɗɗaa	-4900
▁waɗani	-4901
▁ɓooyii	-4902
▁jibineede	-4903
iisee	-4904
iyaŋke	-4905
▁dogde	-4906
▁mehre	-4907
▁sosaa	-4908
▁ndaara	-4909
▁taariik	-4910
▁gollooɓe	-4911
7)	-4912
▁jiyaaɗo	-4913
▁ngenndiy	-4914
▁Uni	-4915
▁jow	-4916
▁pos	-4917
▁ñaagii	-4918
▁Tuggude	-4919
▁daliilu	-4920
▁fayndaare	-4921
gy	-4922
ye	-4923
▁Por	-4924
▁cel	-4925
daare	-4926
▁sokl	-4927
ataako	-4928
▁Pelle	-4929
▁totti	-4930
▁ƴeewa	-4931
▁artude	-4932
▁njiyii	-4933
ɗiraagal	-4934
awɗi	-4935
▁300	-4936
amako	-4937
teeɗe	-4938
▁1989	-4939
▁tepp	-4940
▁rokkii	-4941
▁hollude	-4942
▁jihaadi	-4943
▁woppude	-4944
▁ɓaleeri	-4945
▁Ni	-4946
▁ed	-4947
atif	-4948
▁Tig	-4949
▁dut	-4950
▁Enen	-4951
▁Jowol	-4952
▁mabba	-4953
▁mbayi	-4954
▁parle	-4955
▁ɗaɗol	-4956
eteende	-4957
▁sankii	-4958
▁gaynaako	-4959
▁golleeji	-4960
▁pittaali	-4961
▁mauritani	-4962
ayl	-4963
men	-4964
▁55	-4965
▁uu	-4966
▁suur	-4967
▁yaaɓ	-4968
▁yoor	-4969
eteeɓe	-4970
▁bolol	-4971
▁jaggi	-4972
▁kanndi	-4973
▁90	-4974
uwaa	-4975
▁Dam	-4976
▁pad	-4977
▁huɗo	-4978
▁moni	-4979
▁ɗimm	-4980
▁jikku	-4981
▁nodda	-4982
▁Yuunus	-4983
▁militeer	-4984
6)	-4985
ique	-4986
pres	-4987
▁Kal	-4988
▁Kajj	-4989
▁kedd	-4990
▁seerti	-4991
▁haɓaade	-4992
▁koolaaɗo	-4993
▁bonanndeeji	-4994
▁seedantaagal	-4995
jet	-4996
▁Saam	-4997
▁hebb	-4998
aangol	-4999
ankoore	-5000
▁Muktaar	-5001
▁kaalata	-5002
▁Linjiila	-5003
▁taariindi	-5004
rik	-5005
▁cat	-5006
▁mut	-5007
▁duule	-5008
▁mbedd	-5009
▁nduun	-5010
▁ngoor	-5011
▁yahata	-5012
▁Hammaat	-5013
ooŋ	-5014
imme	-5015
▁Mbe	-5016
▁ceh	-5017
▁kuf	-5018
ammbi	-5019
eendu	-5020
roowo	-5021
▁kalf	-5022
inndol	-5023
▁Ellee	-5024
▁Enndo	-5025
▁Hammee	-5026
▁rokkaa	-5027
▁wiyaama	-5028
▁ngootiri	-5029
▁wonnooɓe	-5030
▁ƴellitde	-5031
▁49	-5032
▁Aw	-5033
ndaa	-5034
ummo	-5035
▁Bon	-5036
▁woɗɗ	-5037
▁addii	-5038
▁banndum	-5039
▁nulaaɗo	-5040
▁ɓamtude	-5041
▁laamaade	-5042
▁SN	-5043
▁Hal	-5044
▁Ibl	-5045
aayaa	-5046
▁FƁPM	-5047
atooɓe	-5048
▁calii	-5049
▁jawɗi	-5050
▁mahde	-5051
▁Google	-5052
▁goɗngal	-5053
ND	-5054
sey	-5055
éri	-5056
▁1-	-5057
dira	-5058
iyel	-5059
▁Eli	-5060
eteeɗe	-5061
▁njiil	-5062
▁huwtor	-5063
▁ƴettii	-5064
▁jaagorgal	-5065
▁ngoongɗinii	-5066
ŋng	-5067
ndee	-5068
ulal	-5069
▁boɗ	-5070
▁ciy	-5071
▁ɗom	-5072
▁fuɗɗi	-5073
▁gollo	-5074
▁hello	-5075
▁jabet	-5076
▁ñaami	-5077
▁Kawtal	-5078
▁gondiiɓe	-5079
▁ngelooba	-5080
pu	-5081
dar	-5082
ŋke	-5083
abbi	-5084
▁Pen	-5085
▁mof	-5086
aasam	-5087
deede	-5088
▁gard	-5089
▁Waalo	-5090
▁tedde	-5091
▁yurmo	-5092
▁anndii	-5093
▁woniri	-5094
▁ɓiyiiko	-5095
hee	-5096
mun	-5097
ɲum	-5098
ooso	-5099
▁seŋ	-5100
daagu	-5101
leydi	-5102
toyii	-5103
ɗorɗe	-5104
▁kure	-5105
anngoo	-5106
▁kelle	-5107
▁wayde	-5108
▁conndi	-5109
▁jaayndi	-5110
▁laaɓtunde	-5111
▁Jaafatooɗo	-5112
▁Ki	-5113
▁191	-5114
iniino	-5115
▁hisnude	-5116
▁keddiiɗi	-5117
ord	-5118
iyyu	-5119
▁Abb	-5120
abilon	-5121
▁Share	-5122
▁bonɗi	-5123
▁fellit	-5124
▁yontii	-5125
▁manndaa	-5126
▁waɗande	-5127
▁meeɗaani	-5128
▁kalifaandi	-5129
pol	-5130
▁ñe	-5131
cien	-5132
▁dogi	-5133
▁ɗeɓi	-5134
▁2013,	-5135
▁mbari	-5136
▁musiiba	-5137
▁Nguurndam	-5138
▁Palestiin	-5139
MA	-5140
pul	-5141
▁Jel	-5142
▁Tii	-5143
▁jus	-5144
oktor	-5145
rewol	-5146
▁adda	-5147
▁Israa	-5148
▁yanii	-5149
▁yimre	-5150
▁Elimaan	-5151
▁Faatumata	-5152
ayɓe	-5153
iwal	-5154
▁Eji	-5155
▁Fuɗ	-5156
▁cuɗ	-5157
▁hur	-5158
▁hers	-5159
anaama	-5160
ndugol	-5161
▁fetel	-5162
▁maako	-5163
▁waɗtii	-5164
idi	-5165
sir	-5166
▁(4	-5167
▁ru	-5168
oton	-5169
▁Etas	-5170
anooɗi	-5171
▁tiiɗde	-5172
▁Etasoni	-5173
▁yiilirde	-5174
▁hojomaaji	-5175
our	-5176
▁At	-5177
▁Kab	-5178
▁Yon	-5179
▁cay	-5180
▁doŋ	-5181
▁sujj	-5182
inndere	-5183
▁Huunde	-5184
▁tiindii	-5185
▁Aarabeeɓe	-5186
▁kelmeendi	-5187
ner	-5188
omo	-5189
insi	-5190
dooje	-5191
▁Jokk	-5192
▁ngit	-5193
▁Minen	-5194
▁nawde	-5195
aaruuji	-5196
▁Babilon	-5197
▁ɓurngal	-5198
▁Haamiidu	-5199
▁haanirta	-5200
▁politique	-5201
------------	-5202
▁New	-5203
▁aset	-5204
▁nees	-5205
▁Kaaba	-5206
▁winnder	-5207
▁wiyooɓe	-5208
▁yahrude	-5209
▁mooɓondiral	-5210
su	-5211
hono	-5212
usal	-5213
▁Hir	-5214
▁Lik	-5215
▁ces	-5216
toyde	-5217
▁haaɗ	-5218
irooɓe	-5219
▁balle	-5220
▁njipp	-5221
acebook	-5222
▁Goonga	-5223
▁jeynge	-5224
▁Karallo	-5225
▁Burkinaa	-5226
▁rawaandu	-5227
▁hakkilantaagal	-5228
fde	-5229
onel	-5230
▁keb	-5231
▁ɗoy	-5232
▁dewal	-5233
▁hayso	-5234
▁Heewɓe	-5235
▁weendu	-5236
▁nayeejo	-5237
▁partiiji	-5238
ore	-5239
mbre	-5240
▁été	-5241
▁mbal	-5242
▁vous	-5243
▁ɓenn	-5244
▁Siree	-5245
▁liɗɗi	-5246
ministr	-5247
▁laamii	-5248
▁Quraana	-5249
▁wooturu	-5250
▁Tigirigi	-5251
▁hollirde	-5252
▁depiteeji	-5253
▁desaambar	-5254
▁jeereende	-5255
▁njuuteendi	-5256
▁ngenndiyanke	-5257
ɗɗ	-5258
tane	-5259
▁Ter	-5260
velopp	-5261
▁yahdi	-5262
▁yoɓde	-5263
indaade	-5264
▁Bamako	-5265
▁Gunaas	-5266
▁Ngaawe	-5267
▁yahnoo	-5268
▁banngeeji	-5269
RI	-5270
yd	-5271
beer	-5272
▁Pod	-5273
dooɓe	-5274
tions	-5275
▁Riis	-5276
▁njen	-5277
▁prés	-5278
▁teɓɓ	-5279
▁haŋki	-5280
▁masiŋ	-5281
▁yande	-5282
▁ɓurde	-5283
▁Arafaat	-5284
▁Barooɓe	-5285
▁woɗɗude	-5286
emmbolinɗo	-5287
▁jokkondirde	-5288
iyu	-5289
ɓre	-5290
▁Mes	-5291
▁caaɗ	-5292
▁jill	-5293
▁komin	-5294
▁ɓurti	-5295
▁kuwtor	-5296
▁njokki	-5297
▁Pulaaku	-5298
▁ɓeydaade	-5299
▁kaalisaaji	-5300
oi	-5301
ond	-5302
ser	-5303
wel	-5304
▁ana	-5305
▁daña	-5306
▁deux	-5307
▁meer	-5308
ɗingol	-5309
▁Tomaa	-5310
anteeri	-5311
▁noddude	-5312
▁winndaa	-5313
▁ɓeydude	-5314
ses	-5315
▁lat	-5316
tinaani	-5317
▁heedde	-5318
▁mawnii	-5319
▁kumpital	-5320
woni	-5321
▁Dew	-5322
▁Ses	-5323
▁Paam	-5324
▁walli	-5325
▁Heddii	-5326
▁asakal	-5327
▁mahngo	-5328
▁jinneeji	-5329
▁kaawniiɗe	-5330
▁52	-5331
▁Rewɓe	-5332
▁duuɗe	-5333
▁juutde	-5334
▁lamɗam	-5335
▁limoore	-5336
ñi	-5337
bak	-5338
ñal	-5339
oomi	-5340
▁Cal	-5341
▁cow	-5342
▁gaar	-5343
▁joor	-5344
▁mbee	-5345
▁taƴi	-5346
▁Musta	-5347
▁hulɓe	-5348
▁kaɲum	-5349
▁lommb	-5350
versité	-5351
▁fewndo	-5352
▁heewnoo	-5353
▁ngolɗoo	-5354
▁njeñtudi	-5355
▁ngannduɗaa	-5356
▁binnditagol	-5357
jere	-5358
▁Has	-5359
▁Ngu	-5360
▁cog	-5361
▁ked	-5362
toore	-5363
▁Arɗo	-5364
▁daab	-5365
▁peññ	-5366
▁meeɗi	-5367
toraade	-5368
▁Farays	-5369
▁woodno	-5370
aɗi	-5371
▁(3	-5372
▁cum	-5373
▁Batu	-5374
▁jeye	-5375
▁mbat	-5376
▁soof	-5377
iniiɗo	-5378
ndiima	-5379
▁Diiso	-5380
▁Seydi	-5381
▁innir	-5382
▁njaab	-5383
▁Doktoor	-5384
▁ciftora	-5385
▁waawaano	-5386
▁kuuɓtodin	-5387
▁we	-5388
eria	-5389
▁itta	-5390
▁resi	-5391
▁dummb	-5392
▁jannga	-5393
▁fijirde	-5394
▁naalankooɓe	-5395
▁و	-5396
▁CE	-5397
diis	-5398
eera	-5399
▁mat	-5400
onomi	-5401
▁dowl	-5402
▁kulɓ	-5403
iyeeji	-5404
umaaji	-5405
▁masla	-5406
eteendi	-5407
fulfulde	-5408
▁ɗiɗmere	-5409
ote	-5410
▁00	-5411
▁htt	-5412
▁jel	-5413
▁luɓ	-5414
naare	-5415
▁Seyku	-5416
▁ndañii	-5417
▁noddii	-5418
tondiral	-5419
▁njejjit	-5420
▁Lislaamu	-5421
IS	-5422
bam	-5423
uno	-5424
MJKM	-5425
oyta	-5426
▁Bas	-5427
▁Mii	-5428
▁Baro	-5429
▁ŋabb	-5430
▁Daado	-5431
▁Tuggi	-5432
▁gasii	-5433
▁hurum	-5434
▁naamno	-5435
▁kareeli	-5436
▁njaltin	-5437
19	-5438
tim	-5439
▁Lu	-5440
▁Bil	-5441
▁hew	-5442
▁toɓ	-5443
aamee	-5444
naama	-5445
▁saabi	-5446
▁seere	-5447
ondirta	-5448
▁Abbaas	-5449
▁jippii	-5450
▁tinndi	-5451
ɓondiral	-5452
▁yiyaani	-5453
▁haajuuji	-5454
▁mbaroodi	-5455
▁jaambareeɓe	-5456
akku	-5457
goll	-5458
kude	-5459
▁heñ	-5460
▁yew	-5461
▁ɗan	-5462
baaji	-5463
danaa	-5464
▁Taar	-5465
▁keɓe	-5466
▁hujja	-5467
▁jimol	-5468
▁naala	-5469
▁rewaani	-5470
▁yeruuji	-5471
▁Ɓuraana	-5472
▁ɓuraani	-5473
▁ɗerewol	-5474
▁Hitaande	-5475
▁yettiima	-5476
▁Faandaare	-5477
oñ	-5478
▁Dak	-5479
▁hirj	-5480
ondirɗe	-5481
▁yeewti	-5482
▁cukaagu	-5483
▁keewnoo	-5484
alfinaaɗo	-5485
▁haaleede	-5486
▁jotondiral	-5487
En	-5488
els	-5489
▁ht	-5490
____	-5491
▁Esk	-5492
▁Mon	-5493
▁Naj	-5494
▁sud	-5495
aawna	-5496
eehey	-5497
ɗaaji	-5498
▁toln	-5499
▁sunna	-5500
▁ñemmb	-5501
teruuji	-5502
▁toppit	-5503
MI	-5504
pal	-5505
▁Ba	-5506
fuɓe	-5507
▁seh	-5508
ajooji	-5509
awuuji	-5510
uɓɓudi	-5511
▁wanaa	-5512
▁ɓeyda	-5513
▁gootum	-5514
▁janngii	-5515
▁renndini	-5516
amo	-5517
kam	-5518
koy	-5519
▁65	-5520
ggal	-5521
muna	-5522
oyoo	-5523
▁los	-5524
▁SNIM	-5525
▁Yoga	-5526
▁saɗi	-5527
▁keɓat	-5528
▁kulee	-5529
▁njiyl	-5530
▁jaynge	-5531
▁weltii	-5532
▁wiyatee	-5533
▁yahdude	-5534
10	-5535
▁2-	-5536
▁af	-5537
endi	-5538
▁wara	-5539
▁tawat	-5540
▁Podoor	-5541
▁nanndu	-5542
▁ngadii	-5543
▁jogiiɓe	-5544
▁ndunngu	-5545
▁suɓaade	-5546
▁nganndir	-5547
ér	-5548
akdi	-5549
▁Pro	-5550
▁kuɗ	-5551
▁oor	-5552
▁woƴ	-5553
aafal	-5554
▁Sule	-5555
▁gagg	-5556
▁yooɗ	-5557
▁moolan	-5558
▁tuugnaade	-5559
200	-5560
bol	-5561
eewo	-5562
▁Sab	-5563
▁boy	-5564
▁njooɓ	-5565
yankooje	-5566
▁huɓeere	-5567
▁jowitiiɗe	-5568
App	-5569
▁Aa	-5570
▁Tr	-5571
eewa	-5572
iste	-5573
▁Naf	-5574
▁Sil	-5575
▁bew	-5576
agadu	-5577
niiɗo	-5578
tital	-5579
▁hina	-5580
▁huli	-5581
▁njon	-5582
▁somp	-5583
abuuji	-5584
pitaal	-5585
vertis	-5586
▁droit	-5587
▁finaa	-5588
▁fuuta	-5589
▁ndewa	-5590
▁ƴeewi	-5591
aayodin	-5592
▁toowɗe	-5593
▁Mariyam	-5594
▁yiyeede	-5595
▁Facebook	-5596
▁politigi	-5597
▁nationale	-5598
▁neɗɗaagal	-5599
Ar	-5600
kil	-5601
dant	-5602
duɗe	-5603
owte	-5604
Ɗuum	-5605
▁ɓiɗ	-5606
▁Nokku	-5607
▁jumaa	-5608
▁njibin	-5609
▁Muhammad	-5610
▁hiirnaange	-5611
com	-5612
▁54	-5613
▁haf	-5614
dinoo	-5615
embre	-5616
nooje	-5617
▁koni	-5618
iraani	-5619
partaa	-5620
tatnoo	-5621
▁Ngaal	-5622
daneeɓe	-5623
▁Daande	-5624
▁Jiinge	-5625
▁fooyre	-5626
▁liingu	-5627
▁Yerusal	-5628
▁Advertis	-5629
▁bonaande	-5630
▁paayodin	-5631
▁53	-5632
▁NG	-5633
▁fut	-5634
▁lah	-5635
▁yahr	-5636
▁Parti	-5637
▁mahdi	-5638
▁dokkal	-5639
▁etaade	-5640
▁gaddan	-5641
▁mawndi	-5642
▁ordinat	-5643
▁mbiyetee	-5644
eec	-5645
ler	-5646
pti	-5647
▁68	-5648
▁Pr	-5649
Miin	-5650
▁2007	-5651
▁Firo	-5652
▁Tumm	-5653
▁lill	-5654
▁pouv	-5655
▁sipp	-5656
▁syst	-5657
▁Rooso	-5658
▁suwaa	-5659
▁wallu	-5660
▁maanaa	-5661
▁ɓooyde	-5662
▁almudɓe	-5663
▁yuɓɓinii	-5664
▁Ameriknaaɓe	-5665
év	-5666
tag	-5667
uve	-5668
▁Fer	-5669
▁Winnd	-5670
▁ndewee	-5671
▁haalani	-5672
▁jooɗaade	-5673
aaƴ	-5674
aux	-5675
eso	-5676
ret	-5677
▁57	-5678
ggere	-5679
▁sarɗ	-5680
▁Jeeri	-5681
▁Woodi	-5682
▁potɗo	-5683
▁premi	-5684
▁yetti	-5685
tinooma	-5686
▁Bahbah	-5687
▁gunaas	-5688
▁yarlit	-5689
▁Alaseri	-5690
▁Kajjata	-5691
▁ɓennuɗi	-5692
▁keeriiɗe	-5693
▁Advertisements	-5694
▁59	-5695
deer	-5696
usey	-5697
▁Sim	-5698
▁tro	-5699
▁ndef	-5700
▁Tuuba	-5701
▁lasli	-5702
▁lomtin	-5703
▁ngaynaaka	-5704
aro	-5705
met	-5706
▁Jee	-5707
▁Kañ	-5708
▁kibb	-5709
▁même	-5710
▁newn	-5711
▁piil	-5712
▁être	-5713
alaata	-5714
ndoore	-5715
▁Ngati	-5716
▁Sesar	-5717
▁bommb	-5718
▁waade	-5719
▁heɓaani	-5720
▁keneeli	-5721
▁wasiyaaji	-5722
▁wertaango	-5723
aahu	-5724
inen	-5725
▁Tab	-5726
▁bey	-5727
▁Ɓes	-5728
▁Irak	-5729
▁dame	-5730
▁njuu	-5731
aniima	-5732
▁garal	-5733
ummbere	-5734
▁wiynoo	-5735
▁bonnude	-5736
▁gelooɗi	-5737
?"	-5738
jaa	-5739
kewe	-5740
tori	-5741
ammba	-5742
anngo	-5743
looji	-5744
▁Jeer	-5745
▁Seer	-5746
▁diff	-5747
▁form	-5748
▁paab	-5749
▁ɗemɗ	-5750
▁Innde	-5751
▁roŋki	-5752
▁yooɗi	-5753
▁leepte	-5754
▁njiɗaa	-5755
▁Dentuɗe	-5756
▁addanii	-5757
▁saaysay	-5758
▁Sooninke	-5759
▁jeeyngal	-5760
▁yottiima	-5761
▁goongɗinɗo	-5762
AO	-5763
Le	-5764
pi	-5765
aire	-5766
▁ful	-5767
ɗunde	-5768
▁ɓami	-5769
Ceerno	-5770
itaire	-5771
tirgol	-5772
▁yalta	-5773
▁UNESCO	-5774
▁wonataa	-5775
▁mbaawnoo	-5776
9)	-5777
jja	-5778
▁Amin	-5779
▁Ngar	-5780
▁Kalif	-5781
▁ɓoggi	-5782
▁Wagadu	-5783
▁ceerti	-5784
▁mawngo	-5785
▁sagata	-5786
▁wiɗtude	-5787
▁jikkuuji	-5788
▁njettoor	-5789
hal	-5790
appa	-5791
cole	-5792
nuɗo	-5793
▁Nou	-5794
taaɗi	-5795
▁Tigi	-5796
▁maam	-5797
▁ngaa	-5798
▁ƴeeŋ	-5799
▁Hajji	-5800
▁Maali	-5801
▁ndool	-5802
▁tagɗo	-5803
▁Yaayaa	-5804
▁tuugii	-5805
▁linguis	-5806
▁cappanɗe	-5807
▁haaldude	-5808
cer	-5809
liis	-5810
stan	-5811
▁taa	-5812
▁tir	-5813
nirɗe	-5814
nunoo	-5815
▁bayl	-5816
▁géné	-5817
▁koor	-5818
▁mahi	-5819
▁mais	-5820
ndunoo	-5821
▁Hedde	-5822
▁Sayku	-5823
▁hasii	-5824
▁heɓti	-5825
▁hiisa	-5826
▁paami	-5827
▁yeddi	-5828
▁Sudaan	-5829
▁haalaa	-5830
▁hoddir	-5831
▁jippin	-5832
▁telefoŋ	-5833
▁waɗooɓe	-5834
▁Seneraal	-5835
▁njaaraama	-5836
▁Anngalteernaaɓe	-5837
iid	-5838
▁Hor	-5839
▁bet	-5840
▁korm	-5841
▁seek	-5842
▁fuɗɗo	-5843
▁pijir	-5844
▁yahri	-5845
▁cuurki	-5846
▁Dentuɗi	-5847
▁Konngol	-5848
▁Leyɗeele	-5849
▁ɓeydiima	-5850
▁tawtoraama	-5851
Ma	-5852
aafe	-5853
▁ƴam	-5854
laamu	-5855
▁mbaa	-5856
▁ɗiɗm	-5857
▁2008,	-5858
▁kuuge	-5859
▁ciimti	-5860
▁kullon	-5861
▁naatni	-5862
▁ñaawde	-5863
▁wontude	-5864
▁hiisiwal	-5865
▁------------	-5866
//	-5867
gar	-5868
roŋ	-5869
▁ɓi	-5870
▁186	-5871
▁Kaŋ	-5872
tidin	-5873
▁jalb	-5874
▁Amadu	-5875
▁gadii	-5876
▁minis	-5877
▁Kuuɓal	-5878
▁heɓtin	-5879
▁ɓoggol	-5880
▁hoɗorde	-5881
veloppement	-5882
kr	-5883
feer	-5884
▁Dan	-5885
▁Pur	-5886
▁ɓor	-5887
ktaar	-5888
sions	-5889
▁Ciim	-5890
▁Fotde	-5891
▁Riisi	-5892
▁hokki	-5893
▁njoof	-5894
▁cuuɗii	-5895
▁jiiɓru	-5896
▁laaɓɗo	-5897
▁werlaa	-5898
▁yooɗde	-5899
▁Maleyka	-5900
▁Naniraa	-5901
▁batuuji	-5902
▁subalɓe	-5903
▁ɗereeji	-5904
▁mawninde	-5905
▁ñaawoowo	-5906
▁seerndude	-5907
▁tabitinde	-5908
▁goongɗinde	-5909
8)	-5910
NG	-5911
abe	-5912
sil	-5913
ndin	-5914
▁haɗa	-5915
▁huur	-5916
▁kann	-5917
▁koɗi	-5918
▁mari	-5919
▁paɗe	-5920
▁jokku	-5921
▁neema	-5922
▁ustude	-5923
▁artirde	-5924
▁moƴƴuɓe	-5925
▁diineeji	-5926
▁goongɗini	-5927
EE	-5928
vo	-5929
▁58	-5930
▁AL	-5931
▁Las	-5932
▁Mbo	-5933
▁moy	-5934
gaaji	-5935
▁1980	-5936
▁Faso	-5937
▁Naaj	-5938
anaani	-5939
atenoo	-5940
▁geɗel	-5941
▁njedd	-5942
▁ngonaani	-5943
▁sosiyatee	-5944
▁ballondiral	-5945
://	-5946
lan	-5947
▁75	-5948
▁Dog	-5949
▁Tur	-5950
▁Maar	-5951
eriyaa	-5952
▁cikki	-5953
▁ngaska	-5954
▁dañaani	-5955
▁mettere	-5956
▁Ñalawma	-5957
▁fuɗɗorii	-5958
▁waawataa	-5959
▁internation	-5960
CE	-5961
RA	-5962
ŋƴ	-5963
imi	-5964
ris	-5965
▁190	-5966
▁Aɓe	-5967
▁bas	-5968
▁mot	-5969
▁pes	-5970
▁peŋ	-5971
▁ses	-5972
cteur	-5973
uduur	-5974
▁Jaab	-5975
▁Ngel	-5976
▁caab	-5977
▁Ganaa	-5978
▁dañal	-5979
▁hatoj	-5980
▁sirlu	-5981
▁Ibliis	-5982
▁diɗɗal	-5983
▁njurum	-5984
▁sikkaa	-5985
▁tufnde	-5986
▁pelliti	-5987
▁jaabawol	-5988
▁mbaɗaani	-5989
▁mbeleema	-5990
▁laamaandi	-5991
TA	-5992
tra	-5993
war	-5994
▁Th	-5995
...”	-5996
amad	-5997
soci	-5998
▁nof	-5999
▁wot	-6000
aahal	-6001
▁kuli	-6002
▁woon	-6003
amaanu	-6004
itiino	-6005
▁Saali	-6006
▁hoɗde	-6007
▁kaaɗi	-6008
▁woyndu	-6009
▁ƴeewii	-6010
▁jannguɓe	-6011
▁seppooji	-6012
▁daraniiɓe	-6013
’:	-6014
cul	-6015
▁1)	-6016
▁64	-6017
▁ra	-6018
aawa	-6019
miin	-6020
olon	-6021
yaŋk	-6022
▁Ber	-6023
▁Dim	-6024
▁éta	-6025
▁saha	-6026
▁ɗakk	-6027
▁Misir	-6028
▁dowri	-6029
▁maggu	-6030
▁ruuhu	-6031
▁Annduɓe	-6032
▁mbaɗnoo	-6033
▁janngini	-6034
▁ɗaɓɓaande	-6035
▁humpitaade	-6036
▁Cemmbolinɗo	-6037
▁muritaninaaɓe	-6038
oti	-6039
▁fr	-6040
aysi	-6041
▁Yor	-6042
▁leñ	-6043
uulde	-6044
▁1990	-6045
▁Oɗon	-6046
▁Yeew	-6047
▁aaya	-6048
▁sarw	-6049
▁becce	-6050
▁faami	-6051
▁makki	-6052
▁sarde	-6053
▁wiide	-6054
▁heewii	-6055
▁koyɗol	-6056
Nde	-6057
ayi	-6058
dis	-6059
non	-6060
wee	-6061
yii	-6062
▁mé	-6063
▁Bis	-6064
▁Kis	-6065
▁liɓ	-6066
tiraa	-6067
énégal	-6068
▁Haala	-6069
▁Obama	-6070
▁Worgo	-6071
▁baɗte	-6072
▁jinne	-6073
▁njogi	-6074
ondirɗi	-6075
▁anndin	-6076
▁cuusal	-6077
▁feewɓe	-6078
▁waɗtan	-6079
▁jaambur	-6080
▁nafataa	-6081
▁nanataa	-6082
▁Seyɗaane	-6083
▁ñawndude	-6084
▁mbaɗatnoo	-6085
▁ñenngotooɗo	-6086
gn	-6087
ggu	-6088
atik	-6089
kuur	-6090
ɗiɗo	-6091
▁Gam	-6092
▁tem	-6093
ateur	-6094
daaɓe	-6095
dataa	-6096
▁rigi	-6097
aɗeele	-6098
▁Ruuhu	-6099
▁jonte	-6100
▁winnda	-6101
cro	-6102
▁UPR	-6103
▁dev	-6104
naaɗe	-6105
▁ngun	-6106
itaaji	-6107
▁2014,	-6108
▁faarn	-6109
▁Ndennd	-6110
▁jarrib	-6111
▁paamii	-6112
▁tuundi	-6113
▁fitirla	-6114
▁woɗeeɓe	-6115
▁Mohammad	-6116
▁yettoode	-6117
▁ɓeydagol	-6118
25	-6119
ait	-6120
sar	-6121
eeno	-6122
▁War	-6123
▁dor	-6124
danoo	-6125
▁Fira	-6126
▁teet	-6127
▁ɗiɗe	-6128
anaaka	-6129
▁lomto	-6130
▁mbabba	-6131
▁ndutto	-6132
’,	-6133
moo	-6134
one	-6135
aaya	-6136
aayi	-6137
cher	-6138
kala	-6139
▁Bun	-6140
▁Jul	-6141
▁Njo	-6142
▁Woo	-6143
▁oog	-6144
▁Wood	-6145
▁lowe	-6146
▁pers	-6147
▁ɓeto	-6148
▁reeni	-6149
▁tesko	-6150
Simoore	-6151
anteeɓe	-6152
▁guurɗo	-6153
▁kewnoo	-6154
▁sakkit	-6155
▁yaafoo	-6156
▁Mediina	-6157
▁alkulal	-6158
▁jeyngol	-6159
▁tokooso	-6160
▁daraniiɗe	-6161
▁humambinn	-6162
▁pattamlam	-6163
▁reentaade	-6164
▁jibinannde	-6165
cto	-6166
hol	-6167
▁Ci	-6168
▁fota	-6169
▁ƴell	-6170
▁Feere	-6171
partaayd	-6172
▁waɗaama	-6173
aaŋ	-6174
cal	-6175
▁vi	-6176
ente	-6177
jann	-6178
oɗɓe	-6179
▁Ena	-6180
▁Abel	-6181
▁Gise	-6182
▁coom	-6183
▁tout	-6184
aninoo	-6185
annden	-6186
▁Sheek	-6187
▁joofi	-6188
▁joomi	-6189
▁potɗe	-6190
▁yaaji	-6191
▁ɗamin	-6192
ddiwaar	-6193
▁hollii	-6194
▁muusɗe	-6195
anndaaji	-6196
▁arnooɓe	-6197
▁firtude	-6198
▁garooje	-6199
▁seerndi	-6200
▁neeniwal	-6201
▁mbinndiin	-6202
dou	-6203
elee	-6204
▁Alf	-6205
▁Sor	-6206
▁bag	-6207
nataa	-6208
▁sapp	-6209
▁kayre	-6210
▁keeci	-6211
▁mboom	-6212
▁nawaa	-6213
▁pawii	-6214
▁gollii	-6215
▁eɓɓoore	-6216
▁Winndere	-6217
As	-6218
elam	-6219
▁Boy	-6220
▁Wal	-6221
▁gum	-6222
▁keñ	-6223
▁org	-6224
▁kiir	-6225
▁toɓɓ	-6226
▁taƴde	-6227
▁totta	-6228
▁ɓurii	-6229
▁amerik	-6230
▁duwaaw	-6231
▁kaawis	-6232
▁kewkewe	-6233
▁njottii	-6234
▁laaɓtuɗo	-6235
▁nanondir	-6236
▁ruttaade	-6237
▁yejjitde	-6238
▁yottaade	-6239
▁Faatimata	-6240
▁naamnaade	-6241
▁ujunnaaji	-6242
▁bayyinaango	-6243
▁ɓanndiraaɓe	-6244
ai	-6245
ance	-6246
▁heƴ	-6247
▁Fran	-6248
▁Kaaw	-6249
▁kabr	-6250
▁nawa	-6251
aruuji	-6252
elaaji	-6253
▁coggu	-6254
▁halfin	-6255
▁heɓtii	-6256
▁janngina	-6257
▁kiloomeeteer	-6258
ih	-6259
▁63	-6260
iyas	-6261
orɗi	-6262
▁Nis	-6263
▁cil	-6264
▁pla	-6265
▁pus	-6266
▁uur	-6267
▁guri	-6268
▁ngan	-6269
▁njaŋ	-6270
▁tous	-6271
▁yarl	-6272
eteeɗi	-6273
▁darja	-6274
ereceen	-6275
tinooje	-6276
▁timmin	-6277
▁yummum	-6278
▁Jeliyaa	-6279
▁geseele	-6280
▁ngannda	-6281
▁Tummbere	-6282
▁ñaawooje	-6283
▁binndaaɗe	-6284
▁jokkondire	-6285
iyon	-6286
▁caw	-6287
▁kamp	-6288
aakiri	-6289
yaagal	-6290
▁leñam	-6291
▁waawii	-6292
▁Nigeria	-6293
▁neldude	-6294
▁talaata	-6295
▁waɗatnoo	-6296
wu	-6297
▁Dé	-6298
aand	-6299
aawi	-6300
saan	-6301
▁600	-6302
▁bam	-6303
niiɓe	-6304
▁htnd	-6305
▁rewa	-6306
▁April	-6307
▁ɓakdi	-6308
dinooɓe	-6309
▁Atensa	-6310
▁kesiri	-6311
▁udditi	-6312
▁waawɓe	-6313
▁haŋkadi	-6314
▁naamnde	-6315
▁ownooɓe	-6316
▁toownde	-6317
▁haalaani	-6318
▁jammaaji	-6319
▁yontaaɓe	-6320
▁alkamiisa	-6321
▁noddaango	-6322
ahe	-6323
aya	-6324
▁61	-6325
anɓe	-6326
▁Dii	-6327
▁Loo	-6328
▁aam	-6329
▁ten	-6330
▁ɓaŋ	-6331
intaa	-6332
ition	-6333
tundi	-6334
▁lobb	-6335
anndar	-6336
▁wonduɓe	-6337
▁haalande	-6338
▁kaaɗtudi	-6339
▁reenooɓe	-6340
FP	-6341
bii	-6342
mon	-6343
ula	-6344
▁89	-6345
arba	-6346
orɓe	-6347
▁Ama	-6348
▁and	-6349
▁tal	-6350
ambon	-6351
anooki	-6352
niindi	-6353
▁dokke	-6354
▁Doosɗe	-6355
▁araani	-6356
▁kawtal	-6357
▁ɓooyɗo	-6358
▁communa	-6359
▁ngaandi	-6360
▁keewaani	-6361
▁meeɗaano	-6362
▁yaakaare	-6363
▁janngirɗe	-6364
▁Naajeeriya	-6365
َّ	-6366
saa	-6367
▁het	-6368
▁fiyaa	-6369
▁jikke	-6370
dunooɓe	-6371
▁njaati	-6372
▁Saharaa	-6373
▁safrude	-6374
▁tiiɗnde	-6375
▁siftinde	-6376
ól	-6377
ame	-6378
▁66	-6379
ŋeeji	-6380
▁Keer	-6381
▁ceeɓ	-6382
▁cujj	-6383
▁happ	-6384
▁leln	-6385
▁prop	-6386
▁Ñaab	-6387
▁cooyn	-6388
▁ummor	-6389
▁ngonno	-6390
▁njeddi	-6391
▁offici	-6392
cungaagu	-6393
▁pouvoir	-6394
▁tonngol	-6395
▁Seyɗanne	-6396
▁kibbital	-6397
▁Tummbuktu	-6398
▁ŋakkeende	-6399
ewal	-6400
▁Idr	-6401
▁hey	-6402
▁yir	-6403
daaki	-6404
▁1000	-6405
▁Guur	-6406
▁colli	-6407
▁hajju	-6408
▁waali	-6409
▁punndi	-6410
▁rajooji	-6411
▁Njuɓɓudi	-6412
▁funnaange	-6413
▁Ø	-6414
ime	-6415
uld	-6416
▁Ec	-6417
kkii	-6418
onaa	-6419
▁Gas	-6420
annoo	-6421
▁emin	-6422
▁jari	-6423
▁ndem	-6424
▁puŋŋ	-6425
▁waañ	-6426
▁ƴiye	-6427
▁belɗo	-6428
▁goobu	-6429
▁tamar	-6430
tinoowo	-6431
▁kuuraa	-6432
▁heblude	-6433
▁meeteer	-6434
▁ummanii	-6435
▁anndinde	-6436
▁ñaawooɓe	-6437
▁cikkatnoo	-6438
▁desammbar	-6439
▁haaɗtirde	-6440
▁ngardiigu	-6441
▁culturelles	-6442
lde	-6443
▁Ré	-6444
▁Gaw	-6445
▁Wat	-6446
▁ɓaw	-6447
▁añam	-6448
▁farl	-6449
▁jogo	-6450
iniiɓe	-6451
▁fotɓe	-6452
▁ittaa	-6453
▁kuɓɓam	-6454
▁yaltii	-6455
▁raneeɓe	-6456
▁ummoriiɓe	-6457
▁Kalfinaaɗo	-6458
12	-6459
ENI	-6460
tde	-6461
uka	-6462
ɗle	-6463
▁!”	-6464
▁Dr	-6465
▁lu	-6466
▁Ibn	-6467
▁Kas	-6468
▁Sag	-6469
▁feŋ	-6470
▁wum	-6471
ember	-6472
hedde	-6473
▁gost	-6474
▁kewi	-6475
Buduur	-6476
▁Hikka	-6477
▁Persa	-6478
▁ndaña	-6479
▁pooli	-6480
▁yerɓo	-6481
▁keɓtin	-6482
▁woodii	-6483
▁funeeɓe	-6484
▁ngartam	-6485
▁jamanuuji	-6486
▁tuubakiri	-6487
▁liggotooɓe	-6488
th	-6489
eem	-6490
ger	-6491
sal	-6492
ɗem	-6493
▁2)	-6494
▁74	-6495
▁Em	-6496
ehre	-6497
ƴere	-6498
▁Saa	-6499
▁Sun	-6500
reede	-6501
▁Jaaw	-6502
▁Waali	-6503
▁takko	-6504
▁woɓɓe	-6505
▁heɓata	-6506
▁karallo	-6507
▁ngartii	-6508
▁woodanii	-6509
UU	-6510
ils	-6511
hats	-6512
oowe	-6513
▁Bam	-6514
▁Lag	-6515
▁Wan	-6516
▁cun	-6517
ortee	-6518
ɗaaki	-6519
▁Jall	-6520
▁Mbar	-6521
▁harm	-6522
▁Hayso	-6523
▁Jamma	-6524
▁ainsi	-6525
▁gayni	-6526
▁ngoow	-6527
▁njani	-6528
▁yarde	-6529
▁yawti	-6530
▁hoorde	-6531
▁mawndu	-6532
▁tiiɗɗe	-6533
▁système	-6534
▁hoɗdiiɓe	-6535
▁laataade	-6536
▁ngonaano	-6537
▁pijirlooji	-6538
ree	-6539
▁len	-6540
▁Aliw	-6541
▁harb	-6542
▁wune	-6543
▁ƴiiw	-6544
atojin	-6545
▁geese	-6546
▁njoyo	-6547
▁waylo	-6548
▁heɗaade	-6549
▁tawiino	-6550
▁eeraango	-6551
▁seertude	-6552
▁wiyeteengo	-6553
EL	-6554
▁Ja	-6555
▁RF	-6556
▁ob	-6557
ayel	-6558
voir	-6559
égro	-6560
▁Mad	-6561
▁Mba	-6562
▁keɗ	-6563
▁wos	-6564
▁Deen	-6565
▁Macc	-6566
▁Meer	-6567
▁jaaƴ	-6568
▁loot	-6569
▁nguy	-6570
▁ƴooŋ	-6571
▁fowru	-6572
▁taƴre	-6573
▁yonti	-6574
▁ɓamti	-6575
empeƴƴe	-6576
irlaaɓe	-6577
▁Farans	-6578
▁alɗuɓe	-6579
▁ngaddi	-6580
▁njimri	-6581
▁Linjiil	-6582
▁Muritan	-6583
▁yettude	-6584
▁Ngenndii	-6585
▁firtaani	-6586
▁toppitaade	-6587
▁(6	-6588
▁79	-6589
iris	-6590
▁dannd	-6591
▁sosde	-6592
▁cosgol	-6593
▁Tijjaan	-6594
▁winndiyanke	-6595
ctu	-6596
fee	-6597
fii	-6598
yon	-6599
▁Da	-6600
uule	-6601
▁Buk	-6602
▁bor	-6603
▁wil	-6604
bunde	-6605
forme	-6606
irtaa	-6607
▁clas	-6608
▁wono	-6609
datnoo	-6610
otooɗi	-6611
▁Defte	-6612
▁Refti	-6613
▁fawde	-6614
▁hawra	-6615
▁holla	-6616
▁jiyɗe	-6617
▁jogoo	-6618
▁leurs	-6619
oogirde	-6620
▁daarti	-6621
▁njahii	-6622
▁toutes	-6623
▁Doosgal	-6624
▁nanngaa	-6625
▁enternet	-6626
▁puɗɗiima	-6627
▁sanɗaaji	-6628
▁seeraani	-6629
▁yummiraaɓe	-6630
inɓe	-6631
iyal	-6632
ngar	-6633
oowu	-6634
teno	-6635
uumo	-6636
▁Jin	-6637
▁dak	-6638
▁ɗeɓ	-6639
duuɓi	-6640
▁Gure	-6641
▁timma	-6642
▁warii	-6643
otoonde	-6644
▁puɗɗor	-6645
▁gannduɗo	-6646
▁jaabaade	-6647
cé	-6648
ib	-6649
óó	-6650
abo	-6651
anu	-6652
kel	-6653
▁67	-6654
Woto	-6655
aamu	-6656
▁Cil	-6657
▁Dum	-6658
▁jik	-6659
ogere	-6660
▁Galo	-6661
▁puuy	-6662
▁ɗaay	-6663
ndooji	-6664
▁Miɗen	-6665
▁Pappa	-6666
dateeɓe	-6667
▁Laawol	-6668
▁Jaaynde	-6669
▁dariima	-6670
▁gadanol	-6671
▁gooŋɗin	-6672
▁moƴƴiri	-6673
▁penaale	-6674
▁Baabaaɓe	-6675
▁sababuuji	-6676
▁saaysayeeɓe	-6677
▁71	-6678
▁Or	-6679
▁ur	-6680
▁192	-6681
▁Sif	-6682
▁Sow	-6683
▁cir	-6684
▁fas	-6685
▁oya	-6686
teeje	-6687
tiigu	-6688
ungol	-6689
▁sosi	-6690
▁Paris	-6691
▁resde	-6692
▁wayɓe	-6693
▁ɓayri	-6694
▁kaaɗdi	-6695
▁welsin	-6696
▁mbaɗtii	-6697
▁timmuɗo	-6698
▁ɓoornii	-6699
▁hoɗnooɓe	-6700
▁maslahaa	-6701
▁wonndude	-6702
▁Buh	-6703
▁Mak	-6704
▁Neh	-6705
▁awo	-6706
▁bun	-6707
▁fur	-6708
boore	-6709
ñcuru	-6710
▁leep	-6711
ateeɓe	-6712
▁2012,	-6713
▁Hawaa	-6714
▁nebam	-6715
▁ngoɗɗ	-6716
▁tiggu	-6717
▁doktor	-6718
▁faayre	-6719
▁wullit	-6720
▁ceniiɗo	-6721
▁dariiɓe	-6722
▁jokkere	-6723
▁kewuuji	-6724
▁yamirii	-6725
▁yiytude	-6726
▁jaaraama	-6727
▁naatnude	-6728
▁woɗɗaani	-6729
▁jalaŋaaji	-6730
▁mawningol	-6731
▁nganndaano	-6732
▁winnditaade	-6733
ñe	-6734
Ina	-6735
mmb	-6736
rie	-6737
okku	-6738
▁Wil	-6739
baajo	-6740
tanaa	-6741
▁2000	-6742
▁mbil	-6743
▁tapp	-6744
▁Mawɓe	-6745
▁contin	-6746
▁Asamaan	-6747
▁sakkitii	-6748
▁yahdiiɓe	-6749
▁teddeendi	-6750
Nj	-6751
▁69	-6752
▁73	-6753
iyii	-6754
oŋki	-6755
▁Key	-6756
inndo	-6757
tinen	-6758
▁galo	-6759
▁hoɗi	-6760
oyeede	-6761
unooɗo	-6762
▁yaafo	-6763
▁Kalifu	-6764
▁ndokki	-6765
▁adinooɓe	-6766
▁haaletee	-6767
▁semmbinde	-6768
▁dalillaaji	-6769
1)	-6770
AW	-6771
▁83	-6772
amme	-6773
▁Too	-6774
▁nje	-6775
publi	-6776
▁Caad	-6777
▁Hiir	-6778
▁ilam	-6779
▁puun	-6780
▁Hoore	-6781
▁bawɗi	-6782
▁heddo	-6783
▁mbeel	-6784
tanaade	-6785
▁hollirii	-6786
▁luutndii	-6787
ieu	-6788
addo	-6789
irat	-6790
oree	-6791
▁Eey	-6792
▁Kaa	-6793
▁Wen	-6794
▁Wiɗ	-6795
▁you	-6796
aador	-6797
▁ombo	-6798
▁suko	-6799
▁wagg	-6800
eleega	-6801
itaaki	-6802
▁Laana	-6803
▁Moolo	-6804
▁arani	-6805
▁feeñn	-6806
▁jeece	-6807
▁kesam	-6808
▁limti	-6809
▁teeru	-6810
▁wuddu	-6811
▁Isaaga	-6812
▁Tuunus	-6813
▁waylii	-6814
▁addanta	-6815
▁mawngol	-6816
▁ndeelam	-6817
▁Arabooɓe	-6818
▁adunaaji	-6819
▁gollorɗe	-6820
▁hiraande	-6821
▁yaltinii	-6822
▁goongɗuɓe	-6823
▁hardaneeɓe	-6824
▁ngooroondi	-6825
▁Misiranaaɓe	-6826
▁✍	-6827
▁6,	-6828
▁78	-6829
ussi	-6830
▁Gall	-6831
▁eɗum	-6832
▁Leyɗe	-6833
▁mbooy	-6834
▁publi	-6835
▁wontaa	-6836
▁yiiloo	-6837
▁Ɓesngu	-6838
▁kampaañ	-6839
▁njogori	-6840
▁roondii	-6841
▁mbelemma	-6842
▁biyeteengal	-6843
inn	-6844
ɓee	-6845
▁77	-6846
▁Bu	-6847
alde	-6848
amed	-6849
ches	-6850
ilip	-6851
maay	-6852
rier	-6853
▁150	-6854
▁Alk	-6855
▁Gab	-6856
▁imp	-6857
▁ñol	-6858
nirde	-6859
▁Ngon	-6860
▁kaar	-6861
▁payi	-6862
▁sinc	-6863
▁yerɓ	-6864
▁ɓale	-6865
allaay	-6866
iteede	-6867
▁Hanki	-6868
▁Kacce	-6869
▁Moosi	-6870
▁trans	-6871
anoonde	-6872
hatsApp	-6873
▁Mayram	-6874
▁ngartu	-6875
▁wakkil	-6876
▁ɓaleere	-6877
▁jinnaaɗo	-6878
▁soklaaji	-6879
▁mbeddaaji	-6880
▁ngenndiire	-6881
▁fuutankooɓe	-6882
ño	-6883
aho	-6884
dda	-6885
lol	-6886
nɓe	-6887
▁72	-6888
irte	-6889
jiri	-6890
tifi	-6891
▁Ten	-6892
▁bak	-6893
▁sim	-6894
▁ummo	-6895
▁wujj	-6896
▁yupp	-6897
▁inter	-6898
edannde	-6899
▁daarol	-6900
▁ɓeydan	-6901
▁Jamaanu	-6902
▁ɓaleeje	-6903
ehilaagal	-6904
▁wiɗtooɓe	-6905
▁Koddiwaar	-6906
OM	-6907
▁Ph	-6908
ribu	-6909
▁Mil	-6910
leñam	-6911
reejo	-6912
▁(198	-6913
▁Amen	-6914
▁Yaak	-6915
▁dumm	-6916
▁fuku	-6917
▁rugg	-6918
▁yirl	-6919
ulaaɓe	-6920
▁heewa	-6921
▁ɓiyɓe	-6922
▁autres	-6923
▁fotnde	-6924
▁Eeleega	-6925
▁renndin	-6926
▁Yirlaaɓe	-6927
▁goobuuji	-6928
▁teeŋtuɗe	-6929
▁yiylaade	-6930
▁Jaaltaaɓe	-6931
▁Oropnaaɓe	-6932
Mar	-6933
ong	-6934
▁ak	-6935
aasa	-6936
ayɗi	-6937
tuno	-6938
eteno	-6939
iyeer	-6940
▁Teli	-6941
▁joli	-6942
▁lamp	-6943
▁nafa	-6944
▁ɗigg	-6945
▁ngooŋ	-6946
▁ngonii	-6947
▁naatgol	-6948
▁teleeji	-6949
▁sanamuuji	-6950
▁Winndannde	-6951
RU	-6952
▁(5	-6953
aabe	-6954
ccii	-6955
siir	-6956
▁Hee	-6957
▁Was	-6958
▁ban	-6959
▁her	-6960
▁lui	-6961
▁ɓil	-6962
▁Diiw	-6963
▁Siñc	-6964
▁kipp	-6965
▁paay	-6966
▁siñc	-6967
▁Doole	-6968
▁Jaaɓi	-6969
▁Sifaa	-6970
▁abboo	-6971
▁dorog	-6972
▁eɓena	-6973
▁gaaci	-6974
▁ñawɗo	-6975
▁gadane	-6976
▁haɗata	-6977
▁ndiwri	-6978
▁ngañgu	-6979
▁Binndol	-6980
▁anndini	-6981
▁doolnude	-6982
▁maayaani	-6983
▁ndiwoowa	-6984
▁Yerusalem	-6985
▁3-	-6986
taas	-6987
▁Ayy	-6988
▁tat	-6989
▁Naat	-6990
▁nang	-6991
▁peer	-6992
▁tule	-6993
elaaɗo	-6994
▁Dikko	-6995
▁Kamer	-6996
▁Saral	-6997
▁Sinno	-6998
▁Wadde	-6999
▁neesu	-7000
▁nelal	-7001
▁ɓurndi	-7002
▁weleede	-7003
▁daɗndude	-7004
▁jippinii	-7005
▁ɓadtaade	-7006
▁Hirnaange	-7007
▁ɗooftaade	-7008
▁mbaylaandi	-7009
ñnj	-7010
ɓbe	-7011
▁76	-7012
duɗi	-7013
uver	-7014
▁188	-7015
▁19,	-7016
▁say	-7017
▁sum	-7018
▁Baaw	-7019
▁damm	-7020
dandir	-7021
▁Aadee	-7022
▁Habii	-7023
▁bakko	-7024
▁firde	-7025
▁haako	-7026
▁ngabb	-7027
▁soomi	-7028
▁Naamne	-7029
▁ballif	-7030
▁feeñde	-7031
▁mawnik	-7032
▁tottii	-7033
▁Barakna	-7034
▁mbaɗani	-7035
▁saliiɓe	-7036
▁tinndol	-7037
▁tuddule	-7038
▁waɗiino	-7039
▁cakkitiiɗi	-7040
▁haawniinde	-7041
▁ngoongɗinaani	-7042
yeru	-7043
▁Hel	-7044
indir	-7045
Pulaar	-7046
ameeɓe	-7047
conomi	-7048
▁ndañi	-7049
▁njiyi	-7050
▁ronki	-7051
totooɗo	-7052
tunooɓe	-7053
▁soodde	-7054
▁musiɗɓe	-7055
▁Tuubakooɓe	-7056
▁gardinooɗo	-7057
ID	-7058
po	-7059
awi	-7060
abbe	-7061
adio	-7062
seyba	-7063
▁Niij	-7064
▁Sidi	-7065
▁caal	-7066
▁degg	-7067
▁gaay	-7068
▁gopp	-7069
▁pewj	-7070
▁Mamma	-7071
▁bayɗe	-7072
▁himme	-7073
▁njool	-7074
▁selli	-7075
▁Pennda	-7076
▁haalee	-7077
▁jibina	-7078
▁jonnde	-7079
▁Sénégal	-7080
▁ardinoo	-7081
▁fenooɓe	-7082
▁gadiiɗo	-7083
▁njanngu	-7084
▁silaama	-7085
▁ummital	-7086
▁Ñaabina	-7087
▁Likseyba	-7088
▁anndunoo	-7089
▁gaasuuji	-7090
▁neemaaji	-7091
▁masiŋaaji	-7092
▁linguistique	-7093
lee	-7094
▁95	-7095
Miɗo	-7096
anɗo	-7097
dina	-7098
▁Nam	-7099
▁muk	-7100
▁nom	-7101
▁weñ	-7102
▁Konu	-7103
▁baay	-7104
▁ronk	-7105
iranoo	-7106
▁Gammbi	-7107
▁jookli	-7108
▁kullel	-7109
▁ɓurani	-7110
▁Caɗeele	-7111
▁Misiide	-7112
▁ɗoyngol	-7113
▁nganndii	-7114
▁renndinde	-7115
RED	-7116
aut	-7117
wii	-7118
▁Cu	-7119
dire	-7120
tgol	-7121
▁moɗ	-7122
▁tey	-7123
▁Ñaŋ	-7124
diijo	-7125
gliis	-7126
yaaji	-7127
▁Jeyn	-7128
▁wejo	-7129
▁yank	-7130
▁2011,	-7131
▁Ngool	-7132
▁bojel	-7133
▁bowte	-7134
▁cikku	-7135
▁lawak	-7136
▁ɓoorn	-7137
▁Iisaay	-7138
▁feewti	-7139
▁ndenti	-7140
▁renndi	-7141
▁yeeyde	-7142
▁kolliti	-7143
▁waawata	-7144
▁ɗumɗoon	-7145
▁fellitii	-7146
▁nduttoto	-7147
▁communaut	-7148
▁nganndunoo	-7149
▁développement	-7150
hé	-7151
mer	-7152
eeyo	-7153
etta	-7154
▁Duu	-7155
aggit	-7156
lebbi	-7157
tungo	-7158
▁hors	-7159
▁2007,	-7160
▁holno	-7161
▁jeese	-7162
▁lahal	-7163
▁comcol	-7164
▁ɗiɗaɓo	-7165
otonooɓe	-7166
▁ngonata	-7167
▁jannginii	-7168
:2	-7169
ry	-7170
rim	-7171
riv	-7172
ruu	-7173
was	-7174
gion	-7175
inng	-7176
uray	-7177
veau	-7178
▁BAB	-7179
▁COV	-7180
▁eey	-7181
▁fah	-7182
▁god	-7183
▁gud	-7184
▁ruf	-7185
▁ruŋ	-7186
▁Ɓey	-7187
aakaa	-7188
tawol	-7189
▁dire	-7190
▁leƴƴ	-7191
▁Mande	-7192
▁belɗe	-7193
▁darɗe	-7194
▁paarn	-7195
▁sanng	-7196
▁Biraam	-7197
▁Maayde	-7198
▁jeyaaka	-7199
▁bempeƴƴe	-7200
▁feewaani	-7201
▁hoyreejo	-7202
▁mbiyaten	-7203
▁kanndidaa	-7204
▁denɗiraagal	-7205
▁SI	-7206
▁185	-7207
▁Juu	-7208
▁wud	-7209
▁ɓow	-7210
ouver	-7211
▁alet	-7212
▁ceen	-7213
▁ɓaar	-7214
▁ngood	-7215
▁rewii	-7216
▁addata	-7217
▁leggal	-7218
▁Abdalla	-7219
▁donngal	-7220
▁siforii	-7221
▁anndeede	-7222
▁Teddungal	-7223
▁Fuutankooɓe	-7224
don	-7225
kɗe	-7226
uɗu	-7227
wdi	-7228
ɓɓi	-7229
▁sé	-7230
▁eel	-7231
▁ooñ	-7232
raaɓe	-7233
teeki	-7234
titii	-7235
▁Suka	-7236
▁cafr	-7237
▁http	-7238
▁ndan	-7239
▁yeeɓ	-7240
▁yehi	-7241
ansuur	-7242
ellaay	-7243
▁Fulbe	-7244
▁jaale	-7245
▁natta	-7246
▁waraa	-7247
vention	-7248
▁Mbaare	-7249
▁hesɗit	-7250
▁naamnd	-7251
▁hawrude	-7252
▁tokosel	-7253
▁Jaadanaa	-7254
▁dartaade	-7255
▁faabaade	-7256
▁udditgol	-7257
▁ñamaande	-7258
▁artiraaɓe	-7259
▁sooninkooɓe	-7260
▁diisnondiral	-7261
):	-7262
owl	-7263
DEAO	-7264
▁duk	-7265
▁sirl	-7266
▁Balla	-7267
▁baɗɗe	-7268
▁deedi	-7269
▁muusi	-7270
iniinde	-7271
▁Sariya	-7272
▁alarba	-7273
▁keɓata	-7274
▁ardorde	-7275
▁hollita	-7276
▁keewndi	-7277
▁neɗɗanke	-7278
▁jokkondiri	-7279
ahi	-7280
gie	-7281
ors	-7282
▁où	-7283
itut	-7284
▁Gon	-7285
tirta	-7286
▁ARED	-7287
▁Ndaw	-7288
▁booñ	-7289
▁hoom	-7290
▁hoot	-7291
▁lamm	-7292
▁ngoy	-7293
▁rapp	-7294
▁taƴa	-7295
▁tekk	-7296
pendan	-7297
▁2015,	-7298
▁Suley	-7299
▁contr	-7300
▁habri	-7301
▁kulɗo	-7302
aasiyoŋ	-7303
▁Manaam	-7304
▁kawrii	-7305
▁kuccam	-7306
▁mbaɗta	-7307
etenooɗo	-7308
▁Maawiya	-7309
▁baasgol	-7310
▁darorɗe	-7311
▁depitee	-7312
▁himmude	-7313
▁yeddude	-7314
▁Fuɗnaange	-7315
▁jibinaaɗo	-7316
▁tooñannge	-7317
15	-7318
:3	-7319
ِي	-7320
ide	-7321
▁Fi	-7322
atoo	-7323
ppii	-7324
▁Fulo	-7325
▁Raam	-7326
▁moom	-7327
oreede	-7328
▁hooti	-7329
▁tinii	-7330
▁ƴetta	-7331
iyaagal	-7332
toreede	-7333
▁diiwal	-7334
▁taaroo	-7335
▁nokkuure	-7336
▁afriknaaɓe	-7337
▁bakkaatuuji	-7338
❤️	-7339
ooc	-7340
tab	-7341
▁Do	-7342
▁Na	-7343
iiwa	-7344
tino	-7345
▁800	-7346
▁Haɗ	-7347
▁wur	-7348
antoo	-7349
daaka	-7350
waani	-7351
▁1991	-7352
▁Tele	-7353
▁jour	-7354
▁ofis	-7355
▁suum	-7356
stitut	-7357
▁Sehil	-7358
▁fergo	-7359
▁laral	-7360
▁sonng	-7361
▁woppu	-7362
▁ndonki	-7363
▁Jeynaba	-7364
▁Kolommb	-7365
▁dowrowe	-7366
▁haaniri	-7367
▁haɗataa	-7368
▁tataɓal	-7369
▁Arabeeɓe	-7370
▁yanaande	-7371
ministration	-7372
Hay	-7373
olo	-7374
tay	-7375
anno	-7376
isme	-7377
kipe	-7378
oɗoo	-7379
▁Koy	-7380
▁Luu	-7381
▁keɗo	-7382
▁haale	-7383
▁fiyaaku	-7384
▁iiñcuru	-7385
▁jiknaaɓe	-7386
:4	-7387
Siw	-7388
wis	-7389
omme	-7390
tore	-7391
▁Joh	-7392
▁eto	-7393
▁naj	-7394
▁naŋ	-7395
Siwil	-7396
buuli	-7397
geeɓe	-7398
▁dawr	-7399
▁jirw	-7400
▁leef	-7401
▁samm	-7402
▁wedd	-7403
▁————	-7404
▁Espar	-7405
▁Mboɗo	-7406
▁Rabat	-7407
▁dañaa	-7408
▁gagga	-7409
▁koɗki	-7410
▁ñiiƴe	-7411
▁Laamɓe	-7412
▁diwaan	-7413
▁rewata	-7414
▁sewnde	-7415
▁tottir	-7416
▁woppii	-7417
▁wuurɓe	-7418
▁ɓooyɗi	-7419
leydaagu	-7420
▁continu	-7421
▁mbaawii	-7422
▁tawaaka	-7423
▁ɓadaade	-7424
▁boomaare	-7425
▁fooftere	-7426
▁juuraade	-7427
▁meeɗiino	-7428
▁sellaani	-7429
▁toɗɗaade	-7430
▁ceernaajo	-7431
▁juɓɓingol	-7432
▁Nanondiral	-7433
▁soldateeɓe	-7434
▁ƴellitaade	-7435
awal	-7436
ayka	-7437
iiru	-7438
iser	-7439
oyaa	-7440
▁Eɓɓ	-7441
▁afo	-7442
▁Boos	-7443
▁Maat	-7444
▁acci	-7445
▁2010,	-7446
▁Polis	-7447
▁magge	-7448
▁ŋakki	-7449
▁Sokoto	-7450
▁artiri	-7451
stitution	-7452
▁huuɓnude	-7453
▁tuddunde	-7454
eb	-7455
tro	-7456
aame	-7457
anay	-7458
duno	-7459
imal	-7460
ural	-7461
▁700	-7462
▁Jab	-7463
▁Kil	-7464
▁kos	-7465
▁lul	-7466
ingel	-7467
tungu	-7468
ubaar	-7469
ɓaani	-7470
▁Omar	-7471
▁Waas	-7472
▁hijj	-7473
▁pokk	-7474
alawma	-7475
atique	-7476
lement	-7477
taande	-7478
▁Sariy	-7479
▁ceede	-7480
▁weeti	-7481
tiyanke	-7482
▁Renndo	-7483
▁ndewii	-7484
▁seeɗto	-7485
▁Gellaay	-7486
▁alluwal	-7487
▁eɓɓaaɗe	-7488
▁jappere	-7489
▁majjuɗo	-7490
▁muusnde	-7491
▁ndokkii	-7492
▁tikkere	-7493
▁ɓakkere	-7494
▁National	-7495
▁anndaaka	-7496
▁halfinaa	-7497
▁mbaadiiji	-7498
▁hakkundeejo	-7499
fr	-7500
AAR	-7501
ban	-7502
▁81	-7503
biir	-7504
nder	-7505
vier	-7506
▁Col	-7507
▁Don	-7508
▁row	-7509
▁1999	-7510
▁yoɓe	-7511
itinde	-7512
▁juula	-7513
▁soodi	-7514
▁wayli	-7515
▁altine	-7516
▁ngummii	-7517
▁Koolaaɗo	-7518
tiyankooɓe	-7519
▁Ndenndaandi	-7520
IL	-7521
use	-7522
▁82	-7523
gire	-7524
rand	-7525
rigi	-7526
sago	-7527
▁Mer	-7528
▁Wah	-7529
▁Yun	-7530
▁cas	-7531
faagu	-7532
iniri	-7533
suudu	-7534
ɗugol	-7535
▁fokk	-7536
▁koon	-7537
▁muyn	-7538
▁resp	-7539
▁aawdi	-7540
▁aussi	-7541
▁cakka	-7542
▁lelni	-7543
▁luuro	-7544
▁njaru	-7545
▁weeɓi	-7546
▁ƴoƴre	-7547
iratnoo	-7548
▁Aamiin	-7549
▁Egliis	-7550
▁juumre	-7551
▁kartal	-7552
▁kellif	-7553
▁Nanoowo	-7554
▁doktoor	-7555
▁inniraa	-7556
▁lelnude	-7557
▁nduttii	-7558
▁ngonɗen	-7559
▁kaalaani	-7560
▁njaɓaani	-7561
▁tuugaade	-7562
▁Ñaawoore	-7563
▁ñiiɓirde	-7564
▁luulndiiɓe	-7565
▁Kel	-7566
▁dit	-7567
▁lem	-7568
irten	-7569
▁1960	-7570
▁Adam	-7571
▁habr	-7572
▁ñabb	-7573
▁Binta	-7574
▁bonɓe	-7575
▁cemmb	-7576
▁golla	-7577
▁innit	-7578
▁ñawnd	-7579
ankooje	-7580
▁ndaari	-7581
▁jaɓɓaade	-7582
!"	-7583
Yo	-7584
ƴa	-7585
JWM	-7586
▁87	-7587
▁NA	-7588
▁ño	-7589
Alaa	-7590
atta	-7591
aɗam	-7592
kies	-7593
lude	-7594
ndre	-7595
tuki	-7596
▁177	-7597
▁Cen	-7598
▁Lim	-7599
▁cha	-7600
amiin	-7601
dooji	-7602
udere	-7603
▁1976	-7604
▁2005	-7605
▁Adan	-7606
▁Hebb	-7607
▁Miij	-7608
▁Pers	-7609
▁Rewo	-7610
▁coof	-7611
▁ferg	-7612
▁Mbooc	-7613
▁dipit	-7614
▁mburu	-7615
▁trava	-7616
▁Foonde	-7617
▁ndokka	-7618
▁wonndi	-7619
▁Hoodere	-7620
▁Mustafa	-7621
▁battane	-7622
▁kuɓeeje	-7623
▁majjuɓe	-7624
▁ndokkaa	-7625
▁ngonndi	-7626
▁ceeraani	-7627
▁Ƴoogirde	-7628
▁Afriknaaje	-7629
rit	-7630
agal	-7631
akch	-7632
erre	-7633
iika	-7634
ordi	-7635
titi	-7636
▁wit	-7637
▁Kaan	-7638
▁korsa	-7639
▁nduum	-7640
akchott	-7641
kipedia	-7642
▁binndu	-7643
▁ñannde	-7644
▁tagooje	-7645
▁tokoose	-7646
▁dartinde	-7647
▁jowitiiɗi	-7648
IT	-7649
duc	-7650
fin	-7651
upe	-7652
neur	-7653
▁Luk	-7654
▁Nij	-7655
▁ham	-7656
▁kep	-7657
▁loh	-7658
▁nos	-7659
▁yel	-7660
▁Ɓiy	-7661
issan	-7662
ndere	-7663
oowol	-7664
▁jaɓa	-7665
▁warñ	-7666
ateeɗi	-7667
▁Langu	-7668
▁Suura	-7669
▁faabu	-7670
▁nelda	-7671
▁secon	-7672
tineede	-7673
toyaade	-7674
▁ngamri	-7675
▁waɗiri	-7676
▁Ciimtol	-7677
▁almuuɓe	-7678
▁ciftina	-7679
▁cookies	-7680
▁haalnoo	-7681
▁podooje	-7682
▁udditii	-7683
▁ummiima	-7684
▁ummiiɓe	-7685
▁woniino	-7686
▁différen	-7687
▁haaɗaani	-7688
▁jettooɗe	-7689
▁konnguli	-7690
▁national	-7691
▁soklaani	-7692
▁wiyeteeɓe	-7693
▁huwtoraade	-7694
▁jaambaraagal	-7695
emp	-7696
▁Ho	-7697
kere	-7698
ɗudi	-7699
▁Fay	-7700
▁Hum	-7701
▁Jor	-7702
▁Raw	-7703
▁aal	-7704
▁fij	-7705
ative	-7706
innoo	-7707
lewal	-7708
ument	-7709
▁Abii	-7710
▁lekk	-7711
▁yeeb	-7712
▁Ooɗoo	-7713
▁daɓɓo	-7714
▁Nelson	-7715
▁jannde	-7716
▁salmin	-7717
▁teelal	-7718
▁laamiiɗo	-7719
▁Angalteer	-7720
▁jotondire	-7721
▁joomiraaɗo	-7722
BA	-7723
JI	-7724
gh	-7725
uki	-7726
yol	-7727
arti	-7728
jatu	-7729
utsi	-7730
▁Aks	-7731
▁Mee	-7732
▁Mun	-7733
teeɗi	-7734
▁Cell	-7735
▁Ould	-7736
▁faal	-7737
▁haaɓ	-7738
▁keɓɓ	-7739
▁sold	-7740
inoore	-7741
onaaɓe	-7742
▁Barka	-7743
▁Jakel	-7744
▁Sapon	-7745
▁Sheex	-7746
▁jommb	-7747
▁karte	-7748
▁leeɗe	-7749
▁loowi	-7750
▁maccu	-7751
▁nawor	-7752
▁ɗiɗmo	-7753
tanaaɓe	-7754
▁ngondu	-7755
▁tiinde	-7756
▁ɓooyɗe	-7757
ducation	-7758
▁hucciti	-7759
▁jolfuɓe	-7760
▁koninke	-7761
▁limooje	-7762
▁opitaal	-7763
▁rokkata	-7764
▁réforme	-7765
▁caaɗngol	-7766
▁heddaade	-7767
▁laaɓtuɗi	-7768
▁mbaawaano	-7769
▁teeŋtinde	-7770
▁janngingol	-7771
▁toppitiiɗo	-7772
▁jeertinoowo	-7773
▁kilomeeteer	-7774
▁laaɓtinooje	-7775
asa	-7776
▁Ri	-7777
immo	-7778
iran	-7779
▁Bus	-7780
▁wad	-7781
▁jiid	-7782
▁sukk	-7783
▁ñukk	-7784
▁ɗaam	-7785
erooji	-7786
▁Kañum	-7787
▁Minis	-7788
▁bonii	-7789
▁larme	-7790
▁naafi	-7791
▁hawrii	-7792
▁njiidi	-7793
▁njooɗo	-7794
▁cuɗaari	-7795
▁nulaaɓe	-7796
▁wontata	-7797
▁Hakkille	-7798
▁laaɓtude	-7799
élé	-7800
▁85	-7801
oɗaa	-7802
▁Yaa	-7803
▁Yim	-7804
▁tur	-7805
▁ƴef	-7806
laare	-7807
ɗaade	-7808
▁Fuut	-7809
▁cokl	-7810
▁fill	-7811
▁tuuf	-7812
▁yiya	-7813
istaan	-7814
itiiɗe	-7815
ration	-7816
▁Buuba	-7817
▁Ngoon	-7818
▁Sekko	-7819
▁ammba	-7820
▁nawii	-7821
▁njaɓi	-7822
▁popul	-7823
▁toute	-7824
▁ariino	-7825
▁fuunti	-7826
▁jooɗɗo	-7827
▁luggiɗ	-7828
▁paamen	-7829
▁Idriisa	-7830
▁maleyka	-7831
▁ngaddan	-7832
▁rafiiji	-7833
▁siynude	-7834
▁yahrata	-7835
▁lonngini	-7836
▁riiwtude	-7837
َا	-7838
▁+	-7839
eje	-7840
kee	-7841
eres	-7842
uton	-7843
▁lii	-7844
entre	-7845
▁Segu	-7846
▁suku	-7847
noonde	-7848
▁calɗi	-7849
▁cuɓii	-7850
▁maaro	-7851
▁njiya	-7852
▁yehii	-7853
▁lollude	-7854
▁ngalanaa	-7855
▁seerenɓe	-7856
▁Nouakchott	-7857
ƁE	-7858
aja	-7859
ary	-7860
ble	-7861
eɓe	-7862
gaa	-7863
▁99	-7864
▁FP	-7865
aise	-7866
arah	-7867
bere	-7868
niri	-7869
▁BAH	-7870
▁Nay	-7871
▁etc	-7872
▁ɗun	-7873
anten	-7874
ruuja	-7875
ɗundi	-7876
▁CENI	-7877
▁Giɗo	-7878
▁Innd	-7879
▁Ndey	-7880
▁Sant	-7881
▁Sooy	-7882
▁ciiñ	-7883
▁enco	-7884
▁joƴƴ	-7885
▁sous	-7886
▁suiv	-7887
Aamiin	-7888
▁Damga	-7889
▁jokko	-7890
▁maɓbe	-7891
▁ngadd	-7892
▁nguyka	-7893
▁njokka	-7894
▁warkoy	-7895
▁wellit	-7896
dépendan	-7897
▁hollira	-7898
▁quraana	-7899
▁udditde	-7900
▁biyateeɗo	-7901
▁janngoowo	-7902
Mo	-7903
SE	-7904
qq	-7905
▁z	-7906
/19	-7907
ulu	-7908
▁Ok	-7909
▁ir	-7910
▁✍️	-7911
ages	-7912
▁Kir	-7913
▁Som	-7914
▁ɓut	-7915
▁etoo	-7916
▁face	-7917
▁moor	-7918
▁soor	-7919
▁toko	-7920
▁1990,	-7921
▁Nobel	-7922
▁yawtii	-7923
▁Afrique	-7924
▁gonngol	-7925
▁jaɓataa	-7926
▁jippina	-7927
▁njannga	-7928
▁yuɓɓini	-7929
▁ɗaminii	-7930
▁jooɗorde	-7931
▁jebbiliiɓe	-7932
JA	-7933
ix	-7934
▁_	-7935
lom	-7936
aato	-7937
arsa	-7938
oppi	-7939
tats	-7940
wuro	-7941
▁Ali	-7942
▁Bor	-7943
▁Fof	-7944
▁ɓin	-7945
mbele	-7946
▁Asii	-7947
▁bell	-7948
▁jaaɓ	-7949
▁kers	-7950
ndaani	-7951
tandir	-7952
▁Jolof	-7953
▁cabbi	-7954
▁jeddi	-7955
▁jihad	-7956
▁nguɗu	-7957
▁raddo	-7958
▁saɗne	-7959
▁tulde	-7960
▁yonii	-7961
▁ngoppi	-7962
▁niveau	-7963
▁Ñaamee	-7964
▁ɓuuɓol	-7965
▁Lukmaan	-7966
▁Moktaar	-7967
▁jogorɗo	-7968
▁koɗorɗe	-7969
▁laaɓnde	-7970
▁senaare	-7971
▁ŋakkere	-7972
▁Jeeriyel	-7973
▁Namruuja	-7974
▁laaɓtuɗe	-7975
▁lomtaade	-7976
▁nganndee	-7977
▁teskeede	-7978
▁watulaaɓe	-7979
▁naftoraade	-7980
▁paayodinɗe	-7981
▁yarlitaare	-7982
ado	-7983
dol	-7984
gen	-7985
waɗ	-7986
▁Kh	-7987
▁bis	-7988
antik	-7989
▁Mawn	-7990
▁Yuɓɓ	-7991
anaaki	-7992
évrier	-7993
▁Mbooy	-7994
▁mahii	-7995
▁metti	-7996
ondiren	-7997
▁Konngo	-7998
▁calmin	-7999
▁joopii	-8000
▁juutɗo	-8001
▁mbeelu	-8002
▁wonani	-8003
▁jamaaji	-8004
▁sanndar	-8005
▁ɗaɓɓiri	-8006
▁jooɗinoo	-8007
▁koɗdigal	-8008
▁nokkuuje	-8009
▁Laamaandi	-8010
▁paandaale	-8011
18	-8012
fu	-8013
yah	-8014
▁AJ	-8015
YJWM	-8016
tice	-8017
▁Kum	-8018
▁cré	-8019
▁cahe	-8020
▁éduc	-8021
▁Ɓuri	-8022
ologie	-8023
▁Tutsi	-8024
▁ceene	-8025
▁daroo	-8026
▁faire	-8027
▁miiji	-8028
▁peɗle	-8029
ampaate	-8030
ortonoo	-8031
tumaagu	-8032
▁coodgu	-8033
▁kaalii	-8034
▁mbiyii	-8035
▁ngonta	-8036
▁rogere	-8037
▁suuɗii	-8038
▁tiiɗno	-8039
▁ɓurtin	-8040
Fulfulde	-8041
▁boɗeejo	-8042
▁firtata	-8043
▁hoolkis	-8044
▁ɓaleeji	-8045
▁daabaaji	-8046
▁jooɗiima	-8047
▁ngoƴaaji	-8048
▁njoorndi	-8049
▁pottital	-8050
▁sirluuji	-8051
▁ñaawirde	-8052
▁diversité	-8053
▁nanondiri	-8054
▁peewnugol	-8055
▁roondaade	-8056
▁macungaagu	-8057
km	-8058
ññ	-8059
Con	-8060
ewu	-8061
nir	-8062
▁3)	-8063
▁Au	-8064
▁Qu	-8065
eeɗe	-8066
heen	-8067
uɗen	-8068
▁Tun	-8069
▁gin	-8070
▁giƴ	-8071
▁jat	-8072
dinaa	-8073
▁(200	-8074
▁Ebol	-8075
▁fuuy	-8076
erecee	-8077
iraaji	-8078
▁Lasli	-8079
▁daawe	-8080
▁woppa	-8081
aykaaji	-8082
notaako	-8083
▁heddoo	-8084
▁neldii	-8085
▁njahdi	-8086
▁njaɓii	-8087
▁teskoo	-8088
▁genaale	-8089
▁Kameruun	-8090
▁mbaɗataa	-8091
▁waɗdooɓe	-8092
fir	-8093
ɓin	-8094
▁84	-8095
adaa	-8096
ayde	-8097
dara	-8098
iyet	-8099
▁Jar	-8100
▁Ngo	-8101
▁Nst	-8102
▁dif	-8103
yooji	-8104
▁Bari	-8105
▁Jaar	-8106
▁Moƴƴ	-8107
▁Niil	-8108
▁disp	-8109
▁faya	-8110
▁foll	-8111
▁hepp	-8112
▁hiɓe	-8113
ammiri	-8114
▁laato	-8115
▁mbeɗe	-8116
▁paama	-8117
▁rimɓe	-8118
▁tafde	-8119
▁waɗdi	-8120
aambele	-8121
▁Ndiyam	-8122
▁Saahal	-8123
▁lelngo	-8124
▁tonngi	-8125
▁waɗnde	-8126
▁ñenngi	-8127
▁Halayɓe	-8128
▁banngal	-8129
▁gonngal	-8130
▁jogiiɗe	-8131
▁hasboore	-8132
▁ndenndin	-8133
▁seedeeji	-8134
▁Ñaawirde	-8135
▁Kolommbus	-8136
▁mbaydiiji	-8137
▁Convention	-8138
▁mauritanien	-8139
Am	-8140
maw	-8141
Kala	-8142
akka	-8143
noto	-8144
▁Daw	-8145
▁Woy	-8146
▁der	-8147
▁ñoo	-8148
allal	-8149
toroo	-8150
▁Geor	-8151
▁famm	-8152
▁feer	-8153
▁sera	-8154
▁tikk	-8155
▁Lamin	-8156
▁tawno	-8157
▁tooke	-8158
▁commun	-8159
▁ruulde	-8160
▁timmii	-8161
▁lislaamu	-8162
▁ndenndaandi	-8163
ƳƳ	-8164
ŋti	-8165
▁1,	-8166
▁86	-8167
▁bu	-8168
aage	-8169
▁dul	-8170
sinno	-8171
▁Beel	-8172
▁Hamd	-8173
▁Onon	-8174
▁jamb	-8175
▁kaɗi	-8176
▁kula	-8177
▁peut	-8178
tirgal	-8179
▁Ejipt	-8180
▁bojji	-8181
▁lappi	-8182
▁ñalaw	-8183
▁ngañam	-8184
▁nombre	-8185
▁werlii	-8186
▁wirnii	-8187
▁duwaawu	-8188
▁hakkill	-8189
▁ndaarde	-8190
▁ngoɗndi	-8191
▁yaltina	-8192
▁Bahbahɓe	-8193
▁Firaawna	-8194
▁jombaajo	-8195
▁ngaddani	-8196
▁bismaango	-8197
▁maantinde	-8198
▁payndaale	-8199
▁winndeede	-8200
▁wuurtinde	-8201
▁baabiraaɗo	-8202
▁njaajeendi	-8203
24	-8204
ella	-8205
huli	-8206
ngur	-8207
ogra	-8208
ɗuɗi	-8209
▁Faw	-8210
▁bark	-8211
▁yuur	-8212
anaaɗo	-8213
inndii	-8214
▁Dennd	-8215
▁bismii	-8216
▁dallin	-8217
▁diiney	-8218
▁jawtuɗi	-8219
eeteruuji	-8220
▁ndammiri	-8221
▁ndaɗɗudi	-8222
▁ngannden	-8223
▁jaambaaro	-8224
za	-8225
bat	-8226
inké	-8227
itta	-8228
oowi	-8229
▁Bag	-8230
▁Tel	-8231
▁che	-8232
agana	-8233
ndool	-8234
▁Holl	-8235
▁Jamm	-8236
▁Joon	-8237
▁Nden	-8238
▁Siri	-8239
▁hoon	-8240
▁joya	-8241
▁kalk	-8242
▁njof	-8243
▁padi	-8244
andira	-8245
▁fodan	-8246
▁place	-8247
▁satel	-8248
▁siilo	-8249
▁tawti	-8250
▁Daddaa	-8251
▁Muslim	-8252
▁ballit	-8253
▁person	-8254
▁yahuud	-8255
▁Boosoya	-8256
▁yiɗaano	-8257
ondireede	-8258
▁naamndal	-8259
▁parlemaa	-8260
▁nanondire	-8261
NU	-8262
ett	-8263
ges	-8264
olu	-8265
▁ɓa	-8266
mail	-8267
dital	-8268
▁Anta	-8269
▁cons	-8270
▁dawi	-8271
▁Kisal	-8272
▁Mbeki	-8273
▁njaaɓ	-8274
▁takku	-8275
▁Ɓaawo	-8276
bbannde	-8277
ondirɓe	-8278
▁baasɗo	-8279
▁fotiri	-8280
▁maalde	-8281
▁ngootu	-8282
▁wuurii	-8283
▁daneeji	-8284
▁waɗetee	-8285
▁yaaɓani	-8286
iyankooje	-8287
▁haanaani	-8288
KE	-8289
▁AD	-8290
▁Ak	-8291
ayba	-8292
▁eff	-8293
▁pil	-8294
▁rel	-8295
▁tas	-8296
danɗo	-8297
nooji	-8298
toire	-8299
▁Hoto	-8300
▁Pour	-8301
▁coor	-8302
▁etaa	-8303
▁haar	-8304
▁mani	-8305
▁perg	-8306
▁raay	-8307
illere	-8308
▁jaati	-8309
▁négro	-8310
▁sikku	-8311
▁sokli	-8312
▁woori	-8313
▁ɓalal	-8314
aamburu	-8315
▁jooɗɗe	-8316
▁mbaɗee	-8317
▁ngarta	-8318
▁njangu	-8319
▁pooɗal	-8320
▁ruɗtii	-8321
▁wonana	-8322
▁Sanndee	-8323
▁mbeltii	-8324
▁nguuɗoo	-8325
▁njaltii	-8326
▁oogirɗe	-8327
▁tabitin	-8328
▁tawetee	-8329
▁yahiino	-8330
▁mbaɗaama	-8331
▁sanngara	-8332
▁yejjitii	-8333
▁mbaawataa	-8334
▁noddaandu	-8335
▁wallidiiɓe	-8336
▁yarlitiiɓe	-8337
▁Almaañnaaɓe	-8338
▁Internation	-8339
cou	-8340
gin	-8341
▁Lo	-8342
mber	-8343
▁Jon	-8344
▁guu	-8345
diigu	-8346
▁heɗo	-8347
▁liɓi	-8348
▁pelɓ	-8349
itaama	-8350
kindii	-8351
▁ceeɗu	-8352
▁ceŋɗe	-8353
▁keɓti	-8354
▁puɗɗi	-8355
▁tanaa	-8356
▁CEDEAO	-8357
▁Kamara	-8358
▁baafal	-8359
▁addande	-8360
▁falaade	-8361
▁ngooɗoo	-8362
▁kuftodin	-8363
▁naatirde	-8364
▁winndooɓe	-8365
yc	-8366
NDI	-8367
iso	-8368
iɗi	-8369
rer	-8370
sen	-8371
▁88	-8372
▁II	-8373
eddo	-8374
ŋgal	-8375
▁120	-8376
▁ƴat	-8377
▁Annd	-8378
▁caas	-8379
▁ciñc	-8380
▁cuuɗ	-8381
▁dont	-8382
▁hara	-8383
▁inan	-8384
▁jaaf	-8385
▁more	-8386
▁saŋk	-8387
▁till	-8388
▁tini	-8389
nongal	-8390
▁Yunus	-8391
▁haɗaa	-8392
▁musid	-8393
▁muñde	-8394
▁nofru	-8395
▁ñaagi	-8396
mission	-8397
sanaaɓe	-8398
tinngol	-8399
▁haaɗde	-8400
▁nawori	-8401
▁nguddi	-8402
▁dawaaɗi	-8403
▁dowrowo	-8404
▁mawnink	-8405
▁peɗeeli	-8406
▁rewooɓe	-8407
▁Ɓaleeɓe	-8408
▁WhatsApp	-8409
▁Yeewtere	-8410
▁gallaaɗi	-8411
▁timmunde	-8412
▁ñaagaade	-8413
▁ñaawirɗe	-8414
▁ƴooŋolle	-8415
▁petelaaji	-8416
▁tamarooje	-8417
▁haalpulaar	-8418
cri	-8419
lar	-8420
afri	-8421
uwol	-8422
▁Ruw	-8423
bakri	-8424
uraan	-8425
▁1994	-8426
▁pawi	-8427
▁ɓata	-8428
▁kaari	-8429
▁ndogi	-8430
▁tooro	-8431
▁Maatam	-8432
▁dartin	-8433
▁Demokar	-8434
▁rokkeede	-8435
▁seneraal	-8436
▁Ngootaagu	-8437
▁cehilaagal	-8438
▁ngenndiiji	-8439
ɓam	-8440
▁my	-8441
anki	-8442
ctif	-8443
eewi	-8444
tato	-8445
▁Guw	-8446
tinɗe	-8447
toraa	-8448
unnde	-8449
▁(199	-8450
▁Dans	-8451
▁Iwdi	-8452
▁caay	-8453
▁calm	-8454
▁kiɓɓ	-8455
▁leer	-8456
▁siir	-8457
▁yara	-8458
piteer	-8459
▁Jabet	-8460
▁Radio	-8461
▁carii	-8462
▁daɗnd	-8463
▁dewɗo	-8464
▁jaasi	-8465
▁leeɓi	-8466
▁lesɗe	-8467
▁ɓakke	-8468
atiques	-8469
daangal	-8470
▁Buhari	-8471
▁Darnde	-8472
▁Yahyaa	-8473
▁jokkii	-8474
▁naamni	-8475
▁ngardi	-8476
▁Haɗaani	-8477
▁Tararsa	-8478
▁golloto	-8479
▁maayata	-8480
▁waɗdude	-8481
▁seyɗanne	-8482
▁wakannde	-8483
▁sabaabunde	-8484
▁hakkundeere	-8485
3-	-8486
ic	-8487
pa	-8488
én	-8489
eto	-8490
yal	-8491
▁3,	-8492
taba	-8493
▁Cer	-8494
▁Fat	-8495
▁Jan	-8496
▁Yam	-8497
▁hin	-8498
▁ket	-8499
retee	-8500
▁Ummu	-8501
▁fini	-8502
anaajo	-8503
▁Jolal	-8504
▁baaɗe	-8505
▁kolli	-8506
anteeje	-8507
totooɓe	-8508
▁ceenal	-8509
▁hatojini	-8510
▁tuubaako	-8511
PP	-8512
ww	-8513
cce	-8514
enn	-8515
era	-8516
orn	-8517
ïse	-8518
-199	-8519
iyat	-8520
orol	-8521
▁15,	-8522
▁20,	-8523
▁25,	-8524
▁Kah	-8525
▁Men	-8526
▁faɗ	-8527
▁ils	-8528
dinii	-8529
▁Kaay	-8530
▁Naal	-8531
▁Njiɗ	-8532
▁dewe	-8533
▁duko	-8534
▁halk	-8535
▁jula	-8536
ariyaa	-8537
▁(...)	-8538
▁Ayuba	-8539
▁Filip	-8540
▁Husey	-8541
▁Kulee	-8542
▁Neema	-8543
▁lekɗe	-8544
▁toŋng	-8545
▁yimde	-8546
▁était	-8547
▁ɓeydo	-8548
duction	-8549
▁baawal	-8550
▁cakkit	-8551
▁doolnu	-8552
▁expres	-8553
▁mbaɗat	-8554
▁nannga	-8555
▁Kartaas	-8556
▁Parties	-8557
▁Yahuudu	-8558
▁almaami	-8559
▁dariiɗo	-8560
▁dingire	-8561
▁majjini	-8562
▁majjude	-8563
▁siftina	-8564
▁wiyiino	-8565
▁gartugol	-8566
▁jokkorɗe	-8567
▁sooninke	-8568
▁teeŋtini	-8569
▁م	-8570
def	-8571
eder	-8572
naat	-8573
▁Duw	-8574
▁Jean	-8575
▁dees	-8576
▁ngor	-8577
iraaɗe	-8578
tinnde	-8579
▁Hawsa	-8580
▁Siisee	-8581
▁fotata	-8582
▁moofti	-8583
▁moƴƴal	-8584
▁sifaade	-8585
▁wuddere	-8586
▁nuunɗuɗo	-8587
EM	-8588
dd	-8589
log	-8590
sel	-8591
tug	-8592
udu	-8593
▁91	-8594
▁ww	-8595
araf	-8596
sabu	-8597
▁Cuk	-8598
▁Got	-8599
▁Lom	-8600
▁cad	-8601
▁how	-8602
▁pee	-8603
▁yeñ	-8604
erece	-8605
féren	-8606
oolum	-8607
orgol	-8608
tallo	-8609
▁June	-8610
▁Ndon	-8611
▁ciir	-8612
▁mecc	-8613
▁tigg	-8614
▁Badri	-8615
▁Hakke	-8616
▁Pular	-8617
▁gilli	-8618
▁leeso	-8619
▁ndill	-8620
▁sokla	-8621
aaluuta	-8622
kinaade	-8623
▁Daakaa	-8624
▁sinndo	-8625
▁weddii	-8626
▁Allaahu	-8627
▁Jabuura	-8628
▁Mohamed	-8629
▁Sorimal	-8630
▁caliiɗo	-8631
▁njeddii	-8632
▁wuurnoo	-8633
▁Gardiiɗo	-8634
▁Hampaate	-8635
▁geecuuji	-8636
▁jiggoore	-8637
▁keeriiɗi	-8638
▁nanngude	-8639
▁yahdaani	-8640
▁jaaynooɓe	-8641
▁wattindii	-8642
ho	-8643
joo	-8644
▁97	-8645
▁ya	-8646
inci	-8647
▁10,	-8648
▁Dah	-8649
▁Lab	-8650
▁Tam	-8651
aagaa	-8652
daaɗe	-8653
▁York	-8654
▁añde	-8655
▁conc	-8656
▁kaas	-8657
aniino	-8658
▁baaɗi	-8659
▁ndiiw	-8660
▁farays	-8661
▁feññin	-8662
▁haaldi	-8663
▁miijoo	-8664
▁waynoo	-8665
▁eddaaji	-8666
▁keɓaani	-8667
▁économi	-8668
▁anndaano	-8669
▁ndañaani	-8670
YM	-8671
ass	-8672
ole	-8673
str	-8674
ɓte	-8675
▁2,	-8676
▁96	-8677
▁Bi	-8678
▁ey	-8679
ajjo	-8680
oɗee	-8681
puis	-8682
rent	-8683
▁Car	-8684
▁Ris	-8685
▁Wel	-8686
▁uuj	-8687
▁wey	-8688
amatu	-8689
ayiil	-8690
pital	-8691
ppude	-8692
▁1978	-8693
▁Elle	-8694
▁Lill	-8695
▁saas	-8696
▁très	-8697
▁usta	-8698
annder	-8699
dition	-8700
emaaji	-8701
iraaka	-8702
▁Jeegi	-8703
▁Moïse	-8704
▁Samba	-8705
▁Woɗɓe	-8706
▁belɗi	-8707
▁jeere	-8708
▁kedde	-8709
▁saɗti	-8710
▁yaltu	-8711
▁Ñalɗi	-8712
▁Toowɗo	-8713
▁majjii	-8714
▁mbelaa	-8715
▁njuurn	-8716
▁peewɗo	-8717
hitaande	-8718
▁Moritan	-8719
▁Woodani	-8720
▁hafeere	-8721
▁hattani	-8722
▁welaani	-8723
yankaagal	-8724
▁doosiyee	-8725
▁kaaloowo	-8726
▁ngolloto	-8727
▁tijjaani	-8728
▁wondunoo	-8729
▁Konaakiri	-8730
▁jaɓɓungal	-8731
▁goongɗingol	-8732
▁gostondiral	-8733
gue	-8734
her	-8735
▁KO	-8736
chni	-8737
▁wah	-8738
siiru	-8739
▁Sall	-8740
▁lopp	-8741
erneer	-8742
sident	-8743
▁dumun	-8744
▁njang	-8745
▁puɗal	-8746
▁scien	-8747
▁Ɓunndu	-8748
▁habrude	-8749
▁jibinde	-8750
▁sukundu	-8751
▁laamiiɓe	-8752
▁njeeɗiɗo	-8753
▁yiilaade	-8754
▁Haalpulaar	-8755
22	-8756
nt	-8757
cit	-8758
www	-8759
isaa	-8760
owel	-8761
toro	-8762
▁184	-8763
▁Ete	-8764
▁IRA	-8765
▁Nov	-8766
▁Ton	-8767
▁agr	-8768
▁jer	-8769
▁www	-8770
amuya	-8771
laire	-8772
titde	-8773
wonaa	-8774
▁arɗo	-8775
▁awok	-8776
▁ciŋk	-8777
▁gere	-8778
▁ngum	-8779
▁peup	-8780
▁yana	-8781
anoowo	-8782
bannge	-8783
jjanɗe	-8784
unooɓe	-8785
▁Nagge	-8786
▁jamfa	-8787
▁jammb	-8788
▁woyde	-8789
▁yiite	-8790
ngartaa	-8791
tatooɗo	-8792
▁baawde	-8793
▁hebori	-8794
▁jaalal	-8795
▁ndenta	-8796
▁tooñde	-8797
▁waɗtin	-8798
▁feggere	-8799
▁saraade	-8800
▁Tumbuktu	-8801
▁kuutoroo	-8802
▁laaminoo	-8803
▁salminde	-8804
▁ñawbuuli	-8805
▁Tiitoonde	-8806
▁Makkanaaɓe	-8807
▁mborosaaji	-8808
AS	-8809
Uni	-8810
owo	-8811
uni	-8812
vre	-8813
ɓti	-8814
▁4,	-8815
añam	-8816
bbal	-8817
niino	-8818
▁ruuh	-8819
▁wota	-8820
ateeɗe	-8821
▁Seede	-8822
▁gorel	-8823
▁waɗtu	-8824
▁yiide	-8825
▁ngadda	-8826
▁ndentii	-8827
▁teeŋtin	-8828
▁ɗimmere	-8829
▁njogitaari	-8830
PI	-8831
zi	-8832
▁ب	-8833
can	-8834
lli	-8835
▁By	-8836
▁Ra	-8837
▁fó	-8838
awdi	-8839
▁Sum	-8840
▁cet	-8841
▁ete	-8842
▁gir	-8843
▁muy	-8844
emble	-8845
fotde	-8846
▁Tata	-8847
▁cukk	-8848
▁fawa	-8849
▁kimm	-8850
▁kuuf	-8851
▁rese	-8852
▁taro	-8853
wasaad	-8854
▁Huray	-8855
▁Sahaa	-8856
▁Tulde	-8857
▁allah	-8858
▁sarii	-8859
▁wiyri	-8860
▁ɓaŋŋe	-8861
▁futuro	-8862
▁hadiis	-8863
▁liggey	-8864
▁ruttoo	-8865
▁seerde	-8866
jannaaji	-8867
▁Kanngoo	-8868
▁Wiyaama	-8869
▁alluuje	-8870
▁baɗoowo	-8871
▁fitiram	-8872
▁jibinii	-8873
▁mbaawen	-8874
▁pawaton	-8875
▁ɓennuɗe	-8876
▁ciynugol	-8877
▁jahroowo	-8878
▁kulɓinii	-8879
▁ñabbuuli	-8880
▁ɓennunde	-8881
▁sosiyetee	-8882
▁yenaneede	-8883
▁Maleykaaji	-8884
▁diidorinoo	-8885
▁koniŋkooɓe	-8886
▁njaaweendi	-8887
▁njogitaaje	-8888
▁jaayndiyankooɓe	-8889
afi	-8890
ogr	-8891
rew	-8892
▁UM	-8893
buɓe	-8894
ewol	-8895
tuka	-8896
▁(18	-8897
▁Cor	-8898
▁Way	-8899
▁yum	-8900
▁yuw	-8901
derik	-8902
leñol	-8903
▁jaggu	-8904
▁latin	-8905
▁mawka	-8906
▁potɗi	-8907
▁waɗɓe	-8908
▁ñalli	-8909
▁ñamri	-8910
▁ɗimmo	-8911
▁feeñii	-8912
▁ummini	-8913
▁ndewata	-8914
▁fuɗɗaade	-8915
▁jooɗaniiɗo	-8916
▁tinndinooje	-8917
,”	-8918
MS	-8919
TO	-8920
ob	-8921
fik	-8922
jee	-8923
ois	-8924
omp	-8925
woo	-8926
Ègy	-8927
ñii	-8928
bres	-8929
kaar	-8930
mocr	-8931
près	-8932
siiñ	-8933
▁Fal	-8934
▁Kun	-8935
▁Law	-8936
▁tuw	-8937
isant	-8938
▁2003	-8939
▁ALLA	-8940
▁Fere	-8941
▁JOOB	-8942
▁Rewi	-8943
▁cañu	-8944
▁jedd	-8945
▁kisa	-8946
▁mboo	-8947
▁stat	-8948
▁taay	-8949
▁Fanay	-8950
▁Jibir	-8951
▁Nehdi	-8952
▁Saale	-8953
▁certa	-8954
▁eehey	-8955
▁njeyi	-8956
▁tampi	-8957
▁their	-8958
▁uddii	-8959
▁wayla	-8960
▁waɗat	-8961
▁yetta	-8962
▁ƴettu	-8963
danaani	-8964
eenaari	-8965
▁feewni	-8966
▁gaador	-8967
▁gadani	-8968
▁lewlew	-8969
▁Mansuur	-8970
▁Tawreet	-8971
▁feññini	-8972
▁naamndi	-8973
▁ngontii	-8974
▁yimooɓe	-8975
▁beldital	-8976
▁deenoowo	-8977
▁juulirɗe	-8978
▁njiɗaano	-8979
▁renndude	-8980
▁soofaaji	-8981
▁woorunoo	-8982
▁wutteeji	-8983
ganisation	-8984
▁waɗtindii	-8985
▁ngenndiwal	-8986
▁jowitiingal	-8987
▁maccungaagu	-8988
▁Senegaalnaaɓe	-8989
▁ngañamtumaagu	-8990
bur	-8991
nis	-8992
uub	-8993
▁Ga	-8994
iimi	-8995
▁Sak	-8996
▁sek	-8997
irnde	-8998
ision	-8999
islam	-9000
▁addu	-9001
▁dewo	-9002
dingol	-9003
▁Kaŋko	-9004
▁cuwaa	-9005
▁Ɓiɓɓe	-9006
Nelaaɗo	-9007
▁Africa	-9008
▁fajiri	-9009
▁njaram	-9010
▁waɗtaa	-9011
hakkunde	-9012
ondirnoo	-9013
▁salmini	-9014
iyankeeɓe	-9015
▁dabbunde	-9016
▁facebook	-9017
▁kollirii	-9018
▁mawnugol	-9019
▁waraango	-9020
▁daarorgal	-9021
AJ	-9022
CR	-9023
mat	-9024
ulo	-9025
▁92	-9026
alaŋ	-9027
ngam	-9028
waan	-9029
▁Abi	-9030
▁Pat	-9031
▁amo	-9032
▁ben	-9033
▁deg	-9034
▁use	-9035
clusi	-9036
ruuji	-9037
▁NASA	-9038
▁hirs	-9039
▁jurm	-9040
▁ngom	-9041
▁njeh	-9042
▁njir	-9043
▁pacc	-9044
▁roŋk	-9045
▁scol	-9046
▁ñoot	-9047
aaraay	-9048
▁Iraan	-9049
▁Rojju	-9050
▁Siilo	-9051
▁agree	-9052
▁bamɗi	-9053
▁gasde	-9054
▁gumɗo	-9055
▁hoɓɓe	-9056
▁ident	-9057
▁jalba	-9058
▁meeɗa	-9059
▁ndegg	-9060
▁nelii	-9061
▁seydi	-9062
▁ŋoral	-9063
▁Piyeer	-9064
▁contre	-9065
▁faamii	-9066
▁naatnu	-9067
▁njahri	-9068
▁petroŋ	-9069
▁tampin	-9070
▁wayata	-9071
alifaaɓe	-9072
empeƴere	-9073
▁Aljumaa	-9074
▁Bakkaar	-9075
▁hettere	-9076
▁taweede	-9077
▁Caamaaba	-9078
▁faggaade	-9079
▁jaltugol	-9080
▁njeyaaka	-9081
▁nootaade	-9082
▁timmaani	-9083
▁timminde	-9084
▁tolniima	-9085
▁éducatif	-9086
▁Eskannder	-9087
▁ndewatnoo	-9088
▁warñeende	-9089
▁Hebbiyaaɓe	-9090
▁Sariyaawol	-9091
gon	-9092
ibb	-9093
loo	-9094
reb	-9095
▁ph	-9096
anto	-9097
seur	-9098
▁Asi	-9099
▁Yem	-9100
▁biɗ	-9101
▁ɓat	-9102
tawaa	-9103
titee	-9104
▁Waal	-9105
▁goow	-9106
▁njel	-9107
inooɗe	-9108
▁Bammb	-9109
▁ñebbe	-9110
andiral	-9111
▁Duunde	-9112
▁haandi	-9113
▁juutii	-9114
▁laatoo	-9115
▁cuɓaaɗo	-9116
▁kumaand	-9117
▁mbiyɗen	-9118
▁heɓtinde	-9119
▁sanndarm	-9120
▁Annabaaɓe	-9121
▁senerooji	-9122
▁wiyetenoo	-9123
▁Denndaangal	-9124
ية	-9125
▁É	-9126
NDE	-9127
fof	-9128
mad	-9129
été	-9130
▁8,	-9131
▁94	-9132
▁Be	-9133
▁né	-9134
añnj	-9135
nabu	-9136
oɗɗe	-9137
saar	-9138
ɗuum	-9139
▁108	-9140
▁Ask	-9141
▁Fit	-9142
▁Haf	-9143
▁Loh	-9144
▁dad	-9145
aareg	-9146
feero	-9147
gaaɓe	-9148
gella	-9149
indii	-9150
nagol	-9151
toren	-9152
tribu	-9153
▁1982	-9154
▁Tekr	-9155
▁diir	-9156
▁famɗ	-9157
▁incl	-9158
▁kaɓe	-9159
▁njed	-9160
▁njer	-9161
▁ɗaat	-9162
aatara	-9163
atonoo	-9164
iraaɗi	-9165
ndooje	-9166
▁Jaaba	-9167
▁Konsa	-9168
▁Septe	-9169
▁Sonng	-9170
▁faama	-9171
▁mbiir	-9172
▁saatu	-9173
▁ɗanle	-9174
andirde	-9175
banngoo	-9176
omotion	-9177
▁Weendu	-9178
▁njawdi	-9179
▁ɗaanii	-9180
▁Abdarah	-9181
▁celluka	-9182
▁gadiiɗe	-9183
▁jeyaaɗe	-9184
▁jumaaji	-9185
▁soldaat	-9186
▁Kereceen	-9187
▁culturel	-9188
▁majjaani	-9189
▁neldiino	-9190
▁njanngin	-9191
▁tawtoraa	-9192
▁tottiino	-9193
▁woppaani	-9194
▁————————	-9195
▁Sorimalee	-9196
▁apartaayd	-9197
▁janngaani	-9198
▁kumaandaŋ	-9199
▁waɗtannde	-9200
▁winndunoo	-9201
▁ñalawmaaji	-9202
▁yuurnitaade	-9203
▁ɓanndiraaɗo	-9204
▁mbayliigaaji	-9205
Ab	-9206
ity	-9207
▁93	-9208
ollo	-9209
oɗɗo	-9210
▁180	-9211
▁Kii	-9212
▁Ser	-9213
▁gan	-9214
deeɓe	-9215
▁...)	-9216
▁Pool	-9217
▁buur	-9218
▁cosi	-9219
▁jali	-9220
▁jalk	-9221
▁pele	-9222
▁raaɓ	-9223
▁supp	-9224
dduwaar	-9225
tondiri	-9226
▁duujal	-9227
▁firata	-9228
▁mbeewa	-9229
▁alkamisa	-9230
▁waasataa	-9231
▁yettinde	-9232
▁ɓallaade	-9233
▁Faraysenaaɓe	-9234
AY	-9235
TI	-9236
ike	-9237
lat	-9238
pos	-9239
ŋge	-9240
/11,	-9241
arte	-9242
isma	-9243
iɗaa	-9244
tiir	-9245
toya	-9246
▁Ale	-9247
▁Atl	-9248
▁RFI	-9249
▁Ros	-9250
▁esp	-9251
▁fok	-9252
▁Ɗal	-9253
golle	-9254
iyoom	-9255
▁----	-9256
▁2006	-9257
▁Mari	-9258
▁doom	-9259
▁kaɓa	-9260
▁masl	-9261
▁nims	-9262
▁weer	-9263
▁wuli	-9264
▁yima	-9265
tortoo	-9266
▁Bello	-9267
▁Demmb	-9268
▁Fonis	-9269
▁Saajo	-9270
▁biyɗo	-9271
▁effet	-9272
▁njuur	-9273
▁piɓle	-9274
▁ñakku	-9275
antooɓe	-9276
▁Baawɗo	-9277
▁encore	-9278
▁guurɗe	-9279
▁senndi	-9280
▁welnoo	-9281
Muritani	-9282
rançaise	-9283
▁Magaama	-9284
▁bonande	-9285
▁cikkata	-9286
▁control	-9287
▁heewnde	-9288
▁noddata	-9289
▁teddude	-9290
▁Kadijatu	-9291
▁Wagadugu	-9292
▁happande	-9293
▁mbaawata	-9294
▁neɗɗaŋke	-9295
▁Ɗaaluuta	-9296
----------	-9297
▁biyeteeɗe	-9298
▁dipiteeji	-9299
▁njettiima	-9300
▁Hamdallaay	-9301
▁tumarankooɓe	-9302
▁Muritaninaajo	-9303
▁x	-9304
esi	-9305
ɗoy	-9306
▁(7	-9307
▁7,	-9308
▁IB	-9309
▁Pa	-9310
▁gr	-9311
▁id	-9312
ding	-9313
jole	-9314
▁Dal	-9315
▁Des	-9316
▁Gaa	-9317
▁Gen	-9318
▁Pak	-9319
▁uni	-9320
Fedde	-9321
aamde	-9322
iingo	-9323
taire	-9324
▁1966	-9325
▁radi	-9326
▁woof	-9327
ndiiɓe	-9328
▁Aañam	-9329
▁kecce	-9330
▁njaak	-9331
▁sikka	-9332
▁arooɓe	-9333
▁lelnde	-9334
▁muuɗum	-9335
▁daneeje	-9336
▁jiyanɗe	-9337
▁jogaaki	-9338
▁tuugnii	-9339
-0	-9340
-18	-9341
IRE	-9342
aac	-9343
his	-9344
jen	-9345
▁Du	-9346
▁IS	-9347
Etat	-9348
akke	-9349
imaa	-9350
▁Alq	-9351
▁Ban	-9352
▁fis	-9353
▁koŋ	-9354
▁suɗ	-9355
▁yil	-9356
▁ñem	-9357
uding	-9358
ummbi	-9359
▁Fula	-9360
▁Kebe	-9361
▁Pete	-9362
▁doma	-9363
▁naan	-9364
▁siil	-9365
▁situ	-9366
igneur	-9367
manaam	-9368
▁2019,	-9369
▁Learn	-9370
▁Sammb	-9371
▁Seere	-9372
▁Uraan	-9373
▁barɗo	-9374
▁boowe	-9375
▁dokku	-9376
▁jeego	-9377
▁korɗo	-9378
▁laañe	-9379
▁mawki	-9380
▁mbaɗe	-9381
▁mbism	-9382
▁moins	-9383
▁monde	-9384
▁njana	-9385
▁ruɗti	-9386
▁wiris	-9387
▁Ñenng	-9388
▁ɗowde	-9389
ŋkaagal	-9390
▁Jawgel	-9391
▁cuusɗo	-9392
▁jiimde	-9393
▁jooɗɗi	-9394
▁muusde	-9395
▁nayaɓo	-9396
▁wattan	-9397
▁ɓurngo	-9398
ammbaaɓe	-9399
▁heɓiino	-9400
▁katojin	-9401
▁magooji	-9402
▁ngartir	-9403
▁siftora	-9404
ndoolaagu	-9405
▁Tengella	-9406
▁Yaakuuba	-9407
▁araaraay	-9408
▁tonngude	-9409
▁yillaade	-9410
▁ɓamtugol	-9411
▁ɓaɗambon	-9412
dépendance	-9413
▁Suleymaan	-9414
▁including	-9415
▁maandeeji	-9416
▁timmungal	-9417
▁ƴiiwoonde	-9418
▁continuing	-9419
▁yowitiinde	-9420
omb	-9421
wit	-9422
tawe	-9423
ƴƴii	-9424
▁Lah	-9425
▁ayb	-9426
bakar	-9427
gooto	-9428
tinɗi	-9429
▁Mboy	-9430
▁Ndaa	-9431
▁Peul	-9432
▁filñ	-9433
▁ware	-9434
▁hakil	-9435
▁ummoo	-9436
▁France	-9437
▁jamyam	-9438
▁janane	-9439
▁laaɓde	-9440
▁Afiriki	-9441
▁Helmere	-9442
▁waawnde	-9443
▁jannguɗo	-9444
▁njaltini	-9445
▁ndariindi	-9446
▁anndireede	-9447
%,	-9448
lah	-9449
ppa	-9450
wiy	-9451
kiis	-9452
olde	-9453
tete	-9454
undi	-9455
ɗoyi	-9456
▁Gal	-9457
▁Hoo	-9458
▁Tou	-9459
▁Yee	-9460
▁key	-9461
▁tek	-9462
antes	-9463
iyaŋk	-9464
ooroo	-9465
tatee	-9466
▁Aadi	-9467
▁Idir	-9468
▁Iisa	-9469
▁Jool	-9470
▁Mais	-9471
▁Sala	-9472
▁Teen	-9473
▁accu	-9474
▁boli	-9475
▁daro	-9476
▁himo	-9477
▁juko	-9478
▁laɓi	-9479
▁maɓɓ	-9480
▁paaw	-9481
▁Ɗiɗa	-9482
▁Barah	-9483
▁Kamar	-9484
▁Siiri	-9485
▁Trump	-9486
▁jooɗi	-9487
▁mbara	-9488
▁njeer	-9489
▁paabi	-9490
▁rewam	-9491
▁Hawwaa	-9492
▁caasam	-9493
▁daɗndu	-9494
▁droits	-9495
▁foksin	-9496
▁gaynii	-9497
▁huccit	-9498
▁konink	-9499
▁kunuɗe	-9500
▁lenyol	-9501
▁mbaree	-9502
▁naatti	-9503
▁ngacci	-9504
▁njetta	-9505
▁njiɗno	-9506
▁yettoo	-9507
________	-9508
▁Subalɓe	-9509
▁capaato	-9510
▁cereeli	-9511
▁dadiiɓe	-9512
▁fokkiti	-9513
▁hulaani	-9514
▁martaba	-9515
▁paatuɗe	-9516
▁sikkude	-9517
▁tataaji	-9518
▁teddini	-9519
▁Israyiil	-9520
▁Seigneur	-9521
▁fiyannde	-9522
▁jaajngal	-9523
▁keddiiɗo	-9524
▁miijinoo	-9525
▁seyɗaane	-9526
▁tataɓere	-9527
▁toowngal	-9528
▁waajuuji	-9529
▁ekkolaaji	-9530
▁woondoore	-9531
▁halfinaaɓe	-9532
▁sarɗiyeeji	-9533
▁warkoyeeɓe	-9534
▁kalfinaangal	-9535
hes	-9536
mas	-9537
alal	-9538
jour	-9539
uuɓe	-9540
▁Yet	-9541
▁not	-9542
iggal	-9543
▁1998	-9544
▁Mbaɗ	-9545
▁kors	-9546
▁ndonu	-9547
tinaama	-9548
tondira	-9549
▁adunay	-9550
▁joofni	-9551
▁kollira	-9552
▁mboomri	-9553
▁lollirde	-9554
An	-9555
OS	-9556
bas	-9557
baŋ	-9558
bit	-9559
nel	-9560
ɓur	-9561
ɗɗi	-9562
▁98	-9563
▁TV	-9564
▁ɓu	-9565
iiri	-9566
uuma	-9567
▁And	-9568
▁Baɗ	-9569
▁Bey	-9570
▁Eɗi	-9571
▁Jus	-9572
▁Sek	-9573
▁bid	-9574
▁jen	-9575
▁roi	-9576
▁sem	-9577
▁sig	-9578
▁ŋat	-9579
▁Ɓer	-9580
aasin	-9581
aawal	-9582
alité	-9583
atigi	-9584
doowo	-9585
guuli	-9586
▁1993	-9587
▁Dieu	-9588
▁donc	-9589
▁faaw	-9590
▁miñi	-9591
▁ngus	-9592
▁padd	-9593
▁ŋgel	-9594
agataa	-9595
andiri	-9596
caggal	-9597
ingiti	-9598
▁Balɗe	-9599
▁Looti	-9600
▁baɗɗi	-9601
▁ngono	-9602
▁pawɗi	-9603
▁podan	-9604
▁waaju	-9605
▁wuura	-9606
▁yahda	-9607
▁yiɗno	-9608
▁ňande	-9609
ateende	-9610
ranaaɓe	-9611
▁Hayiti	-9612
▁Sawuud	-9613
▁baŋnge	-9614
▁juɓɓin	-9615
▁laylay	-9616
▁maandi	-9617
▁mbaɗtu	-9618
▁njalta	-9619
▁njooɗi	-9620
iyoŋaaji	-9621
▁Ayyuuba	-9622
▁Saamori	-9623
▁Uraanus	-9624
▁aayeeji	-9625
▁gasirde	-9626
▁hoddiro	-9627
▁ittataa	-9628
▁kaawisa	-9629
▁manoore	-9630
▁naatata	-9631
▁ngaddii	-9632
▁tawaama	-9633
▁yonaani	-9634
▁ɓurngol	-9635
▁ciiñsiiñ	-9636
▁waawnude	-9637
▁njooɓaari	-9638
▁haaloyeede	-9639
ŋg	-9640
lal	-9641
ron	-9642
▁ƴi	-9643
▁Yar	-9644
▁dom	-9645
▁nus	-9646
▁ɓos	-9647
daaɗi	-9648
toɗen	-9649
wanii	-9650
▁Bene	-9651
▁Togo	-9652
ullaay	-9653
▁konun	-9654
▁pular	-9655
▁sella	-9656
▁sowoo	-9657
ibbaaji	-9658
tanooma	-9659
▁fodani	-9660
▁keewii	-9661
▁taccin	-9662
yankoore	-9663
▁Safalɓe	-9664
▁beetawe	-9665
▁gasataa	-9666
▁nguurdi	-9667
▁tellini	-9668
▁jaɓɓugol	-9669
▁Kodduwaar	-9670
▁jojjannde	-9671
▁keeringal	-9672
▁tiiɗnaare	-9673
▁ñawndugol	-9674
17	-9675
?»	-9676
lè	-9677
cla	-9678
hni	-9679
jey	-9680
mbu	-9681
nit	-9682
pon	-9683
▁5,	-9684
▁ɗa	-9685
ayee	-9686
indo	-9687
kono	-9688
lere	-9689
ribo	-9690
stru	-9691
uuri	-9692
▁Gum	-9693
▁HJA	-9694
▁Hen	-9695
▁Jog	-9696
▁Sur	-9697
▁tak	-9698
▁tiɗ	-9699
▁Ñaw	-9700
▁Ƴet	-9701
▁2002	-9702
▁asko	-9703
▁baaj	-9704
▁cili	-9705
▁njow	-9706
▁tafi	-9707
irooji	-9708
▁Aliiw	-9709
▁Fergo	-9710
▁Koode	-9711
▁Payɗi	-9712
▁Saada	-9713
▁annab	-9714
▁baage	-9715
▁caali	-9716
▁dammb	-9717
▁deƴƴi	-9718
▁ginol	-9719
▁hanti	-9720
▁hecci	-9721
▁hollu	-9722
▁paali	-9723
▁wonki	-9724
▁yalla	-9725
▁ñiiwa	-9726
▁ŋanaa	-9727
▁Ɓiɗɗo	-9728
issance	-9729
▁Kanaan	-9730
▁Niseer	-9731
▁dartii	-9732
▁enseig	-9733
▁haalda	-9734
▁heedan	-9735
▁pekaan	-9736
▁région	-9737
▁teskin	-9738
▁tiitor	-9739
▁welata	-9740
▁ɓadtii	-9741
ellement	-9742
▁koyeera	-9743
▁naneede	-9744
▁saɗtude	-9745
▁teɓɓite	-9746
▁wallita	-9747
▁wasiyii	-9748
▁gollordu	-9749
▁nanndude	-9750
▁njeetato	-9751
▁saakuuji	-9752
▁teskinde	-9753
▁Wikipedia	-9754
▁kiirɗeeli	-9755
▁tuugnorɗe	-9756
▁politiques	-9757
▁Ameriknaajo	-9758
kh	-9759
nen	-9760
▁ul	-9761
ctiv	-9762
▁pur	-9763
▁toŋ	-9764
▁ver	-9765
▁1986	-9766
▁Unes	-9767
▁jabb	-9768
▁poll	-9769
▁Jaloo	-9770
▁Seydu	-9771
▁Tammb	-9772
▁colte	-9773
▁toɗɗo	-9774
▁ƴefti	-9775
ɗinaani	-9776
▁Winndi	-9777
▁taarik	-9778
▁toowɗi	-9779
▁général	-9780
▁tokoosi	-9781
▁laamorde	-9782
▁ɗannaade	-9783
▁Seernaaɓe	-9784
▁binndoowo	-9785
▁teeŋtinii	-9786
▁hakilantaagal	-9787
ED	-9788
av	-9789
aji	-9790
cha	-9791
lig	-9792
mah	-9793
ôle	-9794
▁Co	-9795
hoor	-9796
itoy	-9797
otel	-9798
prés	-9799
▁FND	-9800
▁Oto	-9801
▁Sel	-9802
▁Tim	-9803
▁UFP	-9804
▁Uur	-9805
▁Wak	-9806
▁bii	-9807
▁but	-9808
▁pow	-9809
▁ñif	-9810
lites	-9811
▁Cooy	-9812
▁Haws	-9813
▁fiya	-9814
▁fran	-9815
▁kaso	-9816
▁laac	-9817
▁ndah	-9818
▁ngud	-9819
▁njib	-9820
▁pooy	-9821
▁sans	-9822
▁teeɗ	-9823
▁tirb	-9824
ndaagu	-9825
sadeer	-9826
tement	-9827
▁Booli	-9828
▁Manna	-9829
▁caafe	-9830
▁dogdu	-9831
▁heɓat	-9832
▁jolɗe	-9833
▁kawru	-9834
▁losko	-9835
▁lutti	-9836
aanngol	-9837
amadaan	-9838
ondiree	-9839
taneede	-9840
tunooɗo	-9841
▁Cellal	-9842
▁alɗude	-9843
▁jaayre	-9844
▁joofii	-9845
▁lesles	-9846
▁luulnd	-9847
▁ndokku	-9848
▁tiiɗɗo	-9849
▁Diiwaan	-9850
▁daneejo	-9851
▁farilla	-9852
▁hokkude	-9853
▁jaabtii	-9854
▁jaaƴnde	-9855
▁jaggude	-9856
▁kanngal	-9857
▁limtude	-9858
▁mbaasii	-9859
▁naamnoo	-9860
▁ñameele	-9861
▁moƴƴinde	-9862
▁ardinooɓe	-9863
▁lanndaaji	-9864
▁lillungal	-9865
▁yeeweende	-9866
▁ɗaminaade	-9867
▁ɗooftagol	-9868
▁portinngol	-9869
▁jaambureeɓe	-9870
).	-9871
)?	-9872
dul	-9873
val	-9874
▁07	-9875
aago	-9876
aamo	-9877
anal	-9878
bata	-9879
eeni	-9880
inan	-9881
▁bul	-9882
▁mul	-9883
timol	-9884
▁1981	-9885
▁Yurm	-9886
▁goro	-9887
▁hooy	-9888
iroowo	-9889
tirtee	-9890
▁kiram	-9891
▁maand	-9892
▁tacci	-9893
▁toɗɗe	-9894
▁ɗomka	-9895
tinooɓe	-9896
▁Lagine	-9897
▁Wonnoo	-9898
▁mbedda	-9899
▁penndi	-9900
▁suɓngo	-9901
▁taanum	-9902
yinaango	-9903
▁jiilgol	-9904
▁julaaɓe	-9905
▁ndoondi	-9906
▁njiidaa	-9907
▁ɓamtaade	-9908
▁haawnaade	-9909
▁kuuɓtidin	-9910
administration	-9911
MJ	-9912
Or	-9913
pl	-9914
▁ف	-9915
Won	-9916
fit	-9917
gii	-9918
ilo	-9919
sif	-9920
doos	-9921
uudo	-9922
▁Dee	-9923
▁Low	-9924
baare	-9925
booji	-9926
daata	-9927
niiɗe	-9928
ption	-9929
tatno	-9930
▁1983	-9931
▁2004	-9932
▁Adii	-9933
▁Buba	-9934
▁prom	-9935
▁sulɗ	-9936
▁ŋgal	-9937
▁ɗeŋƴ	-9938
eccere	-9939
otoɗen	-9940
▁Cukko	-9941
▁Jamaa	-9942
▁avril	-9943
▁buuɗi	-9944
▁cifti	-9945
▁ender	-9946
▁fawaa	-9947
▁jusqu	-9948
▁puɗɗo	-9949
▁recon	-9950
▁ɗaɓɓa	-9951
emmaaji	-9952
▁Juulde	-9953
▁Mboyna	-9954
▁baawɗi	-9955
▁dogata	-9956
▁jaɓɓii	-9957
▁keɓgol	-9958
▁mbildi	-9959
▁ndoogu	-9960
▁tellii	-9961
▁yeeɓde	-9962
▁ñaamii	-9963
▁firooji	-9964
▁jahoowo	-9965
▁muulngo	-9966
▁njuumri	-9967
▁tawaani	-9968
▁Buubakar	-9969
▁gaaraaji	-9970
▁gollirɗe	-9971
▁heddinoo	-9972
▁jogornoo	-9973
▁njiyaani	-9974
▁safrooɓe	-9975
▁saɗtunde	-9976
▁teddinde	-9977
▁teskaama	-9978
▁ɓurnooɓe	-9979
▁ɗiɗaɓere	-9980
▁Jaagorgal	-9981
▁ministeer	-9982
▁tekkeendi	-9983
▁kawgeluuji	-9984
▁ordinateer	-9985
▁expressions	-9986
RO	-9987
ɓu	-9988
00)	-9989
mit	-9990
nas	-9991
rah	-9992
Ɗum	-9993
▁EN	-9994
▁TO	-9995
bert	-9996
uyɓe	-9997
▁goy	-9998
▁pii	-9999
frica	-10000
hoowo	-10001
▁Komp	-10002
▁Uddi	-10003
▁cabb	-10004
▁vers	-10005
▁Dimat	-10006
▁Ebola	-10007
▁boomi	-10008
▁ittii	-10009
▁jojji	-10010
▁jolal	-10011
▁Binndi	-10012
▁Taariik	-10013
▁diskuur	-10014
▁gonduɗo	-10015
▁dammuwol	-10016
▁laaɓndal	-10017
▁yettaaki	-10018
▁yuumtude	-10019
▁kuutortoo	-10020
▁penndiɗam	-10021
▁Ɓooytaani	-10022
%)	-10023
-9	-10024
Aan	-10025
fen	-10026
gah	-10027
kol	-10028
lin	-10029
llu	-10030
uuf	-10031
▁Ex	-10032
▁Sp	-10033
olin	-10034
were	-10035
▁105	-10036
▁Aaɓ	-10037
▁Lee	-10038
▁rés	-10039
▁suk	-10040
▁éle	-10041
▁ñiɓ	-10042
ENNDI	-10043
niiɗi	-10044
oɗnde	-10045
yaŋke	-10046
ɗiiɗo	-10047
▁Fire	-10048
▁Laaɓ	-10049
▁Tuub	-10050
▁andi	-10051
▁dikk	-10052
▁hocc	-10053
▁janf	-10054
▁koom	-10055
▁soɓe	-10056
▁weet	-10057
▁ɓuuc	-10058
aataar	-10059
inooɗi	-10060
▁2006,	-10061
▁2020,	-10062
▁Batte	-10063
▁Jaara	-10064
▁bonni	-10065
▁gaawe	-10066
▁keddi	-10067
▁lugge	-10068
▁mbeey	-10069
▁rutto	-10070
▁ɓamta	-10071
▁ɓatak	-10072
▁ɓetde	-10073
▁COVIRE	-10074
▁Mawnde	-10075
▁eewnii	-10076
▁fonngo	-10077
▁nanndo	-10078
▁partic	-10079
▁piggal	-10080
▁statut	-10081
▁wattin	-10082
▁ñaagoo	-10083
▁ɓunndu	-10084
▁Haruuna	-10085
▁banndir	-10086
▁dahaaɓe	-10087
▁feccude	-10088
▁ganndir	-10089
▁kolonel	-10090
▁nayeeɓe	-10091
▁rokkiri	-10092
▁siyaara	-10093
▁ñalaaɗe	-10094
▁Français	-10095
▁Isinaaji	-10096
▁November	-10097
▁gummiiɗo	-10098
▁hormaade	-10099
▁jeddoowo	-10100
▁jippunde	-10101
▁njenanaa	-10102
▁waylaade	-10103
▁Fayndaare	-10104
▁binndital	-10105
▁gartirgol	-10106
▁nanndaani	-10107
▁gollodiiɓe	-10108
▁diiwaanuuji	-10109
11	-10110
On	-10111
cen	-10112
fon	-10113
ggi	-10114
sul	-10115
wah	-10116
ɓer	-10117
▁Pi	-10118
gila	-10119
itin	-10120
uuɗe	-10121
▁106	-10122
▁Fad	-10123
▁Gad	-10124
▁doc	-10125
▁Ɗow	-10126
istan	-10127
▁1988	-10128
▁Jigg	-10129
▁Kano	-10130
▁darj	-10131
▁hiiɗ	-10132
▁lepp	-10133
▁male	-10134
▁ummi	-10135
enaajo	-10136
▁Marok	-10137
▁darni	-10138
▁haasi	-10139
▁katoj	-10140
▁lummb	-10141
▁noddu	-10142
▁takki	-10143
▁tinde	-10144
▁ɓennd	-10145
▁ɓooya	-10146
minaare	-10147
▁arsike	-10148
▁haɓɓere	-10149
▁woondii	-10150
▁baɗnooɗi	-10151
▁haɓtaade	-10152
▁kaaletee	-10153
▁nehaande	-10154
▁waylaare	-10155
▁ɗaanaade	-10156
▁jowitiiɗo	-10157
To	-10158
ft	-10159
/12	-10160
dow	-10161
esh	-10162
hen	-10163
nji	-10164
▁FL	-10165
▁Fo	-10166
▁Pl	-10167
▁gé	-10168
-198	-10169
daar	-10170
emme	-10171
nées	-10172
oyre	-10173
seil	-10174
tran	-10175
Ƴeew	-10176
ƴeew	-10177
▁101	-10178
▁127	-10179
▁Bii	-10180
▁HCR	-10181
▁Jeŋ	-10182
▁Maj	-10183
▁ask	-10184
▁ŋab	-10185
addee	-10186
awuud	-10187
añool	-10188
bugol	-10189
duuji	-10190
yimɓe	-10191
ɗaagu	-10192
▁000)	-10193
▁Jeey	-10194
▁Jose	-10195
▁Kawr	-10196
▁Noon	-10197
▁daay	-10198
▁fadi	-10199
▁halj	-10200
▁haɓe	-10201
▁kaɗa	-10202
▁neeg	-10203
▁tunw	-10204
iroore	-10205
oŋaaji	-10206
▁Aasiy	-10207
▁Cette	-10208
▁Inndo	-10209
▁Terɗe	-10210
▁bewre	-10211
▁coñal	-10212
▁dunli	-10213
▁horde	-10214
▁kaang	-10215
atnooɗe	-10216
▁bommbo	-10217
▁heerto	-10218
▁korsin	-10219
▁koɗnoo	-10220
▁mbayla	-10221
▁tabiti	-10222
▁waklit	-10223
▁wonndu	-10224
▁yiytaa	-10225
▁Ɓeeɗoo	-10226
▁ɓamtii	-10227
▁ɗiɗmal	-10228
▁Dillere	-10229
▁Dumunna	-10230
▁Hankadi	-10231
▁Siñcaan	-10232
▁kulhuli	-10233
▁lelorii	-10234
▁nanaani	-10235
▁salligi	-10236
▁waraaɓe	-10237
▁wareede	-10238
▁yonaaɓe	-10239
mauritani	-10240
▁Aasiyata	-10241
▁Daawalel	-10242
▁njogoram	-10243
▁présente	-10244
▁waɗnooɓe	-10245
▁ndonaandi	-10246
▁ngoɗɗeeki	-10247
▁doktoreeɓe	-10248
▁banndiraaɗo	-10249
▁seedanteeje	-10250
▁goongɗinaani	-10251
De	-10252
bor	-10253
inc	-10254
loy	-10255
way	-10256
ɗɓe	-10257
▁MA	-10258
ubaa	-10259
uɗam	-10260
▁huɗ	-10261
▁jur	-10262
▁net	-10263
▁rég	-10264
▁tow	-10265
▁Saab	-10266
▁dime	-10267
▁teey	-10268
▁Balde	-10269
▁haɗii	-10270
▁korse	-10271
▁nanɗe	-10272
▁ndoga	-10273
▁waasi	-10274
▁Jibril	-10275
▁Unesco	-10276
▁banndi	-10277
▁mballa	-10278
▁Kabaaru	-10279
▁jaangol	-10280
▁ndonkii	-10281
▁tokoson	-10282
▁yawaare	-10283
▁danndude	-10284
▁hulɓinaade	-10285
▁sikkitaare	-10286
Yoo	-10287
tun	-10288
nati	-10289
▁103	-10290
▁waa	-10291
▁ɓir	-10292
aient	-10293
idima	-10294
ndeen	-10295
togal	-10296
tudes	-10297
▁Bani	-10298
▁Pasi	-10299
▁Wuur	-10300
▁artu	-10301
▁asli	-10302
▁fuŋŋ	-10303
▁kiin	-10304
▁tami	-10305
▁Ñeeñ	-10306
▁ñeem	-10307
▁ŋari	-10308
▁Ɗiɗi	-10309
amment	-10310
ctobre	-10311
itooɓe	-10312
ɗungal	-10313
▁2018,	-10314
▁Gabon	-10315
▁Sawru	-10316
▁bajjo	-10317
▁dewle	-10318
▁finnd	-10319
▁jaaɓe	-10320
▁kippu	-10321
▁milli	-10322
▁moƴƴu	-10323
▁naang	-10324
▁ngann	-10325
▁ngeel	-10326
▁yotti	-10327
▁ñawɓe	-10328
▁ɗuuɓi	-10329
ooruuji	-10330
▁Gidima	-10331
▁Pullar	-10332
▁années	-10333
▁artuɓe	-10334
▁mbaalu	-10335
▁mbaraa	-10336
▁représ	-10337
▁salndu	-10338
▁tottaa	-10339
▁ñaamdu	-10340
▁ƴeewnd	-10341
nguraagu	-10342
▁Nelaaɓe	-10343
▁catiiɗe	-10344
▁ceedtii	-10345
▁jarribo	-10346
▁tagoodi	-10347
▁yamiraa	-10348
▁ɓennuɗo	-10349
▁Ciftinen	-10350
▁Maawiyya	-10351
▁dentitee	-10352
▁pergitte	-10353
▁haawnaaki	-10354
▁jokkondir	-10355
▁ngoodaani	-10356
▁maamiraaɓe	-10357
cs	-10358
qa	-10359
▁„	-10360
Far	-10361
tuu	-10362
uss	-10363
▁Gi	-10364
adis	-10365
haal	-10366
kaal	-10367
▁Wer	-10368
▁kad	-10369
▁lan	-10370
Leydi	-10371
▁1979	-10372
▁Juko	-10373
▁Samb	-10374
▁ardo	-10375
▁cank	-10376
▁parl	-10377
▁part	-10378
▁sopp	-10379
▁Korse	-10380
▁Maama	-10381
▁Sayko	-10382
▁Wolde	-10383
▁daran	-10384
▁daɗde	-10385
▁mbeɗu	-10386
▁Ñooro	-10387
▁barkin	-10388
▁etiima	-10389
▁majjam	-10390
▁ngaddu	-10391
▁peeñɗi	-10392
▁yaakor	-10393
▁darnude	-10394
▁joganii	-10395
▁ɓiyngel	-10396
sociation	-10397
▁kawrital	-10398
▁laamorɗo	-10399
▁nannduɗe	-10400
▁ndewaani	-10401
▁njiylawu	-10402
▁Abuubakri	-10403
▁haɓanaade	-10404
▁kumpitiiɗo	-10405
LE	-10406
UM	-10407
rê	-10408
Eey	-10409
QMI	-10410
chi	-10411
cop	-10412
fox	-10413
abat	-10414
aŋki	-10415
irno	-10416
luɓe	-10417
péci	-10418
tono	-10419
▁(4)	-10420
▁7:1	-10421
▁Lig	-10422
▁Tuw	-10423
▁huk	-10424
▁soñ	-10425
...),	-10426
baabi	-10427
leuve	-10428
makko	-10429
ngɗin	-10430
teeri	-10431
teurs	-10432
▁ceux	-10433
▁damp	-10434
▁fiyi	-10435
▁juin	-10436
▁kaaɓ	-10437
▁mbiɗ	-10438
▁ques	-10439
▁util	-10440
▁ñaml	-10441
ataaki	-10442
bballo	-10443
ilaaji	-10444
ndoogo	-10445
oreeje	-10446
tugeec	-10447
▁Aksum	-10448
▁Bakar	-10449
▁Cerno	-10450
▁Farba	-10451
▁Medda	-10452
▁Siise	-10453
▁Weeyo	-10454
▁duumo	-10455
▁haray	-10456
▁hesɗi	-10457
▁kural	-10458
▁marsa	-10459
▁memii	-10460
▁muuyn	-10461
▁ndaɓɓ	-10462
▁nimsa	-10463
▁njoli	-10464
▁roond	-10465
▁wonda	-10466
▁ñaagu	-10467
▁ŋguur	-10468
▁ɓowɗi	-10469
anngaan	-10470
▁Risaar	-10471
▁daraja	-10472
▁dunndu	-10473
▁islaam	-10474
▁manngu	-10475
▁mbaɗdi	-10476
▁mbiyee	-10477
▁meccal	-10478
▁permet	-10479
▁winndu	-10480
▁ƴeewee	-10481
▁ƴettaa	-10482
▁ɓuuɓri	-10483
▁Aysetta	-10484
▁Ceniiɗo	-10485
▁anndina	-10486
▁cagataa	-10487
▁garoowo	-10488
▁halfini	-10489
▁jogiino	-10490
▁keewgol	-10491
▁mawnina	-10492
▁mbinnda	-10493
▁mesures	-10494
▁newiiɗo	-10495
▁ngarata	-10496
▁njeewti	-10497
▁njoorto	-10498
▁pesooɗe	-10499
▁siraaji	-10500
▁sooynii	-10501
▁travers	-10502
▁waɗataa	-10503
▁yiytere	-10504
▁ɓinngel	-10505
▁Mbaroodi	-10506
▁hijjoore	-10507
▁jontaaɗo	-10508
▁njeyanoo	-10509
▁nduttiima	-10510
▁promotion	-10511
▁ƴellitgol	-10512
▁Niiseriyaa	-10513
▁Persanaaɓe	-10514
▁Mooɓondiral	-10515
▁mbiyeteendi	-10516
ût	-10517
▁&	-10518
ida	-10519
kat	-10520
wde	-10521
aaso	-10522
aram	-10523
otti	-10524
▁Kee	-10525
notoo	-10526
tirɗi	-10527
▁Boli	-10528
▁gowl	-10529
▁jaka	-10530
▁taab	-10531
africa	-10532
ndiiɗo	-10533
▁Ndiin	-10534
▁hesɓe	-10535
▁jaɓɓe	-10536
▁kaani	-10537
▁kañje	-10538
ɗemngal	-10539
▁Bannge	-10540
▁boombi	-10541
▁ceernd	-10542
▁janngu	-10543
▁seernd	-10544
▁weltin	-10545
▁yottoo	-10546
▁ɗaɓɓit	-10547
▁huutorii	-10548
▁jooɗiiɗo	-10549
▁kaalaten	-10550
▁mbinndii	-10551
▁jibinaama	-10552
▁mbiyatnoo	-10553
▁yankinaare	-10554
IY	-10555
”;	-10556
ayo	-10557
lik	-10558
nim	-10559
nor	-10560
poo	-10561
sig	-10562
the	-10563
équ	-10564
▁(8	-10565
▁04	-10566
▁ef	-10567
Joom	-10568
Laam	-10569
alli	-10570
alon	-10571
ates	-10572
bali	-10573
crit	-10574
iter	-10575
onon	-10576
ress	-10577
▁Lem	-10578
▁Mat	-10579
▁Mos	-10580
▁Pré	-10581
▁Tuf	-10582
▁Yiy	-10583
▁ass	-10584
▁cub	-10585
▁git	-10586
anndo	-10587
irmis	-10588
nduko	-10589
taano	-10590
tanee	-10591
ɗunoo	-10592
▁beew	-10593
▁bien	-10594
▁jaak	-10595
▁jogg	-10596
▁memi	-10597
▁mise	-10598
▁wost	-10599
aamuya	-10600
ayngol	-10601
cience	-10602
▁1989,	-10603
▁Bojel	-10604
▁Ligis	-10605
▁Tagɗo	-10606
▁ballo	-10607
▁cikka	-10608
▁conna	-10609
▁fiyde	-10610
▁kewde	-10611
▁koɗor	-10612
▁lepte	-10613
▁moƴƴa	-10614
▁ngasi	-10615
▁tolni	-10616
▁tooñi	-10617
▁ñaawa	-10618
ammbele	-10619
▁Dakaar	-10620
▁Ecoppi	-10621
▁Tafsir	-10622
▁aroore	-10623
▁burgal	-10624
▁depuis	-10625
▁hawraa	-10626
▁mooɓre	-10627
▁moƴƴol	-10628
▁ndaroo	-10629
▁Jalluɗi	-10630
▁NGENNDI	-10631
▁Pasifik	-10632
▁baraaɗo	-10633
▁caɗtuɗe	-10634
▁eɓɓooje	-10635
▁funeere	-10636
▁harmini	-10637
▁jiiduɓe	-10638
▁kolaaɗe	-10639
▁mettude	-10640
▁semmbol	-10641
▁soninké	-10642
▁ɗamaawu	-10643
▁Juulirde	-10644
▁compugol	-10645
▁constitu	-10646
▁duttorɗe	-10647
▁fonction	-10648
▁jiidaani	-10649
▁mawneeki	-10650
▁ofiseeji	-10651
▁rokkunoo	-10652
▁ruɗtaade	-10653
▁Sileymaan	-10654
▁denndaaɗo	-10655
▁gooŋɗinde	-10656
▁jaaltaaɓe	-10657
▁ndeenaagu	-10658
▁waɗtandii	-10659
▁cakkitiiɗo	-10660
▁humpitooji	-10661
▁nootitaade	-10662
▁officielle	-10663
▁peccitagol	-10664
▁ƴeewtindii	-10665
indépendance	-10666
▁demokarasii	-10667
▁laamuyankooje	-10668
▁ordinateeruuji	-10669
ds	-10670
kum	-10671
mos	-10672
▁But	-10673
▁adi	-10674
▁gii	-10675
enndi	-10676
▁1959	-10677
▁1984	-10678
▁John	-10679
▁Wele	-10680
▁hipp	-10681
▁koɓe	-10682
▁lorl	-10683
▁puis	-10684
▁ɓolo	-10685
▁Dakar	-10686
▁Leƴƴi	-10687
▁fecci	-10688
▁nehde	-10689
▁servi	-10690
▁suuɗu	-10691
▁taƴii	-10692
fesseur	-10693
▁feccii	-10694
▁fooɓre	-10695
▁waasii	-10696
▁ñaamee	-10697
▁juutnde	-10698
▁sellude	-10699
▁woɗeere	-10700
▁njiyataa	-10701
▁sarwisaaji	-10702
45	-10703
:”	-10704
mé	-10705
AAS	-10706
ADH	-10707
FAN	-10708
Jam	-10709
Nst	-10710
ade	-10711
eux	-10712
jan	-10713
ƴel	-10714
ƴre	-10715
▁;–	-10716
▁Gh	-10717
▁وَ	-10718
alas	-10719
erem	-10720
irdi	-10721
luud	-10722
orat	-10723
▁107	-10724
▁Dec	-10725
▁ans	-10726
▁hut	-10727
Iisaa	-10728
cours	-10729
iques	-10730
irgel	-10731
ninde	-10732
uusaa	-10733
▁2001	-10734
▁Arti	-10735
▁Kump	-10736
▁Luuɗ	-10737
▁heɓe	-10738
▁jiir	-10739
▁kees	-10740
▁nann	-10741
▁nask	-10742
▁nduŋ	-10743
▁orop	-10744
▁rupp	-10745
▁tawe	-10746
▁taƴe	-10747
▁wide	-10748
▁ƴaañ	-10749
inooji	-10750
jobere	-10751
sameen	-10752
élites	-10753
▁2016,	-10754
▁Morso	-10755
▁aador	-10756
▁baafe	-10757
▁celui	-10758
▁foɗde	-10759
▁kumpa	-10760
▁kurum	-10761
▁liɓde	-10762
▁newii	-10763
▁spéci	-10764
▁woŋki	-10765
▁yooro	-10766
▁Keytaa	-10767
▁Paamen	-10768
▁Seeɗto	-10769
▁Wilyam	-10770
▁accude	-10771
▁anndee	-10772
▁caalli	-10773
▁compte	-10774
▁damuɗe	-10775
▁jaɓɓal	-10776
▁jeynoo	-10777
▁mbiyno	-10778
▁ngaraa	-10779
▁uddude	-10780
publique	-10781
yaŋkooɓe	-10782
▁gonaaɗo	-10783
▁jibinta	-10784
▁kollita	-10785
▁mbinndu	-10786
▁membres	-10787
▁momtude	-10788
▁muritan	-10789
▁naatani	-10790
▁nanngam	-10791
▁ngaldaa	-10792
▁tefoore	-10793
▁waɗanaa	-10794
---------	-10795
aggitorde	-10796
formation	-10797
▁buubaaji	-10798
▁huutoroo	-10799
▁njaatigi	-10800
▁paamaani	-10801
▁safrirde	-10802
▁sankaare	-10803
▁taaraade	-10804
▁weltaade	-10805
▁Hurayrata	-10806
▁September	-10807
▁ndimaangu	-10808
▁sadakeeji	-10809
▁wempeƴere	-10810
▁almudaagal	-10811
▁mawniraaɗo	-10812
▁tawtoraaɓe	-10813
▁Ñenngotooɗo	-10814
▁hakkillantaagal	-10815
fal	-10816
opi	-10817
▁ƴe	-10818
ahaa	-10819
tano	-10820
▁Med	-10821
▁huy	-10822
abare	-10823
angel	-10824
awere	-10825
illet	-10826
inira	-10827
nduɗo	-10828
tinɗo	-10829
tirii	-10830
▁Yumm	-10831
▁muur	-10832
▁njoɗ	-10833
▁sabb	-10834
▁sare	-10835
▁teen	-10836
▁wele	-10837
ograph	-10838
tintaa	-10839
ulfule	-10840
▁Jaloŋ	-10841
▁njaat	-10842
▁awooɓe	-10843
▁siyaas	-10844
▁jawtuɗe	-10845
▁golloowo	-10846
▁hulɓinii	-10847
▁pellitii	-10848
▁wonannde	-10849
▁yaltunde	-10850
▁tiiɗtinde	-10851
▁Jokkondiral	-10852
irs	-10853
lla	-10854
raf	-10855
yan	-10856
▁(“	-10857
▁NJ	-10858
▁Ur	-10859
▁ew	-10860
▁sh	-10861
▁Ŋg	-10862
-201	-10863
YMAM	-10864
asiŋ	-10865
hing	-10866
iron	-10867
▁Dañ	-10868
▁Mek	-10869
▁Sos	-10870
▁ɓoo	-10871
Tooro	-10872
aanoo	-10873
aaske	-10874
baaba	-10875
uudɓe	-10876
ɗinaa	-10877
▁Guin	-10878
▁Haaj	-10879
▁Hoor	-10880
▁Sers	-10881
▁Tesk	-10882
▁Tuma	-10883
▁cink	-10884
▁cipp	-10885
▁duƴƴ	-10886
▁fekk	-10887
▁jool	-10888
▁mily	-10889
Caggal	-10890
aaynde	-10891
ateeji	-10892
tiques	-10893
yeewal	-10894
▁Gaawo	-10895
▁Sokna	-10896
▁Tonng	-10897
▁gorol	-10898
▁haaji	-10899
▁jenng	-10900
▁koyɗi	-10901
▁ngujj	-10902
▁njara	-10903
▁temps	-10904
▁tiiɗa	-10905
▁ɓurno	-10906
inoonde	-10907
▁Aaɓnde	-10908
▁Martin	-10909
▁fondam	-10910
▁mbarii	-10911
▁njiyaa	-10912
▁njogoo	-10913
▁porfes	-10914
▁propos	-10915
▁waalde	-10916
▁yooɓii	-10917
Institut	-10918
entation	-10919
hooreejo	-10920
inguisme	-10921
▁binndir	-10922
▁deƴƴere	-10923
▁gulaali	-10924
▁haalana	-10925
▁joofnde	-10926
▁kanndaa	-10927
▁kaɗooje	-10928
▁mballit	-10929
▁ngulɗam	-10930
▁penoowo	-10931
▁yaaccii	-10932
▁ñamaale	-10933
▁Ɗumɗoon	-10934
▁heerorii	-10935
▁laɓɓinde	-10936
▁ummortoo	-10937
▁waajaade	-10938
▁waawnere	-10939
▁wallifii	-10940
▁addanaani	-10941
▁faamamuya	-10942
▁halifaaɓe	-10943
▁joofnirde	-10944
▁limotaako	-10945
▁particuli	-10946
▁goodaangal	-10947
▁laawɗingol	-10948
▁laaɓtungal	-10949
▁mbirniindi	-10950
▁teskuyaaji	-10951
▁kanndidaaji	-10952
▁maantiniiɗe	-10953
27	-10954
ze	-10955
▁179	-10956
▁Aar	-10957
▁Fen	-10958
▁Ken	-10959
▁iwi	-10960
▁yur	-10961
diral	-10962
fedde	-10963
école	-10964
▁edda	-10965
▁tumm	-10966
▁ñamm	-10967
noongu	-10968
tugaal	-10969
wahili	-10970
▁Gambi	-10971
▁Jalon	-10972
▁bayɗo	-10973
▁leele	-10974
▁nandi	-10975
▁waajo	-10976
▁ɓuraa	-10977
▁caaɗli	-10978
▁soomii	-10979
▁Ñalngu	-10980
▁ɗamtin	-10981
aasaande	-10982
▁feññina	-10983
▁gollata	-10984
▁Atlantik	-10985
▁Kaaliidu	-10986
▁seppooɓe	-10987
▁toɗɗagol	-10988
▁njeenaaje	-10989
MP	-10990
ac	-10991
▁أ	-10992
/02	-10993
AIR	-10994
aŋe	-10995
pli	-10996
rak	-10997
rat	-10998
vid	-10999
▁(9	-11000
▁08	-11001
▁nu	-11002
▁»)	-11003
ered	-11004
inat	-11005
kete	-11006
rale	-11007
ruɓe	-11008
▁(14	-11009
▁109	-11010
▁13,	-11011
▁144	-11012
▁Bud	-11013
▁Nje	-11014
▁Sis	-11015
▁gam	-11016
▁jeñ	-11017
▁teŋ	-11018
dirii	-11019
dorde	-11020
eeson	-11021
eriya	-11022
liigu	-11023
▁1975	-11024
▁AQMI	-11025
▁Timm	-11026
▁fusi	-11027
▁gabb	-11028
▁hecc	-11029
▁muɓɓ	-11030
▁pama	-11031
▁sete	-11032
▁telɓ	-11033
▁yari	-11034
▁ɗowa	-11035
anngel	-11036
anngol	-11037
▁Hafsa	-11038
▁Mansa	-11039
▁Neere	-11040
▁Yiɗde	-11041
▁Yonta	-11042
▁demal	-11043
▁fekin	-11044
▁moolo	-11045
▁ngoop	-11046
▁yaama	-11047
▁ɓamde	-11048
▁ɓeydu	-11049
▁Magreb	-11050
▁Raasin	-11051
▁annama	-11052
▁defter	-11053
▁engele	-11054
▁habrii	-11055
▁kaaɗoo	-11056
▁lomtoo	-11057
▁moolii	-11058
▁princi	-11059
▁suuɗde	-11060
▁weeɓde	-11061
ondirgol	-11062
▁abbitii	-11063
▁bonoore	-11064
▁fewjude	-11065
▁heɓitii	-11066
▁mbaɗana	-11067
▁mbunndi	-11068
▁nduttoo	-11069
▁seertii	-11070
▁wiyaani	-11071
▁Arabeere	-11072
▁Gidimaka	-11073
▁Idiriisa	-11074
▁Laatiima	-11075
▁Manngaan	-11076
▁cafroowo	-11077
▁firtaare	-11078
▁mettunde	-11079
▁ngaraani	-11080
▁wiyatnoo	-11081
▁Sagataaɓe	-11082
▁jaaynoowo	-11083
▁safaruuji	-11084
▁takkusaan	-11085
▁Afriknaajo	-11086
▁Israélites	-11087
▁aljannaaji	-11088
▁ballifanɗe	-11089
▁gollotooɗo	-11090
▁mbaawkaaji	-11091
▁puŋŋaniiɗo	-11092
▁yuɓɓineede	-11093
▁populations	-11094
▁sosiyateeji	-11095
▁humambinnaagu	-11096
4-	-11097
sat	-11098
▁Ru	-11099
atam	-11100
▁Are	-11101
▁Egg	-11102
▁bah	-11103
▁ged	-11104
ambar	-11105
deeji	-11106
▁beel	-11107
▁ngur	-11108
▁peul	-11109
▁seɓɓ	-11110
▁ɓadi	-11111
▁leñƴi	-11112
aawoore	-11113
▁Gannde	-11114
▁africa	-11115
▁duumii	-11116
▁giɗgol	-11117
▁meeɗen	-11118
▁recher	-11119
▁takkii	-11120
▁Adamawa	-11121
▁darinoo	-11122
▁ummotoo	-11123
▁Yurmeende	-11124
▁fitinaaji	-11125
▁française	-11126
▁yeewtidde	-11127
▁Bayyinaango	-11128
35	-11129
:5	-11130
La	-11131
ALL	-11132
mee	-11133
ona	-11134
ɗel	-11135
▁4)	-11136
▁vé	-11137
MAWM	-11138
addi	-11139
aman	-11140
eero	-11141
gaas	-11142
mata	-11143
orko	-11144
oñce	-11145
sidé	-11146
tent	-11147
uvre	-11148
▁Aaw	-11149
▁Met	-11150
▁dos	-11151
▁fan	-11152
▁fes	-11153
▁moɓ	-11154
▁nga	-11155
▁pij	-11156
▁vie	-11157
▁ƴer	-11158
ONADH	-11159
aasul	-11160
istes	-11161
ndiri	-11162
▁Geec	-11163
▁Mina	-11164
▁Sunj	-11165
▁Yaag	-11166
▁beey	-11167
▁endu	-11168
▁jejj	-11169
▁kakk	-11170
▁kebb	-11171
▁kepp	-11172
▁kocc	-11173
▁laan	-11174
▁pres	-11175
▁priv	-11176
▁rais	-11177
▁regg	-11178
▁siiɓ	-11179
▁Ñaan	-11180
▁ñakk	-11181
aadiri	-11182
areeji	-11183
niinde	-11184
oraaki	-11185
unaaɓe	-11186
vembre	-11187
▁Jibin	-11188
▁Mbaay	-11189
▁cadre	-11190
▁hadis	-11191
▁hokku	-11192
▁jinnd	-11193
▁jokka	-11194
▁kawle	-11195
▁memde	-11196
▁nodde	-11197
▁organ	-11198
▁yeeya	-11199
▁ñaago	-11200
▁ŋabbi	-11201
▁ɗacci	-11202
aanaaɓe	-11203
ptembre	-11204
uftodin	-11205
▁ayaawo	-11206
▁buuɗal	-11207
▁classe	-11208
▁compos	-11209
▁hellif	-11210
▁huufde	-11211
▁innama	-11212
▁ngaree	-11213
▁waawno	-11214
▁waɗana	-11215
▁woondi	-11216
▁woɗngo	-11217
otonooɗo	-11218
▁Maccuɗo	-11219
▁jooɗtor	-11220
▁kasooji	-11221
▁laaɓndi	-11222
▁mbaynii	-11223
▁nattude	-11224
▁paatuɗi	-11225
▁piyanɗe	-11226
▁sompude	-11227
▁taccude	-11228
▁Eɓɓaande	-11229
▁Konostan	-11230
▁mbaraama	-11231
▁wonirnoo	-11232
▁yeeyooɓe	-11233
▁yooltude	-11234
▁Ferederik	-11235
▁daraniiɗo	-11236
▁jeertinde	-11237
▁njooɗndam	-11238
▁tonngooɗe	-11239
▁tooweendi	-11240
▁wullitaade	-11241
▁communautés	-11242
▁jaayndiyanke	-11243
▁International	-11244
16	-11245
kw	-11246
إِ	-11247
ola	-11248
oût	-11249
Afri	-11250
aadu	-11251
emaa	-11252
star	-11253
▁Nor	-11254
▁Tah	-11255
▁ngi	-11256
diiɗe	-11257
eewte	-11258
▁Adun	-11259
▁Lond	-11260
▁paas	-11261
▁wayn	-11262
aneeji	-11263
▁Hasan	-11264
▁bammb	-11265
▁hannd	-11266
▁harmi	-11267
▁wulde	-11268
▁Heewii	-11269
▁gaadan	-11270
▁weetii	-11271
▁tawataa	-11272
▁Jojjanɗe	-11273
▁duumaade	-11274
▁gonnooɗe	-11275
▁halkaare	-11276
▁siftinii	-11277
▁huutortoo	-11278
▁wuurnooɓe	-11279
▁Abdullaahi	-11280
▁sikkitaade	-11281
:6	-11282
TT	-11283
▁’	-11284
/11	-11285
Eeh	-11286
bay	-11287
bnu	-11288
ikh	-11289
pre	-11290
ñci	-11291
▁!!	-11292
▁Ed	-11293
▁Sy	-11294
▁va	-11295
Geno	-11296
Kaal	-11297
afik	-11298
duit	-11299
eret	-11300
illo	-11301
inte	-11302
irka	-11303
ɗata	-11304
▁Acc	-11305
▁App	-11306
▁Jim	-11307
▁Nee	-11308
▁Tor	-11309
▁bit	-11310
▁nda	-11311
▁ɗuh	-11312
illaa	-11313
nokku	-11314
uvent	-11315
ɗungu	-11316
▁1958	-11317
▁1985	-11318
▁Gite	-11319
▁caam	-11320
▁diim	-11321
▁haak	-11322
▁joow	-11323
▁koow	-11324
▁mant	-11325
▁post	-11326
▁quel	-11327
▁sari	-11328
▁siin	-11329
▁siŋk	-11330
▁wiis	-11331
▁woya	-11332
▁yamm	-11333
itiiɗi	-11334
itions	-11335
ndiyam	-11336
▁2005,	-11337
▁2017,	-11338
▁ANAIR	-11339
▁Ardii	-11340
▁Firti	-11341
▁Gaajo	-11342
▁Jamsa	-11343
▁Jiggo	-11344
▁arnoo	-11345
▁garde	-11346
▁goote	-11347
▁haang	-11348
▁mahaa	-11349
▁ngoya	-11350
▁niɓɓe	-11351
▁pekin	-11352
▁Ɓokki	-11353
▁Ɗiiña	-11354
ination	-11355
inoongu	-11356
▁Belsik	-11357
▁Fuladu	-11358
▁Gollal	-11359
▁Jagana	-11360
▁Janngo	-11361
▁Kawral	-11362
▁Subaka	-11363
▁harmin	-11364
▁jaggii	-11365
▁maayat	-11366
▁mbelto	-11367
▁njahaa	-11368
▁njaltu	-11369
▁peewɗe	-11370
Senegaal	-11371
anngeeji	-11372
▁Esparta	-11373
▁Naamnal	-11374
▁Niijeer	-11375
▁Sabaabu	-11376
▁bonaani	-11377
▁lolliri	-11378
▁mbaɗiri	-11379
▁ɗawaaɓe	-11380
▁Sunjatta	-11381
▁addantaa	-11382
▁faamaani	-11383
▁keefeero	-11384
▁mahdiiji	-11385
▁nguurnoo	-11386
▁tottaaɓe	-11387
▁Asaambele	-11388
▁fooftorde	-11389
▁janngeede	-11390
▁karwasaad	-11391
▁ngaadaata	-11392
▁ngonkaaji	-11393
▁njottiima	-11394
▁ɓurtungol	-11395
▁Kumpitiiɗo	-11396
▁naamndaade	-11397
▁woodanaani	-11398
▁yejjitaani	-11399
▁Atensanaaɓe	-11400
▁naalaŋkaagal	-11401
bir	-11402
mbi	-11403
tus	-11404
ume	-11405
éli	-11406
▁Et	-11407
▁Ku	-11408
▁(20	-11409
▁110	-11410
▁178	-11411
▁202	-11412
▁Fin	-11413
▁Gol	-11414
▁ONU	-11415
▁Soo	-11416
▁emp	-11417
emmbu	-11418
jooni	-11419
ƴƴere	-11420
▁bana	-11421
▁fere	-11422
▁kesu	-11423
▁ngiw	-11424
▁sugu	-11425
▁ƴakk	-11426
anndam	-11427
▁baɗal	-11428
▁diiwe	-11429
▁holko	-11430
▁kooti	-11431
▁muudo	-11432
▁njima	-11433
▁rewni	-11434
▁tagii	-11435
itation	-11436
▁Kaasam	-11437
▁juutɗe	-11438
▁leeɓol	-11439
▁yiɗiri	-11440
▁celluɗo	-11441
▁lolluɗo	-11442
▁tottude	-11443
▁walliti	-11444
▁yahooɓe	-11445
▁jooɗiiɓe	-11446
▁naatataa	-11447
▁wallitii	-11448
▁Apartaayd	-11449
▁giƴiraaɓe	-11450
▁maantinɗe	-11451
▁yaajeende	-11452
▁Hiirnaange	-11453
▁pooɗondiral	-11454
OR	-11455
Si	-11456
▁ل	-11457
AAM	-11458
AMM	-11459
ERE	-11460
PAD	-11461
TAA	-11462
kan	-11463
ngi	-11464
née	-11465
tik	-11466
Ɗoo	-11467
▁Ut	-11468
inik	-11469
ñere	-11470
▁104	-11471
▁Che	-11472
▁Fow	-11473
▁Giɗ	-11474
▁Ily	-11475
▁Jen	-11476
▁Jet	-11477
▁PUL	-11478
▁Umm	-11479
▁gun	-11480
▁iir	-11481
▁laŋ	-11482
▁ori	-11483
▁ñoh	-11484
ateno	-11485
daano	-11486
iimaa	-11487
iyaal	-11488
kaali	-11489
litii	-11490
roupe	-11491
togol	-11492
toree	-11493
▁Jaɓɓ	-11494
▁Kuli	-11495
▁Njuu	-11496
▁Polo	-11497
▁Sadd	-11498
▁Siir	-11499
▁Teeŋ	-11500
▁beau	-11501
▁deeg	-11502
▁dono	-11503
▁hito	-11504
▁jall	-11505
▁pekk	-11506
▁suuf	-11507
▁tant	-11508
▁tiis	-11509
Amerik	-11510
asiyon	-11511
naango	-11512
▁Coñce	-11513
▁Geɗal	-11514
▁Keeri	-11515
▁Turki	-11516
▁Wenus	-11517
▁baylo	-11518
▁bayɗi	-11519
▁bitik	-11520
▁calti	-11521
▁gasni	-11522
▁gudde	-11523
▁gujjo	-11524
▁koltu	-11525
▁murto	-11526
▁njuut	-11527
▁powle	-11528
▁reena	-11529
▁waɗdu	-11530
▁wondu	-11531
▁yiyaa	-11532
▁ɓokki	-11533
hington	-11534
inkoore	-11535
intooɓe	-11536
▁Attaar	-11537
▁Belees	-11538
▁Hiirde	-11539
▁Katiir	-11540
▁Meksik	-11541
▁bellit	-11542
▁deeƴde	-11543
▁faayod	-11544
▁lollin	-11545
▁ngonoy	-11546
▁timmal	-11547
▁tottat	-11548
▁Aminata	-11549
▁Faransi	-11550
▁Univers	-11551
▁dañaama	-11552
▁heɓtini	-11553
▁ndernde	-11554
▁ronooɓe	-11555
▁tafsiir	-11556
▁travail	-11557
▁yenanaa	-11558
▁yettini	-11559
▁Hoohooɓe	-11560
▁addannoo	-11561
▁baylagol	-11562
▁fellitde	-11563
▁fewjaare	-11564
▁fuuntude	-11565
▁golliima	-11566
▁haalaama	-11567
▁haysinno	-11568
▁jirlagol	-11569
▁jiɗnooɗo	-11570
▁laataaki	-11571
▁mumtugol	-11572
▁yeewtude	-11573
▁janngirde	-11574
▁notamment	-11575
▁softeende	-11576
▁tradition	-11577
▁wammbaaɓe	-11578
▁Beelinaaɓe	-11579
▁laaminooɗo	-11580
▁tabitingol	-11581
▁Sooninkooɓe	-11582
▁biyeteengol	-11583
▁foksineeruuji	-11584
”)	-11585
Yaa	-11586
hum	-11587
iru	-11588
▁Fa	-11589
▁ɓo	-11590
isii	-11591
uude	-11592
▁Cee	-11593
▁Lel	-11594
▁Lut	-11595
▁Tin	-11596
▁eko	-11597
▁had	-11598
appol	-11599
eewol	-11600
tiiɗi	-11601
▁Bacc	-11602
▁Char	-11603
▁huuf	-11604
▁indi	-11605
▁mayo	-11606
▁piya	-11607
▁yeen	-11608
▁yoni	-11609
▁Butel	-11610
▁Imaam	-11611
▁Nguun	-11612
▁Saare	-11613
▁dewel	-11614
▁firta	-11615
▁toowi	-11616
▁ɗuuɗi	-11617
ondiraa	-11618
▁artata	-11619
▁binnde	-11620
▁njaggi	-11621
▁rokkee	-11622
▁taabal	-11623
▁ɓamtal	-11624
▁Kanadaa	-11625
▁demoowo	-11626
▁jeenayi	-11627
▁renndoy	-11628
▁jibnaaɓe	-11629
▁kaaliino	-11630
▁njaɓataa	-11631
▁rokkaama	-11632
▁sujjande	-11633
▁teddunde	-11634
▁dumunnaaji	-11635
▁jaayndeeji	-11636
▁musibbaaji	-11637
▁nanondirde	-11638
)”	-11639
tés	-11640
ène	-11641
▁(«	-11642
iyoo	-11643
▁149	-11644
▁COD	-11645
▁Hed	-11646
▁Hud	-11647
▁IBK	-11648
▁Mum	-11649
▁Nap	-11650
▁lég	-11651
▁sam	-11652
Baaba	-11653
dinɓe	-11654
homme	-11655
ñeeje	-11656
▁Buri	-11657
▁FLAM	-11658
▁Nous	-11659
▁Reen	-11660
▁Song	-11661
▁baal	-11662
▁cara	-11663
▁ittu	-11664
▁kirs	-11665
▁ndoŋ	-11666
▁toni	-11667
▁ɓaaƴ	-11668
▁ɓoli	-11669
Muusaa	-11670
iyeeɓe	-11671
▁Lowre	-11672
▁Senaa	-11673
▁Senng	-11674
▁cewle	-11675
▁fewji	-11676
▁gawlo	-11677
▁mbakk	-11678
▁muddo	-11679
▁njoɓe	-11680
▁remde	-11681
▁seule	-11682
▁suuɗi	-11683
▁wuyɓe	-11684
férence	-11685
▁Ismaay	-11686
▁Joseph	-11687
▁Kariim	-11688
▁Koolol	-11689
▁kiiɗal	-11690
▁naatna	-11691
▁njaŋng	-11692
▁nootii	-11693
▁raɓɓiɗ	-11694
▁reeson	-11695
▁tariik	-11696
histoire	-11697
tondirde	-11698
▁Alfered	-11699
▁Buamatu	-11700
▁Bubakar	-11701
▁Fadduɓe	-11702
▁Girooɓe	-11703
▁Langues	-11704
▁Ngolɗoo	-11705
▁classes	-11706
▁gadiiɗi	-11707
▁goɗngel	-11708
▁kolliri	-11709
▁lilluɗe	-11710
▁ownugol	-11711
▁sallige	-11712
▁tanaaji	-11713
▁teskini	-11714
alisation	-11715
▁Gaswaani	-11716
▁Ramadaan	-11717
▁Rawaandu	-11718
▁dartaaki	-11719
▁fooɗtude	-11720
▁hirjinde	-11721
▁hoolaade	-11722
▁laamiima	-11723
▁leelaani	-11724
▁lewlewal	-11725
▁njaltina	-11726
▁njiyaten	-11727
▁woɗɗunde	-11728
▁Ligisayba	-11729
▁baawnooɗo	-11730
▁hoyrebiir	-11731
▁ummanaade	-11732
arabisation	-11733
▁malaykaaji	-11734
▁ameriknaaɓe	-11735
ONU	-11736
hel	-11737
nam	-11738
areg	-11739
intu	-11740
lerk	-11741
otto	-11742
port	-11743
roup	-11744
waaw	-11745
▁Gom	-11746
▁mow	-11747
▁sub	-11748
deele	-11749
itoyi	-11750
maagu	-11751
▁Nana	-11752
▁Neɗɗ	-11753
▁Nguu	-11754
▁Nokk	-11755
▁yoɓa	-11756
▁Gaana	-11757
▁Sahel	-11758
▁Yemen	-11759
▁hisna	-11760
tinooɗo	-11761
▁Lappol	-11762
▁Njanng	-11763
▁tunndu	-11764
▁ñaawaa	-11765
▁Saalihu	-11766
▁Tagoore	-11767
▁waɗiraa	-11768
▁Laamorgo	-11769
▁bismaade	-11770
▁jippinaa	-11771
▁ɗoftaade	-11772
ouvernement	-11773
▁demminaare	-11774
AH	-11775
KK	-11776
PS	-11777
RS	-11778
INA	-11779
Maa	-11780
Mus	-11781
eet	-11782
ehe	-11783
eki	-11784
ese	-11785
ile	-11786
win	-11787
▁ee	-11788
▁kg	-11789
▁um	-11790
cess	-11791
doto	-11792
isée	-11793
joom	-11794
mbar	-11795
naam	-11796
ndol	-11797
rait	-11798
saad	-11799
▁Cam	-11800
▁Fii	-11801
▁His	-11802
▁Lan	-11803
▁cud	-11804
▁gid	-11805
▁hof	-11806
▁kom	-11807
▁lof	-11808
▁Ɓog	-11809
▁ɓar	-11810
fants	-11811
guuji	-11812
ieurs	-11813
ittoo	-11814
iyaan	-11815
oforn	-11816
▁1968	-11817
▁Addi	-11818
▁Bara	-11819
▁Sawa	-11820
▁cogg	-11821
▁duus	-11822
▁fooy	-11823
▁kaɓi	-11824
▁kine	-11825
▁maha	-11826
▁pale	-11827
▁ɓole	-11828
Tawree	-11829
aluuji	-11830
▁1890,	-11831
▁1966,	-11832
▁Benin	-11833
▁Bolon	-11834
▁Iraak	-11835
▁Islam	-11836
▁Maars	-11837
▁Njaac	-11838
▁autor	-11839
▁gardo	-11840
▁hande	-11841
▁keedi	-11842
▁lampa	-11843
▁looɗe	-11844
▁ndaam	-11845
▁paaɗi	-11846
▁seese	-11847
▁tuubi	-11848
▁waɗno	-11849
▁ñiiri	-11850
▁ñiŋde	-11851
▁ɓenna	-11852
▁ɓilii	-11853
akawere	-11854
eresiil	-11855
eslaare	-11856
ottaari	-11857
quement	-11858
tataako	-11859
ɓaleejo	-11860
▁Biibal	-11861
▁Biraan	-11862
▁George	-11863
▁Sahara	-11864
▁Watara	-11865
▁Woolum	-11866
▁battin	-11867
▁chaque	-11868
▁diidol	-11869
▁fiilaa	-11870
▁goddol	-11871
▁hirjin	-11872
▁inform	-11873
▁jooɗoo	-11874
▁kaalan	-11875
▁kannje	-11876
▁loonde	-11877
▁lulnde	-11878
▁njokku	-11879
▁partir	-11880
▁ronkii	-11881
▁saŋkii	-11882
▁tampii	-11883
▁wuurdi	-11884
▁Ɗiiɗoo	-11885
▁Kolaajo	-11886
▁dañiino	-11887
▁jambala	-11888
▁kaantor	-11889
▁koɗorle	-11890
▁ndokkee	-11891
▁njeegom	-11892
▁satelit	-11893
▁yahataa	-11894
iyankooji	-11895
▁Kamaruun	-11896
▁Kulibali	-11897
▁Sonngaay	-11898
▁Yaaguuba	-11899
▁baɗnooɗe	-11900
▁jeyatnoo	-11901
▁limlebbi	-11902
▁maantini	-11903
▁mbaɗiino	-11904
▁muuseeki	-11905
▁naftoroo	-11906
▁nootiima	-11907
▁wertallo	-11908
▁wuurnude	-11909
▁ɗaɓɓirde	-11910
▁Jakariyaa	-11911
▁Lillungal	-11912
▁Ministeer	-11913
▁Njeenaari	-11914
▁coodguuli	-11915
▁haalatnoo	-11916
▁kuutorgal	-11917
▁meeɗnooɗo	-11918
▁miñiraaɓe	-11919
▁ngondunoo	-11920
▁ngummorii	-11921
▁winndiino	-11922
▁Nationales	-11923
▁Sehilbaabi	-11924
▁demokaraas	-11925
▁hatanteeɓe	-11926
▁miijotonoo	-11927
▁wondunooɓe	-11928
▁ɓoccitaade	-11929
▁Denɗiraagal	-11930
▁pelɓondiral	-11931
▁ngoongɗintaa	-11932
",	-11933
26	-11934
DC	-11935
ƊE	-11936
ƴu	-11937
َن	-11938
YAN	-11939
sta	-11940
ɓdi	-11941
▁4-	-11942
Mali	-11943
aaye	-11944
allu	-11945
erek	-11946
immi	-11947
kkol	-11948
▁30,	-11949
▁Air	-11950
▁For	-11951
▁Mam	-11952
▁Yur	-11953
▁pun	-11954
awore	-11955
niika	-11956
raten	-11957
▁(201	-11958
▁1776	-11959
▁1890	-11960
▁wowl	-11961
ndeede	-11962
▁Aliyu	-11963
▁Sappo	-11964
▁anniy	-11965
▁dañee	-11966
▁hakin	-11967
▁kañji	-11968
▁kolon	-11969
▁meɗen	-11970
▁ɓamii	-11971
▁Guinée	-11972
▁Nafoore	-11973
▁malaaɗo	-11974
▁newaade	-11975
▁ummiiɗo	-11976
▁umminoo	-11977
▁waraama	-11978
▁fuɗɗinoo	-11979
▁ganndaaɗo	-11980
▁yummiraaɗo	-11981
▁international	-11982
Um	-11983
vé	-11984
▁ع	-11985
agu	-11986
bee	-11987
bru	-11988
cat	-11989
dre	-11990
leñ	-11991
sos	-11992
ysi	-11993
embl	-11994
iyen	-11995
jaan	-11996
lack	-11997
uulu	-11998
▁Deh	-11999
▁FUL	-12000
▁Lay	-12001
▁Rah	-12002
▁Voi	-12003
▁tew	-12004
▁yof	-12005
aires	-12006
ceeje	-12007
ctive	-12008
eewde	-12009
illes	-12010
jours	-12011
quuba	-12012
raaɗo	-12013
zilla	-12014
▁Faay	-12015
▁IFAN	-12016
▁Jaañ	-12017
▁Kaab	-12018
▁Kebl	-12019
▁Ndul	-12020
▁Njah	-12021
▁baar	-12022
▁cumu	-12023
▁diiñ	-12024
▁faaɗ	-12025
▁goog	-12026
▁inté	-12027
▁jimi	-12028
▁lasl	-12029
▁mago	-12030
▁main	-12031
▁mooy	-12032
▁ngut	-12033
▁soit	-12034
▁weel	-12035
▁wiir	-12036
▁woyi	-12037
amadou	-12038
atives	-12039
autres	-12040
jectif	-12041
ratnoo	-12042
ɗeendu	-12043
▁Sarko	-12044
▁Simon	-12045
▁balal	-12046
▁boobo	-12047
▁diwde	-12048
▁ethni	-12049
▁faaro	-12050
▁fooɗi	-12051
▁haade	-12052
▁haɓɓi	-12053
▁hiɗen	-12054
▁jehre	-12055
▁laten	-12056
▁majja	-12057
▁nattu	-12058
▁pooye	-12059
▁puɗol	-12060
▁respe	-12061
▁saydu	-12062
▁tagaa	-12063
▁yoori	-12064
itaires	-12065
▁Daawal	-12066
▁Doktor	-12067
▁Ilyaas	-12068
▁Maande	-12069
▁Sooyib	-12070
▁Yahuud	-12071
▁awluɓe	-12072
▁bidsee	-12073
▁kubbal	-12074
▁kulnoo	-12075
▁loocol	-12076
▁mbaɗen	-12077
▁mettin	-12078
▁moƴƴin	-12079
▁nature	-12080
▁ndoŋki	-12081
▁ngoɗɗi	-12082
▁rawane	-12083
▁siilto	-12084
▁tooñii	-12085
▁woodat	-12086
▁yiɗani	-12087
▁Ɓernde	-12088
▁Article	-12089
▁Bisaawo	-12090
▁Firefox	-12091
▁Haamaan	-12092
▁Ndonngo	-12093
▁Ngenaar	-12094
▁Sowiyet	-12095
▁anniyii	-12096
▁barooɗe	-12097
▁bonnata	-12098
▁bonngol	-12099
▁constru	-12100
▁donaaɗi	-12101
▁faweede	-12102
▁goɗɗuɗe	-12103
▁saliima	-12104
▁tarafik	-12105
▁ustiima	-12106
▁yaajngo	-12107
▁ñaamata	-12108
▁ƴettata	-12109
▁ɗowataa	-12110
▁December	-12111
▁Jaabawol	-12112
▁Mustafaa	-12113
▁almuudɓe	-12114
▁baylugol	-12115
▁binnduɗo	-12116
▁etinooma	-12117
▁faddaade	-12118
▁humpitde	-12119
▁jiidigal	-12120
▁kereceen	-12121
▁moƴƴooje	-12122
▁naskaaɓe	-12123
▁question	-12124
▁sankiima	-12125
▁suumayee	-12126
▁teelɗuɓe	-12127
▁toppitoo	-12128
▁werlaaji	-12129
▁woodaano	-12130
▁hawraande	-12131
▁kaangaaɗo	-12132
▁luurandir	-12133
▁yowitaade	-12134
▁Fonisnaaɓe	-12135
▁cagataagal	-12136
▁demokarasi	-12137
▁Saralsameen	-12138
▁gollondiral	-12139
▁naalaŋkooɓe	-12140
▁seedanfaagu	-12141
▁ƴeewtindaare	-12142
▁winndiyankooɓe	-12143
ast	-12144
ewo	-12145
jah	-12146
kun	-12147
lis	-12148
runo	-12149
tigi	-12150
▁(17	-12151
▁Pot	-12152
▁hak	-12153
▁ool	-12154
naaɗi	-12155
towal	-12156
▁1957	-12157
▁1970	-12158
▁eggi	-12159
▁kuul	-12160
▁ooɗo	-12161
▁Jaari	-12162
▁Kiifa	-12163
▁Seɓɓe	-12164
▁foola	-12165
▁gooti	-12166
▁happu	-12167
▁https	-12168
▁jeyal	-12169
▁juuli	-12170
▁kooni	-12171
▁koota	-12172
▁ndaro	-12173
▁posto	-12174
▁taway	-12175
▁teddi	-12176
Afrique	-12177
▁Ejipte	-12178
▁karmin	-12179
▁keɓtii	-12180
▁suusaa	-12181
▁yamira	-12182
▁yettin	-12183
▁gasaani	-12184
▁jogorɓe	-12185
▁timmini	-12186
▁wuurtin	-12187
▁Tafsiiru	-12188
▁heddiima	-12189
▁jahdiiɗo	-12190
▁timtimol	-12191
▁ƴettunoo	-12192
▁Najeeriya	-12193
▁njanguuji	-12194
▁yahratnoo	-12195
▁Professeur	-12196
68	-12197
DS	-12198
El	-12199
TU	-12200
sé	-12201
NLA	-12202
ché	-12203
dem	-12204
esp	-12205
fre	-12206
gut	-12207
jum	-12208
kas	-12209
édi	-12210
ête	-12211
ɓiy	-12212
▁Fr	-12213
▁SO	-12214
▁Tu	-12215
▁cr	-12216
-200	-12217
Kono	-12218
Mars	-12219
ager	-12220
ball	-12221
holi	-12222
nden	-12223
temp	-12224
urce	-12225
▁!!!	-12226
▁(2)	-12227
▁102	-12228
▁140	-12229
▁Biy	-12230
▁FMI	-12231
▁Jaɓ	-12232
▁Jiy	-12233
▁cim	-12234
▁laɓ	-12235
▁mai	-12236
▁num	-12237
daaɗo	-12238
doogu	-12239
galle	-12240
immbo	-12241
rewɓe	-12242
venir	-12243
▁(197	-12244
▁Aden	-12245
▁Debi	-12246
▁Toon	-12247
▁Wall	-12248
▁daɗi	-12249
▁doit	-12250
▁enne	-12251
▁etii	-12252
▁fira	-12253
▁fuɗi	-12254
▁kopp	-12255
▁kore	-12256
▁plan	-12257
▁poos	-12258
▁waya	-12259
▁ƴees	-12260
itoire	-12261
laandu	-12262
taniri	-12263
▁Binnd	-12264
▁Cilon	-12265
▁Diina	-12266
▁Jehre	-12267
▁Jumaa	-12268
▁Juumo	-12269
▁Ngalu	-12270
▁Niger	-12271
▁Wiɗto	-12272
▁dipol	-12273
▁grand	-12274
▁haawi	-12275
▁jiidi	-12276
▁keñor	-12277
▁keɓal	-12278
▁laati	-12279
▁nelde	-12280
▁pawɗe	-12281
▁rabat	-12282
▁sakke	-12283
▁saloo	-12284
▁tufɗe	-12285
dinaaji	-12286
eteengo	-12287
etruuji	-12288
iyatiim	-12289
ɗiraaɓe	-12290
▁Kerece	-12291
▁Ngonka	-12292
▁Njillu	-12293
▁Samuud	-12294
▁Sillaa	-12295
▁Tabara	-12296
▁Tataɓo	-12297
▁fleuve	-12298
▁hoɗnoo	-12299
▁kanngo	-12300
▁njanii	-12301
▁sakkii	-12302
▁wiyiri	-12303
▁wudere	-12304
▁ƴeewen	-12305
▁ɗoftee	-12306
allaagal	-12307
tindiide	-12308
▁Jolfuɓe	-12309
▁aksidaa	-12310
▁considé	-12311
▁feewnit	-12312
▁haɓeede	-12313
▁janvier	-12314
▁kilooji	-12315
▁kulataa	-12316
▁loraaɓe	-12317
▁mantude	-12318
▁mbinnde	-12319
▁njeewta	-12320
▁telefon	-12321
▁welnere	-12322
▁yiyataa	-12323
Alkoraana	-12324
▁Abubakar	-12325
▁adunaaru	-12326
▁arabeeɓe	-12327
▁bonnande	-12328
▁heɓtaade	-12329
▁isinaaji	-12330
▁jaabaaki	-12331
▁jaŋtaade	-12332
▁mbaɗaten	-12333
▁njowitii	-12334
▁pollugol	-12335
▁saaktude	-12336
▁tampinde	-12337
▁tokosere	-12338
▁tolnooji	-12339
▁tuugiiɗo	-12340
▁weltiima	-12341
▁werlaade	-12342
▁Sammbooru	-12343
▁coodtiigu	-12344
▁jaaynirɗe	-12345
▁njuuteeki	-12346
tiyankaagal	-12347
▁Washington	-12348
▁communauté	-12349
▁goongɗinii	-12350
▁juuroyaade	-12351
▁kuudetaaji	-12352
▁nootitiima	-12353
▁Battindiide	-12354
▁mbiirniindi	-12355
▁njokkondiri	-12356
▁humambinnaagal	-12357
49	-12358
No	-12359
Ɓe	-12360
daw	-12361
ome	-12362
ɓil	-12363
cité	-12364
coup	-12365
ctor	-12366
dino	-12367
etti	-12368
leer	-12369
▁(10	-12370
▁18,	-12371
▁Cof	-12372
▁Muñ	-12373
▁mel	-12374
▁mer	-12375
▁sut	-12376
Minen	-12377
aanii	-12378
muuna	-12379
tanɗe	-12380
tooɗi	-12381
torto	-12382
▁Tuur	-12383
▁tamm	-12384
Dental	-12385
laamɗo	-12386
umière	-12387
▁Colte	-12388
▁Trans	-12389
▁feeña	-12390
▁karah	-12391
▁rutti	-12392
▁tiind	-12393
▁tottu	-12394
▁abbere	-12395
▁tuumaa	-12396
▁ɓooyɓe	-12397
▁kulaani	-12398
▁naatiri	-12399
▁fotnooɓe	-12400
▁maayataa	-12401
▁mbiyiino	-12402
▁Almameeɓe	-12403
▁Nationale	-12404
▁battindii	-12405
▁waliyaaɓe	-12406
▁laamateeri	-12407
CS	-12408
EY	-12409
xi	-12410
▁%	-12411
jim	-12412
▁05	-12413
▁9,	-12414
▁HA	-12415
▁If	-12416
/200	-12417
adda	-12418
andi	-12419
baan	-12420
iyam	-12421
kuru	-12422
olis	-12423
onie	-12424
ouis	-12425
▁(3)	-12426
▁113	-12427
▁115	-12428
▁Hus	-12429
▁Tra	-12430
▁Yes	-12431
▁occ	-12432
❤️❤️	-12433
daari	-12434
janng	-12435
oondu	-12436
towol	-12437
uwaar	-12438
▁ekon	-12439
▁fois	-12440
▁habb	-12441
▁hari	-12442
▁iwde	-12443
▁médi	-12444
▁oole	-12445
▁rend	-12446
▁sens	-12447
▁yimi	-12448
▁yoɓi	-12449
aawore	-12450
natnoo	-12451
tangal	-12452
▁Burgu	-12453
▁Gurmo	-12454
▁Peeje	-12455
▁Saako	-12456
▁Wonde	-12457
▁Worɓe	-12458
▁bonna	-12459
▁boyli	-12460
▁diiri	-12461
▁ferde	-12462
▁gabbe	-12463
▁impor	-12464
▁koɗii	-12465
▁lesle	-12466
▁looci	-12467
▁moosi	-12468
▁mutal	-12469
▁nafde	-12470
▁nawti	-12471
▁nginn	-12472
▁probl	-12473
▁timmu	-12474
▁ummin	-12475
▁étran	-12476
▁ɓiyam	-12477
illeurs	-12478
ondirɗo	-12479
▁Sidiki	-12480
▁gargol	-12481
▁horsin	-12482
▁karbon	-12483
▁keefer	-12484
▁mahnoo	-12485
▁mboddi	-12486
▁njaafo	-12487
▁pamare	-12488
▁sallig	-12489
▁taaɓal	-12490
golluuje	-12491
▁Jalaali	-12492
▁Kerecee	-12493
▁Kolonel	-12494
▁Malayka	-12495
▁Saralsa	-12496
▁Tammbaa	-12497
▁addaani	-12498
▁cukalon	-12499
▁fodanii	-12500
▁goɗɗuɗo	-12501
▁justice	-12502
▁kaalani	-12503
▁mbaɗtaa	-12504
▁moritan	-12505
▁premier	-12506
▁tataɓol	-12507
▁ɓadiima	-12508
▁ɓennude	-12509
leñamaagu	-12510
▁Bolondee	-12511
▁Tawaasul	-12512
▁Yaaquuba	-12513
▁adunaare	-12514
▁dallinde	-12515
▁décembre	-12516
▁haalaaka	-12517
▁janngata	-12518
▁mawninii	-12519
▁mbinndaa	-12520
▁moƴƴooɓe	-12521
▁ngaanndi	-12522
▁ngariino	-12523
▁njahrata	-12524
▁njeddata	-12525
▁njibinaa	-12526
▁première	-12527
▁raɓɓiɗde	-12528
▁salminii	-12529
▁timmoode	-12530
▁ñaamataa	-12531
aateeruuji	-12532
▁Malinaaɓe	-12533
▁ndaartude	-12534
▁njanngina	-12535
▁njilluuji	-12536
▁humpitiiɓe	-12537
▁koninkaagu	-12538
23	-12539
Se	-12540
car	-12541
uuɓ	-12542
clar	-12543
grès	-12544
juul	-12545
tour	-12546
▁145	-12547
▁Fun	-12548
▁KAN	-12549
▁Koo	-12550
▁Mem	-12551
▁Seb	-12552
▁Sir	-12553
▁Sof	-12554
▁pon	-12555
gence	-12556
▁SIDA	-12557
▁diwi	-12558
▁feƴƴ	-12559
▁taal	-12560
▁yona	-12561
iraawo	-12562
itoowo	-12563
laawol	-12564
witter	-12565
▁1960,	-12566
▁Yimre	-12567
▁bolle	-12568
▁enndu	-12569
▁faayo	-12570
▁feewa	-12571
▁teppe	-12572
binaaɓe	-12573
▁Guinee	-12574
▁bonnii	-12575
▁firtii	-12576
▁heɓnoo	-12577
▁techni	-12578
▁waajoo	-12579
yankeeɓe	-12580
▁adiinde	-12581
▁maandin	-12582
▁nanngal	-12583
▁newaare	-12584
▁ngollii	-12585
▁yamirde	-12586
▁biɗtoowo	-12587
▁gowlaali	-12588
▁mawniiko	-12589
▁mooloyii	-12590
▁duwanaade	-12591
▁joginooɗo	-12592
▁jotondiri	-12593
▁siforaade	-12594
▁calminaali	-12595
▁daraniinde	-12596
▁pelɓondire	-12597
▁njaatiraaɓe	-12598
▁paamondiral	-12599
IA	-12600
Is	-12601
NA	-12602
SP	-12603
▁·	-12604
Yah	-12605
arg	-12606
dag	-12607
ham	-12608
hoɗ	-12609
sor	-12610
ɗno	-12611
▁AR	-12612
▁TP	-12613
▁yu	-12614
...,	-12615
Daar	-12616
PADS	-12617
jokk	-12618
loyd	-12619
olel	-12620
▁125	-12621
▁Del	-12622
▁Hod	-12623
▁Kaɓ	-12624
▁SAW	-12625
▁Sat	-12626
▁Yas	-12627
▁coy	-12628
▁fek	-12629
▁reg	-12630
▁waw	-12631
inter	-12632
komaa	-12633
kosel	-12634
nduɗe	-12635
onngi	-12636
tuɗen	-12637
▁1956	-12638
▁Labe	-12639
▁beɗi	-12640
▁kiri	-12641
▁moƳƳ	-12642
▁nafi	-12643
▁ndak	-12644
▁njul	-12645
Hannde	-12646
ajjiri	-12647
atubak	-12648
dental	-12649
onooɓe	-12650
taires	-12651
▁1999,	-12652
▁Floyd	-12653
▁Jahal	-12654
▁Micro	-12655
▁Yerɓo	-12656
▁cokli	-12657
▁condi	-12658
▁daɓɓi	-12659
▁diidi	-12660
▁jooma	-12661
▁kiris	-12662
▁kodda	-12663
▁mbeɗo	-12664
▁ngost	-12665
▁njehi	-12666
▁taani	-12667
▁ñallu	-12668
▁ɓawli	-12669
ammburu	-12670
taangal	-12671
tanooɓe	-12672
▁Addani	-12673
▁Asakal	-12674
▁Baagal	-12675
▁Calame	-12676
▁Itaali	-12677
▁Joomum	-12678
▁Saalif	-12679
▁eggude	-12680
▁jaajɗe	-12681
▁juurii	-12682
▁laaɓii	-12683
▁lomlom	-12684
▁njahra	-12685
▁njamir	-12686
▁njeeya	-12687
▁potata	-12688
▁tottee	-12689
▁ɗowata	-12690
anteendi	-12691
fication	-12692
hooreeji	-12693
▁Haataar	-12694
▁Mbummba	-12695
▁Ngalɗoo	-12696
▁Raamata	-12697
▁Songhay	-12698
▁Tonngol	-12699
▁dartini	-12700
▁dañataa	-12701
▁dimngal	-12702
▁heeñere	-12703
▁hunduko	-12704
▁ittaani	-12705
▁jooɗnde	-12706
▁mballif	-12707
▁mettuɗe	-12708
▁ndaɗndi	-12709
▁njuɓɓin	-12710
▁salaare	-12711
▁sippiro	-12712
▁timmata	-12713
▁yiɗiino	-12714
▁Senngoor	-12715
▁contribu	-12716
▁dognooɓe	-12717
▁feññinde	-12718
▁firtooɓe	-12719
▁gonnooɗi	-12720
▁humpitii	-12721
▁jiiloowo	-12722
▁manaango	-12723
▁mbajjiri	-12724
▁ngasataa	-12725
▁puɗɗorii	-12726
▁tuufeeje	-12727
▁wondaani	-12728
▁woppataa	-12729
▁yamirnoo	-12730
▁jiidnaaɓe	-12731
▁kellifuya	-12732
▁mawninkin	-12733
▁seedtaade	-12734
▁Enndonaaɓe	-12735
▁Kompaawore	-12736
▁gollanaade	-12737
▁jamaanuuji	-12738
▁économique	-12739
▁jokkondirii	-12740
33	-12741
GU	-12742
yr	-12743
cun	-12744
gré	-12745
jar	-12746
ken	-12747
key	-12748
mil	-12749
lahi	-12750
oyee	-12751
oɗon	-12752
ulel	-12753
▁Gur	-12754
▁Siñ	-12755
▁hef	-12756
▁tuɗ	-12757
▁ɗat	-12758
dirde	-12759
▁jann	-12760
▁jirl	-12761
▁kirj	-12762
▁kuɗi	-12763
▁terr	-12764
nirgal	-12765
▁Ammba	-12766
▁Kaaƴe	-12767
▁Sunna	-12768
▁mbaaj	-12769
▁ndupp	-12770
▁ngaañ	-12771
▁ustoo	-12772
iraagal	-12773
▁Ngaari	-12774
▁bannde	-12775
▁reento	-12776
▁Tumaani	-12777
▁joljole	-12778
▁mettini	-12779
▁taraade	-12780
▁toɓooli	-12781
▁ñawanɗe	-12782
▁Tarawore	-12783
▁huutoree	-12784
▁joofnude	-12785
▁mbinndir	-12786
▁République	-12787
▁saggitorde	-12788
▁maanditaare	-12789
▁sanndarmori	-12790
ît	-12791
/06	-12792
AAT	-12793
jkw	-12794
jog	-12795
nje	-12796
sie	-12797
sun	-12798
çon	-12799
▁AF	-12800
▁Ug	-12801
atre	-12802
ende	-12803
inté	-12804
mina	-12805
tawa	-12806
tule	-12807
ñgol	-12808
▁(5)	-12809
▁114	-12810
▁900	-12811
▁FPU	-12812
▁Kid	-12813
▁deŋ	-12814
▁dés	-12815
▁eng	-12816
▁fóf	-12817
▁الل	-12818
gooji	-12819
iinɗo	-12820
ikmah	-12821
llere	-12822
lèves	-12823
maɓɓe	-12824
tures	-12825
uural	-12826
▁1995	-12827
▁Asma	-12828
▁Ceer	-12829
▁Haan	-12830
▁Hutu	-12831
▁July	-12832
▁Wayl	-12833
▁Wull	-12834
▁Zuma	-12835
▁abbo	-12836
▁ceek	-12837
▁egga	-12838
▁elim	-12839
▁hula	-12840
▁sunu	-12841
▁symb	-12842
▁teew	-12843
▁tina	-12844
▁vale	-12845
▁wukk	-12846
▁égal	-12847
▁ƴaaŋ	-12848
▁ɗowi	-12849
aawete	-12850
iniiɗe	-12851
▁2003,	-12852
▁20150	-12853
▁Makko	-12854
▁Seeno	-12855
▁Tesku	-12856
▁addaa	-12857
▁cubal	-12858
▁femme	-12859
▁fisik	-12860
▁fuɗde	-12861
▁gasɗe	-12862
▁jonɗe	-12863
▁keɓen	-12864
▁lesre	-12865
▁maaki	-12866
▁mbiɗa	-12867
▁miñum	-12868
▁nafig	-12869
▁neldu	-12870
▁ngaad	-12871
▁simme	-12872
▁ñiibi	-12873
ication	-12874
oomuuji	-12875
tanooki	-12876
▁Apollo	-12877
▁Baktan	-12878
▁Dirmis	-12879
▁FONADH	-12880
▁Faalil	-12881
▁Keewal	-12882
▁Naseer	-12883
▁boomde	-12884
▁devant	-12885
▁giiɗal	-12886
▁goopal	-12887
▁haftii	-12888
▁heblii	-12889
▁jofnde	-12890
▁joorɗe	-12891
▁mahgol	-12892
▁matern	-12893
▁mbaɗan	-12894
▁mbootu	-12895
▁partie	-12896
▁piindi	-12897
▁riiwde	-12898
▁roŋkii	-12899
▁seedam	-12900
▁tataɓe	-12901
▁waliyu	-12902
▁wallii	-12903
▁Ƴeewee	-12904
▁Ardiiɓe	-12905
▁Bilkiis	-12906
▁Kaliifa	-12907
▁Mawluud	-12908
▁ardiiɗo	-12909
▁binndól	-12910
▁hulataa	-12911
▁innirde	-12912
▁jimoowo	-12913
▁mbaasen	-12914
▁mbeddii	-12915
▁mumtude	-12916
▁ngardin	-12917
▁ngontaa	-12918
▁njahata	-12919
▁njonngu	-12920
▁portant	-12921
▁respons	-12922
▁welaama	-12923
▁yuɓɓude	-12924
▁Beresiil	-12925
▁Laamiiɗo	-12926
▁Shingiti	-12927
▁bottaari	-12928
▁cikkataa	-12929
▁ciñcanɗe	-12930
▁hesniiɓe	-12931
▁keeceeje	-12932
▁lampaaji	-12933
▁nayaɓere	-12934
▁saabaade	-12935
▁sereendu	-12936
▁teeruuji	-12937
▁toɗɗaaɗo	-12938
▁wulaango	-12939
▁yahatnoo	-12940
▁ŋguurten	-12941
▁ƴeewaani	-12942
▁ɓesnooje	-12943
▁ɓeydugol	-12944
▁almameeɓe	-12945
▁formation	-12946
▁jogoraani	-12947
▁leƴƴannde	-12948
▁lonngorɗe	-12949
▁naworaani	-12950
▁ngardiino	-12951
▁ruuhuyaŋk	-12952
▁sikkatnoo	-12953
▁Egliisaaji	-12954
▁afriknaaje	-12955
▁ciiñsiiñƴe	-12956
▁faayodinde	-12957
▁jontinooje	-12958
-------------	-12959
▁Konostantiin	-12960
▁bakkodinooɓe	-12961
▁mauritanienne	-12962
▁Jaaɓihaaɗtirde	-12963
▁ndoolndoolaagu	-12964
60	-12965
EF	-12966
ys	-12967
/10	-12968
por	-12969
ƴal	-12970
▁Un	-12971
,000	-12972
▁117	-12973
▁Bul	-12974
▁Fou	-12975
▁Lor	-12976
▁Pap	-12977
▁gom	-12978
aalib	-12979
akkaa	-12980
▁Laak	-12981
▁Madi	-12982
▁Moor	-12983
▁Sadi	-12984
▁jowi	-12985
▁ndur	-12986
huunde	-12987
iniiɗi	-12988
njiila	-12989
oriiɗo	-12990
ɗingal	-12991
▁Afgan	-12992
▁Laten	-12993
▁Yeeso	-12994
▁hokka	-12995
▁ndeya	-12996
▁njaay	-12997
▁paasp	-12998
▁prima	-12999
▁sukku	-13000
▁waala	-13001
▁ŋakku	-13002
▁anndal	-13003
▁leeɓte	-13004
▁luutnd	-13005
▁ngayni	-13006
▁seerta	-13007
▁Haydara	-13008
▁jaleeɗe	-13009
▁mbelɗam	-13010
▁ustaare	-13011
asiyonaal	-13012
▁awokaaji	-13013
▁bonnugol	-13014
▁jippaade	-13015
▁joopaade	-13016
▁juutaani	-13017
▁taariika	-13018
▁waawirta	-13019
▁goppitgol	-13020
▁ɓitteende	-13021
▁anndiraaka	-13022
hr	-13023
uc	-13024
ƴo	-13025
▁#	-13026
💖💖	-13027
/04	-13028
AAL	-13029
Man	-13030
aru	-13031
tot	-13032
ñaa	-13033
ñoo	-13034
▁AV	-13035
cune	-13036
lefi	-13037
line	-13038
nira	-13039
omee	-13040
otre	-13041
phab	-13042
rewo	-13043
tawi	-13044
tire	-13045
yeen	-13046
▁130	-13047
▁Ces	-13048
▁GOO	-13049
▁Kin	-13050
▁Sew	-13051
▁Yan	-13052
▁aɗe	-13053
▁daf	-13054
▁loi	-13055
▁nik	-13056
▁opp	-13057
▁tay	-13058
▁vue	-13059
▁wed	-13060
Jooni	-13061
Natal	-13062
YANKE	-13063
aalel	-13064
aarel	-13065
ables	-13066
croix	-13067
debbo	-13068
dirta	-13069
emmbe	-13070
jourd	-13071
kiino	-13072
nelle	-13073
périm	-13074
reeji	-13075
umaan	-13076
ñeere	-13077
ɗorii	-13078
▁Géné	-13079
▁Jula	-13080
▁Kolo	-13081
▁Njum	-13082
▁Saad	-13083
▁Shar	-13084
▁Toro	-13085
▁acca	-13086
▁afin	-13087
▁atom	-13088
▁baam	-13089
▁camm	-13090
▁duñi	-13091
▁ella	-13092
▁gool	-13093
▁heso	-13094
▁heɗɗ	-13095
▁jama	-13096
▁meho	-13097
▁nawr	-13098
▁ngot	-13099
▁peel	-13100
▁resa	-13101
▁rôle	-13102
▁sirŋ	-13103
▁yiɗa	-13104
ctions	-13105
ouvoir	-13106
vement	-13107
▁Bakri	-13108
▁Boode	-13109
▁Feder	-13110
▁Foodi	-13111
▁Franç	-13112
▁Huley	-13113
▁Lebbi	-13114
▁Marsa	-13115
▁Ndaar	-13116
▁Peuls	-13117
▁SAWRU	-13118
▁autre	-13119
▁ciiri	-13120
▁diwii	-13121
▁felli	-13122
▁finii	-13123
▁hiiri	-13124
▁jaɓɗo	-13125
▁jolde	-13126
▁kuuɗe	-13127
▁laɓɓe	-13128
▁leñɗi	-13129
▁mehɓe	-13130
▁peeñi	-13131
▁seeri	-13132
▁tawri	-13133
▁volon	-13134
▁wakil	-13135
▁ɗofto	-13136
anoongu	-13137
toregol	-13138
ubaarak	-13139
▁Garlol	-13140
▁Mbiyen	-13141
▁associ	-13142
▁foofde	-13143
▁joɗɗin	-13144
▁laanel	-13145
▁muuyni	-13146
▁naskin	-13147
▁nattat	-13148
▁peewna	-13149
▁peuple	-13150
▁tafngo	-13151
▁yannge	-13152
eteengol	-13153
pération	-13154
▁Faggudu	-13155
▁Seynabu	-13156
▁Tokosel	-13157
▁dentuɗe	-13158
▁fawaaki	-13159
▁feeñata	-13160
▁keewngu	-13161
▁nanngii	-13162
▁ndiiɗoo	-13163
▁ngoniri	-13164
▁ngoonga	-13165
▁rapport	-13166
▁tuubaak	-13167
▁umminde	-13168
▁ustugol	-13169
▁waɗanii	-13170
▁yedduɓe	-13171
▁Bahbahel	-13172
▁Dirmisil	-13173
▁Maymuuna	-13174
▁Mubaarak	-13175
▁caanngol	-13176
▁dowrowal	-13177
▁feɗeendu	-13178
▁gaañiiɓe	-13179
▁gertooɗe	-13180
▁muusalla	-13181
▁njeegomo	-13182
▁ruttiima	-13183
▁siftorii	-13184
▁siyneede	-13185
▁sunnaade	-13186
▁tuwaareg	-13187
▁woodataa	-13188
▁ƴellitii	-13189
▁Kelmeendi	-13190
▁Portugaal	-13191
▁aliyatiim	-13192
▁dokkirgol	-13193
▁foofaandu	-13194
▁gooŋɗinɓe	-13195
▁toŋngooɗe	-13196
▁waklitere	-13197
▁wowlaandu	-13198
▁ɗamininoo	-13199
▁Ndulumaaji	-13200
▁Sambatubak	-13201
▁ameriknaajo	-13202
▁feewnitaade	-13203
▁hakkundeeje	-13204
▁ɓiyleydaagu	-13205
▁muritaninaajo	-13206
13	-13207
Ch	-13208
Maw	-13209
Qur	-13210
▁01	-13211
▁Yu	-13212
anɗi	-13213
oyat	-13214
▁111	-13215
▁ceɓ	-13216
▁cou	-13217
▁jag	-13218
▁pan	-13219
▁web	-13220
▁yor	-13221
feere	-13222
jjiri	-13223
kiiɗe	-13224
maayo	-13225
tinan	-13226
▁Maaj	-13227
▁arda	-13228
▁eggu	-13229
▁fond	-13230
▁foor	-13231
▁fuut	-13232
▁jubb	-13233
▁taho	-13234
ŋkoore	-13235
▁ardoo	-13236
▁dagii	-13237
▁deeƴi	-13238
▁geɓal	-13239
▁kawra	-13240
▁keɓɗo	-13241
▁mawna	-13242
▁ƴoƴɗo	-13243
deftere	-13244
▁Jaayre	-13245
▁cosaan	-13246
▁cukuli	-13247
▁luurdi	-13248
▁mbasiy	-13249
▁sonndu	-13250
▁Tedduɗo	-13251
▁addunoo	-13252
▁hatojin	-13253
▁hawrata	-13254
▁yewtere	-13255
▁dartagol	-13256
▁gardeeɓe	-13257
▁jaagorɗo	-13258
▁nguurdam	-13259
▁ujunaaje	-13260
▁waɗnoonde	-13261
▁ɓurondiral	-13262
▁luulndiinde	-13263
))	-13264
Di	-13265
IP	-13266
Oo	-13267
▁>	-13268
▁|	-13269
awo	-13270
bou	-13271
cre	-13272
far	-13273
gas	-13274
hui	-13275
ker	-13276
nie	-13277
sid	-13278
ƴii	-13279
▁XV	-13280
▁là	-13281
alen	-13282
cide	-13283
péri	-13284
soft	-13285
tiss	-13286
▁112	-13287
▁124	-13288
▁250	-13289
▁Agu	-13290
▁Edi	-13291
▁Jaŋ	-13292
▁Kiŋ	-13293
▁RFD	-13294
▁ado	-13295
▁dig	-13296
▁som	-13297
▁top	-13298
▁ƴoo	-13299
▁الم	-13300
astor	-13301
balaa	-13302
begut	-13303
dugal	-13304
iyata	-13305
jaŋde	-13306
tence	-13307
ɓiijo	-13308
▁1974	-13309
▁Mber	-13310
▁Ndii	-13311
▁Tati	-13312
▁barm	-13313
▁biro	-13314
▁call	-13315
▁faut	-13316
▁kesa	-13317
▁mali	-13318
▁moos	-13319
▁moti	-13320
▁ndaa	-13321
▁oroo	-13322
▁pada	-13323
▁pota	-13324
▁yant	-13325
▁ɲaam	-13326
aamiin	-13327
ameeji	-13328
daagal	-13329
itinoo	-13330
uleeki	-13331
uments	-13332
▁Ahmad	-13333
▁Arest	-13334
▁Jorje	-13335
▁Laaɗe	-13336
▁Natal	-13337
▁Ndokk	-13338
▁abril	-13339
▁avait	-13340
▁baasi	-13341
▁diiso	-13342
▁finan	-13343
▁fusde	-13344
▁goofi	-13345
▁gural	-13346
▁haari	-13347
▁jiimi	-13348
▁mboni	-13349
▁ndiis	-13350
▁njeya	-13351
▁njupp	-13352
▁oolel	-13353
▁reseŋ	-13354
▁selon	-13355
▁tekte	-13356
▁ubbaa	-13357
▁ustii	-13358
aañoowo	-13359
antaake	-13360
biliiji	-13361
clusion	-13362
▁Kummbi	-13363
▁Ngayde	-13364
▁Satigi	-13365
▁Yoruba	-13366
▁cinnde	-13367
▁daɗnda	-13368
▁dekere	-13369
▁dispos	-13370
▁hootde	-13371
▁jaarde	-13372
▁jarabi	-13373
▁joofde	-13374
▁kewata	-13375
▁laaɓɗe	-13376
▁nawata	-13377
▁ngasii	-13378
▁tagiri	-13379
▁yimata	-13380
▁ñaawee	-13381
▁Banndam	-13382
▁Feccere	-13383
▁Konuuji	-13384
▁Mamadou	-13385
▁Nasraan	-13386
▁ardinaa	-13387
▁berbeer	-13388
▁coftuɗo	-13389
▁dañeede	-13390
▁deental	-13391
▁goongɗi	-13392
▁hitooji	-13393
▁mbaasaa	-13394
▁ngaddaa	-13395
▁udditaa	-13396
▁ɓurataa	-13397
▁Jaaluuta	-13398
▁Jokkorde	-13399
▁baɗambon	-13400
▁gaarawol	-13401
▁jeertina	-13402
▁joofirde	-13403
▁keewaano	-13404
▁leslesre	-13405
▁paamataa	-13406
▁pawatnoo	-13407
▁ruttitii	-13408
▁scolaire	-13409
▁tooweeki	-13410
▁toujours	-13411
▁ummiinde	-13412
▁waɗteede	-13413
▁yahnooɓe	-13414
▁yawtunde	-13415
▁Baktansar	-13416
▁huuɓtodin	-13417
▁laaɓtundi	-13418
▁lewlewndu	-13419
▁miñiraaɗo	-13420
▁naamnaaki	-13421
▁naangeeji	-13422
▁njoɓɗeele	-13423
▁saretaaji	-13424
▁yimiyanke	-13425
▁yiyotaako	-13426
-----------	-13427
information	-13428
▁Ngenndiire	-13429
▁golloraade	-13430
▁haalaluuji	-13431
▁mawniraaɓe	-13432
▁paabatooɗo	-13433
▁sakkitorii	-13434
▁mbelemmaaji	-13435
▁ngaddinaaji	-13436
▁senegaalnaaɓe	-13437
▁ɗanniyankooɓe	-13438
▁internationale	-13439
▁ɗemɗiyankaagal	-13440
▁ngenndiyaŋkooɓe	-13441
GO	-13442
PA	-13443
uuñ	-13444
okke	-13445
part	-13446
wude	-13447
▁187	-13448
▁Isl	-13449
▁Lat	-13450
▁loŋ	-13451
▁équ	-13452
amndi	-13453
▁Baas	-13454
▁Koll	-13455
▁endi	-13456
▁gaal	-13457
▁goon	-13458
▁haɓa	-13459
▁ngow	-13460
oyooɓe	-13461
▁Jenne	-13462
▁Saint	-13463
▁Thabo	-13464
▁liggo	-13465
▁ñiiɓi	-13466
▁Duujal	-13467
▁Humpit	-13468
▁Njobbo	-13469
▁jaaboo	-13470
▁njetti	-13471
▁projet	-13472
▁rewnoo	-13473
▁wonngo	-13474
▁ɓurtii	-13475
atamaare	-13476
▁Cukalel	-13477
▁Mandela	-13478
▁meeɗnoo	-13479
iyankoore	-13480
▁Miijooji	-13481
▁balloowo	-13482
▁kaalataa	-13483
▁nduwanoo	-13484
▁wonatnoo	-13485
▁yaltaani	-13486
▁ñaaweede	-13487
▁Kaasamaas	-13488
▁kalfaandi	-13489
▁njaakorii	-13490
▁teemedannde	-13491
2-	-13492
èg	-13493
▁—	-13494
/08	-13495
GAL	-13496
OMM	-13497
Sok	-13498
ald	-13499
bje	-13500
njo	-13501
saf	-13502
uwa	-13503
vor	-13504
ɓtu	-13505
▁),	-13506
▁06	-13507
▁5-	-13508
▁6)	-13509
▁DE	-13510
▁ve	-13511
▁wó	-13512
ceen	-13513
crim	-13514
iren	-13515
quoi	-13516
sina	-13517
ƴƴam	-13518
▁118	-13519
▁175	-13520
▁Bab	-13521
▁Eɗe	-13522
▁Ils	-13523
▁Ker	-13524
▁Mik	-13525
▁bin	-13526
▁buy	-13527
▁dou	-13528
▁duh	-13529
▁lep	-13530
▁lot	-13531
▁pak	-13532
▁sak	-13533
Miɗen	-13534
heeda	-13535
lugol	-13536
nanii	-13537
phabé	-13538
sible	-13539
siiji	-13540
toyaa	-13541
uloor	-13542
yamin	-13543
▁Anne	-13544
▁Iran	-13545
▁Isma	-13546
▁Ngom	-13547
▁Pant	-13548
▁Peer	-13549
▁baro	-13550
▁ejol	-13551
▁faɗo	-13552
▁feso	-13553
▁huma	-13554
▁mboɗ	-13555
▁mogg	-13556
▁saam	-13557
▁simm	-13558
▁tumb	-13559
▁wiye	-13560
Fooyre	-13561
UNESCO	-13562
cteurs	-13563
piteen	-13564
taandi	-13565
ñalnde	-13566
▁2001,	-13567
▁Hiisi	-13568
▁Jawdi	-13569
▁Muñal	-13570
▁Wiyet	-13571
▁citoy	-13572
▁colon	-13573
▁engal	-13574
▁heɓta	-13575
▁hulii	-13576
▁joɗle	-13577
▁kiloo	-13578
▁koppi	-13579
▁major	-13580
▁njurm	-13581
▁nulal	-13582
▁payɗi	-13583
▁petit	-13584
▁pewji	-13585
▁porog	-13586
▁safra	-13587
▁trois	-13588
▁ɗawre	-13589
Aljanna	-13590
aandoom	-13591
tanaama	-13592
tonooɓe	-13593
▁Askiya	-13594
▁Bagboo	-13595
▁Joɗnde	-13596
▁Liisee	-13597
▁Ndoogu	-13598
▁Siftor	-13599
▁ceerta	-13600
▁coloni	-13601
▁jookdu	-13602
▁koddir	-13603
▁laañal	-13604
▁mbaali	-13605
▁mooɓam	-13606
▁moƴƴam	-13607
▁ngantu	-13608
▁ngummi	-13609
▁potndi	-13610
▁puɗɗoo	-13611
▁tagnoo	-13612
▁waynii	-13613
▁yaynoo	-13614
▁yiyloo	-13615
▁Ɗeeɗoo	-13616
▁ɓamtoo	-13617
▁ɗiɗmol	-13618
Tawreeta	-13619
leyɗeele	-13620
▁Malaaɗo	-13621
▁Mullaay	-13622
▁Tiggere	-13623
▁aayaawo	-13624
▁daraaki	-13625
▁demande	-13626
▁demngal	-13627
▁dewoowo	-13628
▁duumoto	-13629
▁gadduɗo	-13630
▁hokkata	-13631
▁hukuuma	-13632
▁jaggiri	-13633
▁juillet	-13634
▁koŋngol	-13635
▁kuɗaaɗo	-13636
▁ngaddam	-13637
▁sinemaa	-13638
▁tammbii	-13639
▁taƴooɓe	-13640
▁tedduɗi	-13641
▁waɗaano	-13642
▁weliraa	-13643
▁yahuuda	-13644
▁yarnude	-13645
▁Ɓataake	-13646
▁Benyamin	-13647
▁Goomuuji	-13648
▁beaucoup	-13649
▁gaññeeje	-13650
▁gooŋɗini	-13651
▁hoonaade	-13652
▁jokkoyde	-13653
▁jooɗorɗe	-13654
▁katojini	-13655
▁kaŋŋeeji	-13656
▁kuutorii	-13657
▁lelnugol	-13658
▁luggiɗde	-13659
▁naalaŋke	-13660
▁ngaddana	-13661
▁njanngen	-13662
▁njanngii	-13663
▁potnooɗo	-13664
▁tabitini	-13665
▁teddeeki	-13666
▁tolnotoo	-13667
▁weltinde	-13668
▁yaafaade	-13669
▁yahrooɓe	-13670
▁yakawere	-13671
▁ɓurtunde	-13672
Joomiraaɗo	-13673
▁Asammbele	-13674
▁feewnitde	-13675
▁jinngande	-13676
▁kominaaji	-13677
▁ngoodanii	-13678
▁njaltinii	-13679
▁lawakeewal	-13680
▁mbelemaaji	-13681
▁tillisaaji	-13682
▁winndaande	-13683
▁Ƴellitaare	-13684
▁Afganistaan	-13685
▁anndiraande	-13686
▁wullitaango	-13687
--------------	-13688
haɗ	-13689
oye	-13690
▁Vi	-13691
dugu	-13692
orma	-13693
▁Dub	-13694
▁Nod	-13695
▁Siy	-13696
▁Tas	-13697
▁The	-13698
▁cab	-13699
▁ele	-13700
▁jil	-13701
▁jor	-13702
▁kin	-13703
▁ŋaa	-13704
kanko	-13705
langu	-13706
nande	-13707
neɗɗo	-13708
uwaas	-13709
ɗoyde	-13710
▁1945	-13711
▁1962	-13712
▁Ngay	-13713
▁faar	-13714
▁famp	-13715
▁gacc	-13716
▁heli	-13717
▁ubbi	-13718
▁Boobo	-13719
▁Yuɓɓo	-13720
▁angal	-13721
▁laawi	-13722
▁morso	-13723
▁ndonk	-13724
▁resii	-13725
irtenoo	-13726
▁London	-13727
▁artira	-13728
▁daabaa	-13729
▁idiiɓe	-13730
▁peccol	-13731
▁saahal	-13732
▁wirtii	-13733
▁ɓiyngu	-13734
▁Jaambar	-13735
▁feewnii	-13736
▁timmina	-13737
▁baayeeji	-13738
▁dokkaaɗo	-13739
▁fuɗɗotoo	-13740
▁sellunde	-13741
▁tampataa	-13742
▁yilliima	-13743
▁Ruwanndaa	-13744
▁jebbilaade	-13745
▁deggondirɗi	-13746
▁hulɓiniinde	-13747
CI	-13748
CM	-13749
St	-13750
ات	-13751
▁ي	-13752
Com	-13753
cob	-13754
cor	-13755
cré	-13756
dus	-13757
kes	-13758
nay	-13759
ode	-13760
ota	-13761
pha	-13762
ňol	-13763
▁IN	-13764
▁MB	-13765
▁em	-13766
▁st	-13767
000)	-13768
agas	-13769
ambi	-13770
cles	-13771
eNst	-13772
gine	-13773
iina	-13774
isés	-13775
kkon	-13776
quer	-13777
tora	-13778
toyo	-13779
uuɗi	-13780
weet	-13781
▁Fil	-13782
▁Gin	-13783
▁Pet	-13784
▁Sañ	-13785
▁Sul	-13786
▁Tot	-13787
▁duŋ	-13788
▁eba	-13789
▁joɓ	-13790
▁nju	-13791
▁rép	-13792
▁Ñam	-13793
▁ɗak	-13794
iiƴam	-13795
isées	-13796
jaade	-13797
karam	-13798
ndata	-13799
oosis	-13800
siɓil	-13801
tante	-13802
tundu	-13803
ément	-13804
ɗiima	-13805
ɗinoo	-13806
▁1977	-13807
▁Amar	-13808
▁Ayse	-13809
▁Dadd	-13810
▁Estu	-13811
▁Gaar	-13812
▁Kuuɓ	-13813
▁MNLA	-13814
▁Sett	-13815
▁Sher	-13816
▁ande	-13817
▁ango	-13818
▁doge	-13819
▁lors	-13820
▁mati	-13821
▁naaf	-13822
▁neem	-13823
▁ngaw	-13824
▁nget	-13825
▁ngos	-13826
▁sant	-13827
▁véhi	-13828
▁ŋgam	-13829
anndol	-13830
iratno	-13831
nungal	-13832
torgal	-13833
uhanna	-13834
Ègypte	-13835
ɗungol	-13836
▁1992,	-13837
▁Appol	-13838
▁Geɗel	-13839
▁Jacob	-13840
▁Kaŋŋe	-13841
▁Sarɗi	-13842
▁Siñcu	-13843
▁Wasiŋ	-13844
▁avant	-13845
▁derni	-13846
▁diini	-13847
▁dooki	-13848
▁duƴƴe	-13849
▁forme	-13850
▁heeda	-13851
▁human	-13852
▁jatti	-13853
▁kaaye	-13854
▁kayri	-13855
▁limto	-13856
▁maabo	-13857
▁maana	-13858
▁muuya	-13859
▁ndeeƴ	-13860
▁ngabu	-13861
▁signi	-13862
▁sokaa	-13863
▁teski	-13864
▁wulli	-13865
▁yahɓe	-13866
gnorgal	-13867
▁Daarol	-13868
▁Sarlon	-13869
▁faawru	-13870
▁gaawol	-13871
▁gallol	-13872
▁gorgol	-13873
▁haande	-13874
▁hassan	-13875
▁kuurɗo	-13876
▁moyens	-13877
▁naywii	-13878
▁njahda	-13879
▁njedda	-13880
▁njiɗmi	-13881
▁peeñdi	-13882
▁savoir	-13883
▁weltoo	-13884
▁yiyata	-13885
▁Ƴellit	-13886
anoongal	-13887
ondirtaa	-13888
▁Daliilu	-13889
▁Musiɗɗo	-13890
▁baraaji	-13891
▁dillude	-13892
▁domaine	-13893
▁facciro	-13894
▁hirjino	-13895
▁jeyegol	-13896
▁kanooji	-13897
▁nafaani	-13898
▁nyalnde	-13899
▁pokkiti	-13900
▁potngal	-13901
▁présent	-13902
▁sakkude	-13903
▁sinuwaa	-13904
▁tagaaɗo	-13905
▁teppere	-13906
▁toppito	-13907
▁yaltata	-13908
▁yaɓɓude	-13909
▁yiɗeede	-13910
▁ñaawata	-13911
▁ƴettiti	-13912
▁ɓadiiɗo	-13913
▁ɗaminaa	-13914
▁Internet	-13915
▁Jibiriil	-13916
▁Nganndee	-13917
▁Wasiŋton	-13918
▁cubballo	-13919
▁fiileede	-13920
▁hawrunoo	-13921
▁kawraani	-13922
▁ndoondii	-13923
▁ngonataa	-13924
▁novembre	-13925
▁rokkaani	-13926
▁waɗdunoo	-13927
▁wuurdude	-13928
▁administr	-13929
▁dartingol	-13930
▁fattamlam	-13931
▁jaabtaade	-13932
▁jeertinii	-13933
▁jubbannde	-13934
▁njejjitii	-13935
▁plusieurs	-13936
▁waɗɗiinde	-13937
▁winndirde	-13938
▁Hamɓaleejo	-13939
▁commission	-13940
▁denɗiraaɓe	-13941
▁faamaamuya	-13942
▁fuɗɗoraade	-13943
▁jooɗaniiɓe	-13944
▁naafigeeɓe	-13945
▁sileymaani	-13946
▁toppitiiɓe	-13947
▁faamondirde	-13948
▁tinndinoore	-13949
▁wallondirde	-13950
▁winndireede	-13951
▁Faransanaaɓe	-13952
▁ngooŋɗinaani	-13953
▁Deeniyankooɓe	-13954
▁Iisaayankooɓe	-13955
Ne	-13956
نَ	-13957
hir	-13958
mɓe	-13959
nom	-13960
noy	-13961
rix	-13962
sph	-13963
uth	-13964
wan	-13965
éro	-13966
▁AA	-13967
buru	-13968
eraa	-13969
erel	-13970
▁133	-13971
▁Koɗ	-13972
▁Ste	-13973
▁Suu	-13974
▁alh	-13975
▁civ	-13976
▁raa	-13977
▁tud	-13978
▁waj	-13979
▁ɓay	-13980
aatul	-13981
périe	-13982
seeɗa	-13983
tagaa	-13984
▁Daab	-13985
▁bada	-13986
▁hikk	-13987
▁komp	-13988
▁teŋe	-13989
▁well	-13990
emblée	-13991
inorde	-13992
▁1980,	-13993
▁Birit	-13994
▁Joomi	-13995
▁horɓe	-13996
▁mecce	-13997
▁piiji	-13998
▁waare	-13999
antooɗo	-14000
▁Janngu	-14001
▁kaalɗo	-14002
▁neldaa	-14003
▁rowrow	-14004
▁ɓuuɓde	-14005
▁abbaade	-14006
▁pulaaku	-14007
éducation	-14008
▁haalataa	-14009
▁heddaaki	-14010
▁kiikiiɗe	-14011
▁ndaranii	-14012
▁Guwarnama	-14013
▁bammbaaɗo	-14014
▁guwerneer	-14015
▁keɓtingol	-14016
▁ndenndina	-14017
▁ndenndini	-14018
▁yuɓɓinnoo	-14019
▁seɓɓitiiɓe	-14020
AF	-14021
DH	-14022
Es	-14023
LN	-14024
UD	-14025
eŋ	-14026
jà	-14027
ُو	-14028
▁ت	-14029
✖️	-14030
/07	-14031
:10	-14032
AJM	-14033
IDA	-14034
eng	-14035
isé	-14036
let	-14037
ose	-14038
pro	-14039
tek	-14040
▁03	-14041
▁AB	-14042
▁Fu	-14043
▁Po	-14044
▁aɗ	-14045
▁ɗu	-14046
arɓe	-14047
cent	-14048
cule	-14049
daan	-14050
iigu	-14051
taan	-14052
tein	-14053
ître	-14054
▁Als	-14055
▁Daɗ	-14056
▁Dur	-14057
▁Heb	-14058
▁Hos	-14059
▁Lii	-14060
▁Lum	-14061
▁Tow	-14062
▁fak	-14063
▁nem	-14064
▁Ñas	-14065
aaren	-14066
anifa	-14067
daire	-14068
indol	-14069
senti	-14070
taten	-14071
waɗde	-14072
ɓtugu	-14073
▁Aliy	-14074
▁Emin	-14075
▁Lugg	-14076
▁Octo	-14077
▁Sakk	-14078
▁Sele	-14079
▁Taan	-14080
▁Tuut	-14081
▁beyi	-14082
▁faru	-14083
▁geƴƴ	-14084
▁jalo	-14085
▁kere	-14086
▁koŋŋ	-14087
▁paaɗ	-14088
▁poɓɓ	-14089
▁rowi	-14090
▁saal	-14091
▁saar	-14092
▁Ñaam	-14093
▁Ñawu	-14094
▁ɗeya	-14095
aambur	-14096
atoire	-14097
idaaji	-14098
oriima	-14099
▁Fowru	-14100
▁Haama	-14101
▁Ibraa	-14102
▁Jinne	-14103
▁Taaya	-14104
▁après	-14105
▁cewɗi	-14106
▁doggi	-14107
▁fetti	-14108
▁fotti	-14109
▁gurel	-14110
▁heɓaa	-14111
▁jaɓan	-14112
▁jolni	-14113
▁meeri	-14114
▁moder	-14115
▁nawee	-14116
▁ngubb	-14117
▁rewri	-14118
▁terme	-14119
▁tiimi	-14120
▁wontu	-14121
▁yimbe	-14122
▁Ŋgati	-14123
Farayse	-14124
Kaalden	-14125
agement	-14126
allaaji	-14127
eddooɓe	-14128
ettoode	-14129
olution	-14130
pendant	-14131
tanaani	-14132
tandira	-14133
tireede	-14134
ɗondiri	-14135
▁Amadou	-14136
▁bakkaa	-14137
▁danndu	-14138
▁faandi	-14139
▁kaawaa	-14140
▁laaɓta	-14141
▁laɓɓin	-14142
▁loowde	-14143
▁moment	-14144
▁ngoppa	-14145
▁njiyti	-14146
▁resndi	-14147
▁silaam	-14148
▁silsil	-14149
▁tokara	-14150
▁waandu	-14151
▁warata	-14152
▁étrang	-14153
▁ɓoorno	-14154
▁Huseyni	-14155
▁Swahili	-14156
▁Tafsiir	-14157
▁artataa	-14158
▁boɗeeje	-14159
▁cemmbol	-14160
▁cuɓagol	-14161
▁enfants	-14162
▁firawna	-14163
▁horeejo	-14164
▁koronaa	-14165
▁majjiri	-14166
▁ngartoy	-14167
▁njiɗɗaa	-14168
▁pulfule	-14169
▁siftini	-14170
▁société	-14171
▁tawatee	-14172
▁univers	-14173
▁waadere	-14174
▁yahdata	-14175
▁ɗowoowo	-14176
▁ɲalawma	-14177
▁Meerkuur	-14178
▁findinde	-14179
▁heewaano	-14180
▁horsinde	-14181
▁laaɓaani	-14182
▁mbaawɗen	-14183
▁mooftude	-14184
▁nattataa	-14185
▁saɗeende	-14186
▁seniinde	-14187
▁tawtoree	-14188
▁teskinɗe	-14189
▁tiiɗaani	-14190
▁tiiɗngal	-14191
▁weytaare	-14192
▁yiɗnooɓe	-14193
▁yuɓɓinaa	-14194
▁ñaagiima	-14195
▁Ɗiɗaɓere	-14196
▁ɓadtiiɓe	-14197
▁Président	-14198
▁jibinaaka	-14199
▁saayaande	-14200
▁scientifi	-14201
▁situation	-14202
▁sooynaade	-14203
▁tiisubaar	-14204
▁Ismaayiila	-14205
▁binnditgol	-14206
▁hakkilaaji	-14207
▁njanngaani	-14208
▁promouvoir	-14209
▁seyɗaneeji	-14210
▁taƴondiral	-14211
▁ammbasadeer	-14212
▁telefoŋaaji	-14213
▁winndereeje	-14214
▁tooñanngeeji	-14215
▁hooreleydaagu	-14216
▁Islaamiyaŋkooɓe	-14217
/01	-14218
aññ	-14219
cii	-14220
foo	-14221
▁AM	-14222
▁Os	-14223
▁sp	-14224
eral	-14225
riil	-14226
utre	-14227
État	-14228
▁22,	-14229
▁Few	-14230
▁Mot	-14231
▁Sed	-14232
▁cur	-14233
▁let	-14234
▁mit	-14235
▁mod	-14236
▁nef	-14237
Afrik	-14238
ddiri	-14239
▁1967	-14240
▁1973	-14241
▁Rokk	-14242
▁lawƴ	-14243
▁muti	-14244
etaaji	-14245
tiingo	-14246
vision	-14247
▁1985,	-14248
▁2004,	-14249
▁Daaka	-14250
▁Korka	-14251
▁Lahab	-14252
▁cuuɗo	-14253
▁hoota	-14254
▁jawle	-14255
▁jeyɗo	-14256
▁juuta	-14257
▁kuuje	-14258
▁meere	-14259
▁tuumi	-14260
▁weldi	-14261
▁woowi	-14262
anteeɗo	-14263
▁Gadano	-14264
▁Guurɗo	-14265
▁Jeewte	-14266
▁Juulɗo	-14267
▁dabare	-14268
▁ngollo	-14269
▁peeral	-14270
▁wuurna	-14271
limtinɗi	-14272
▁Musiɓɓe	-14273
▁kerecee	-14274
▁tekkere	-14275
▁Mandelaa	-14276
▁Muntagaa	-14277
▁anndinii	-14278
▁kuɓtodin	-14279
▁ɓurnaaɗo	-14280
▁Tagofeere	-14281
▁biyeteeɗi	-14282
▁duwawuuji	-14283
▁garaangal	-14284
!)	-14285
Ha	-14286
IF	-14287
Ji	-14288
KA	-14289
PF	-14290
ly	-14291
▁$	-14292
✔️	-14293
EER	-14294
Haa	-14295
doy	-14296
fel	-14297
fis	-14298
plo	-14299
unk	-14300
wor	-14301
égi	-14302
éta	-14303
▁!»	-14304
▁02	-14305
▁AS	-14306
▁Er	-14307
▁NO	-14308
▁VI	-14309
▁iP	-14310
▁pé	-14311
)...	-14312
Arab	-14313
Maay	-14314
abal	-14315
alah	-14316
ansa	-14317
geɗe	-14318
jjaa	-14319
prim	-14320
serv	-14321
tari	-14322
uɗar	-14323
vité	-14324
▁116	-14325
▁119	-14326
▁143	-14327
▁Eeh	-14328
▁Moy	-14329
▁Ram	-14330
▁gil	-14331
dotoo	-14332
naali	-14333
tanta	-14334
urent	-14335
ñande	-14336
▁Ahik	-14337
▁Elis	-14338
▁Ennj	-14339
▁Himo	-14340
▁Ital	-14341
▁Maab	-14342
▁Njet	-14343
▁Snim	-14344
▁Topp	-14345
▁camp	-14346
▁cent	-14347
▁chez	-14348
▁deɓɓ	-14349
▁gaaɓ	-14350
▁huɗi	-14351
▁kell	-14352
▁lelo	-14353
▁liim	-14354
▁long	-14355
▁mbeñ	-14356
▁mowl	-14357
▁ngir	-14358
▁nouv	-14359
▁pent	-14360
▁pooƴ	-14361
▁reer	-14362
▁waam	-14363
▁wiim	-14364
▁ɓama	-14365
ankati	-14366
itable	-14367
iɗngel	-14368
moosis	-14369
wirnde	-14370
▁Ainsi	-14371
▁Bamba	-14372
▁Black	-14373
▁Guuro	-14374
▁Hamsa	-14375
▁Lawɓe	-14376
▁Maari	-14377
▁Mboon	-14378
▁Neero	-14379
▁Saawo	-14380
▁Waɗii	-14381
▁accii	-14382
▁cunii	-14383
▁dihal	-14384
▁doŋle	-14385
▁doŋre	-14386
▁fawti	-14387
▁fooɗa	-14388
▁hunii	-14389
▁koɗɗo	-14390
▁leňol	-14391
▁leɓta	-14392
▁morle	-14393
▁ndeka	-14394
▁ngala	-14395
▁pamɗi	-14396
▁poocc	-14397
▁poɗɗe	-14398
▁senaa	-14399
▁sooyn	-14400
▁tummb	-14401
▁victi	-14402
▁welii	-14403
▁wooti	-14404
▁ɓiyɗo	-14405
amaagal	-14406
arafrik	-14407
injiila	-14408
lewaaji	-14409
ortooɓe	-14410
tawaaji	-14411
tetaake	-14412
wonande	-14413
▁Anngel	-14414
▁Bammba	-14415
▁Daarel	-14416
▁Gaagaa	-14417
▁Gawdal	-14418
▁Master	-14419
▁Mbaalo	-14420
▁Pellit	-14421
▁Rabaat	-14422
▁Saaleh	-14423
▁golloo	-14424
▁haawaa	-14425
▁hewtay	-14426
▁hootii	-14427
▁hunnde	-14428
▁huuɓti	-14429
▁jaggal	-14430
▁kaalee	-14431
▁ndutti	-14432
▁ngooti	-14433
▁ngoppu	-14434
▁paamir	-14435
▁raison	-14436
▁siifde	-14437
▁woɗndu	-14438
▁ɗeɓata	-14439
ctivités	-14440
gollaagu	-14441
▁Biraama	-14442
▁Gaaynde	-14443
▁Musiɗɓe	-14444
▁Napolin	-14445
▁Saddaam	-14446
▁Sersiis	-14447
▁baroowo	-14448
▁baɗaaɗe	-14449
▁baɗaaɗi	-14450
▁heɓataa	-14451
▁jaatara	-14452
▁karalle	-14453
▁kawriti	-14454
▁laborat	-14455
▁manière	-14456
▁murtuɓe	-14457
▁naatnii	-14458
▁naworde	-14459
▁njebbil	-14460
▁sakkiti	-14461
▁sarwiis	-14462
▁timmude	-14463
▁tonngii	-14464
▁volonté	-14465
▁winndee	-14466
▁wonirta	-14467
▁étaient	-14468
▁ñalande	-14469
▁Ciftoren	-14470
▁Ruwannda	-14471
▁Supiteer	-14472
▁ceerataa	-14473
▁defterdu	-14474
▁heddotoo	-14475
▁hoolaaɓe	-14476
▁jammbere	-14477
▁jipporde	-14478
▁laylayti	-14479
▁maayoowo	-14480
▁majjinde	-14481
▁mbiyaani	-14482
▁muulirde	-14483
▁naataani	-14484
▁njahiino	-14485
▁nootitii	-14486
▁paawngal	-14487
▁rennduɓe	-14488
▁sappeeji	-14489
▁seedtini	-14490
▁sellinde	-14491
▁teeŋtina	-14492
▁wallooɓe	-14493
▁ñaagunde	-14494
▁ɓurtinɓe	-14495
▁banngagol	-14496
▁deweteeɗo	-14497
▁gollorgal	-14498
▁kaalatnoo	-14499
▁koloniiji	-14500
▁laamlaamu	-14501
▁ngaanumma	-14502
▁nganniyii	-14503
▁tooñaange	-14504
▁Njuuteendi	-14505
▁Seereraaɓe	-14506
▁Tuutmoosis	-14507
▁jebbilaare	-14508
▁kellifaaɗo	-14509
▁moolinooɓe	-14510
▁peewnatnoo	-14511
▁rewindaade	-14512
▁taccinaaɓe	-14513
▁tiiɗtingol	-14514
▁différentes	-14515
▁faarnoraade	-14516
▁njejjitaani	-14517
▁Espartanaaɓe	-14518
▁NGENNDIYANKE	-14519
▁banndiraagal	-14520
▁miijanteendi	-14521
▁Moritaninaaɓe	-14522
▁harbiyankooɓe	-14523
Ah	-14524
ua	-14525
ena	-14526
▁XI	-14527
anen	-14528
ccol	-14529
jami	-14530
mane	-14531
onde	-14532
ston	-14533
▁Naw	-14534
▁Pel	-14535
▁Wud	-14536
▁Yal	-14537
▁jed	-14538
▁nuu	-14539
▁seɓ	-14540
araam	-14541
kooje	-14542
parte	-14543
▁1969	-14544
▁Bern	-14545
▁Muul	-14546
▁boof	-14547
▁dabi	-14548
▁gude	-14549
▁seeɗ	-14550
▁soow	-14551
▁Kadii	-14552
▁Union	-14553
▁jaabo	-14554
▁laami	-14555
▁naatn	-14556
▁ñaaƴe	-14557
ciences	-14558
▁niɓɓiɗ	-14559
▁gidiiɗo	-14560
▁joɗɗini	-14561
▁lommbii	-14562
▁takkere	-14563
▁ustaade	-14564
▁hiisaade	-14565
▁renndina	-14566
▁sciences	-14567
▁seerataa	-14568
▁waañooɓe	-14569
▁ƴettugol	-14570
▁ɗoftaare	-14571
▁denndaaɗe	-14572
▁janngoyde	-14573
▁jibinaaɓe	-14574
▁Hawsankoore	-14575
▁gouvernement	-14576
48	-14577
He	-14578
/05	-14579
ake	-14580
bla	-14581
cad	-14582
iji	-14583
pes	-14584
sek	-14585
uel	-14586
xte	-14587
▁5)	-14588
aafo	-14589
aaha	-14590
eesu	-14591
heew	-14592
imil	-14593
inɗi	-14594
iɗam	-14595
woto	-14596
ɗɗii	-14597
▁(15	-14598
▁123	-14599
▁128	-14600
▁155	-14601
▁160	-14602
▁165	-14603
▁21,	-14604
▁APP	-14605
▁Gee	-14606
▁Hit	-14607
▁TPM	-14608
▁Taa	-14609
▁USA	-14610
▁tuy	-14611
▁wof	-14612
▁ñil	-14613
Wonaa	-14614
Worgo	-14615
etine	-14616
inani	-14617
laabi	-14618
polis	-14619
tiiɗe	-14620
▁Dame	-14621
▁Jime	-14622
▁Jurm	-14623
▁Luul	-14624
▁Mool	-14625
▁Nuun	-14626
▁Sepp	-14627
▁aran	-14628
▁cela	-14629
▁ceɓɓ	-14630
▁deey	-14631
▁fuur	-14632
▁geej	-14633
▁hajj	-14634
▁jank	-14635
▁koɗe	-14636
▁mocc	-14637
▁niiw	-14638
▁pott	-14639
▁pris	-14640
▁soon	-14641
▁suis	-14642
▁suma	-14643
▁sumi	-14644
▁tagg	-14645
▁yaak	-14646
▁ɓiye	-14647
Gannde	-14648
aateer	-14649
amaaji	-14650
anooje	-14651
ematik	-14652
iriino	-14653
oyiima	-14654
▁Barke	-14655
▁Baylo	-14656
▁COVID	-14657
▁Daesh	-14658
▁Dogon	-14659
▁Inaal	-14660
▁Inter	-14661
▁Mesop	-14662
▁Space	-14663
▁aawde	-14664
▁année	-14665
▁avoir	-14666
▁baaji	-14667
▁colle	-14668
▁conng	-14669
▁elles	-14670
▁fodde	-14671
▁geeƴe	-14672
▁hurmb	-14673
▁jahɗo	-14674
▁jalaŋ	-14675
▁kaale	-14676
▁kaɗaa	-14677
▁luɓal	-14678
▁nelaa	-14679
▁njigg	-14680
▁njoop	-14681
▁progr	-14682
▁ŋgati	-14683
▁ɓalɗe	-14684
▁ɗacce	-14685
aameela	-14686
ukuloor	-14687
▁Alkule	-14688
▁Daddah	-14689
▁Niimaa	-14690
▁Sheekh	-14691
▁Tekrur	-14692
▁arabes	-14693
▁baɗɗii	-14694
▁bonndu	-14695
▁concer	-14696
▁fuɗnaa	-14697
▁fuɗɗaa	-14698
▁gollaa	-14699
▁guurte	-14700
▁jalkit	-14701
▁jamais	-14702
▁jaɓani	-14703
▁karnal	-14704
▁kesɗit	-14705
▁loopal	-14706
▁muulde	-14707
▁naatɗo	-14708
▁nannda	-14709
▁nannoo	-14710
▁ngeɗon	-14711
▁ngummo	-14712
▁njuula	-14713
▁nyande	-14714
▁peccii	-14715
▁portaa	-14716
▁renfor	-14717
▁sahnga	-14718
▁élèves	-14719
▁ñiiɓde	-14720
▁ɓingel	-14721
alastiin	-14722
phabétis	-14723
périence	-14724
▁Berbeer	-14725
▁Decroix	-14726
▁Fawaade	-14727
▁Kanaana	-14728
▁Kikiiɗe	-14729
▁Landing	-14730
▁Mozilla	-14731
▁October	-14732
▁Soninke	-14733
▁faandii	-14734
▁février	-14735
▁haaɗata	-14736
▁jaɓaano	-14737
▁keewɗam	-14738
▁kiraaɗe	-14739
▁leliiɓe	-14740
▁naamndo	-14741
▁nayaɓal	-14742
▁ndaarii	-14743
▁ndillii	-14744
▁neliino	-14745
▁ngartaa	-14746
▁octobre	-14747
▁reconna	-14748
▁telewis	-14749
▁timmuɗe	-14750
▁uddugol	-14751
▁waɗanoo	-14752
▁welaaka	-14753
▁Ɓaleejo	-14754
▁ƴeewndo	-14755
▁ɓiɗngel	-14756
▁ɓooynde	-14757
ayankooɓe	-14758
▁Gaynaako	-14759
▁Hooreeɓe	-14760
▁Mbertudi	-14761
▁Wiɗtooji	-14762
▁cakkital	-14763
▁cultures	-14764
▁elewaaji	-14765
▁garwanii	-14766
▁gertogal	-14767
▁jeeyirɗe	-14768
▁kuutoree	-14769
▁muuyaaɗe	-14770
▁naamndoo	-14771
▁nanngira	-14772
▁neeniije	-14773
▁ngaddiin	-14774
▁ngumndam	-14775
▁njeenayo	-14776
▁safrirdu	-14777
▁semmbina	-14778
▁sikkaani	-14779
▁soodooɓe	-14780
▁suuɗaare	-14781
▁taaniiko	-14782
▁waɗtaama	-14783
▁ñaamaani	-14784
▁ɓooyataa	-14785
▁Janngooɓe	-14786
▁Pakistaan	-14787
▁ceerungal	-14788
▁daɗndoore	-14789
▁duumiinde	-14790
▁ganndaaɗe	-14791
▁ndaamordi	-14792
▁nderndere	-14793
▁premières	-14794
▁suɓngooji	-14795
▁yontannde	-14796
▁Koninkooɓe	-14797
▁aaɓnotaako	-14798
▁hattanaani	-14799
▁heblanaade	-14800
▁misranaaɓe	-14801
▁territoire	-14802
▁wallifaade	-14803
▁huutortooɓe	-14804
▁warhooreeji	-14805
▁Abdarahmaani	-14806
▁enseignement	-14807
▁taccinanooɓe	-14808
▁ɓaɗambonneeji	-14809
28	-14810
40	-14811
77	-14812
CA	-14813
MR	-14814
ْر	-14815
Alm	-14816
Bis	-14817
fil	-14818
iiɓ	-14819
wam	-14820
▁Az	-14821
▁Wo	-14822
aaju	-14823
ayli	-14824
buya	-14825
ites	-14826
rain	-14827
▁173	-14828
▁Cos	-14829
▁Fee	-14830
▁lis	-14831
▁ƴuu	-14832
Fulɓe	-14833
Fuuta	-14834
liiɗo	-14835
ommbo	-14836
rance	-14837
telli	-14838
▁1961	-14839
▁Tuug	-14840
▁bagi	-14841
▁fiɓi	-14842
▁inni	-14843
▁kaam	-14844
▁kutu	-14845
▁lacc	-14846
▁ndag	-14847
▁ɗate	-14848
naandi	-14849
▁1993,	-14850
▁Wahab	-14851
▁bange	-14852
▁duppi	-14853
▁ƴeeŋi	-14854
hesaagu	-14855
mocrati	-14856
▁PULAAR	-14857
▁hoɗuɗo	-14858
▁laaɓaa	-14859
ographie	-14860
pression	-14861
▁Sifaaji	-14862
▁boneeji	-14863
▁daɗataa	-14864
▁ittaama	-14865
▁jalbude	-14866
▁malayka	-14867
▁newnude	-14868
▁wileeɓe	-14869
▁cuuɗiiɗe	-14870
▁rimɗinde	-14871
▁hewtaynoo	-14872
▁noddireede	-14873
▁Demokaraasi	-14874
AB	-14875
Ad	-14876
OF	-14877
xe	-14878
éé	-14879
ɲi	-14880
▁ح	-14881
▁📷	-14882
GOL	-14883
ase	-14884
bus	-14885
cap	-14886
dra	-14887
hab	-14888
hon	-14889
jaw	-14890
kir	-14891
pat	-14892
yya	-14893
▁LA	-14894
▁Mé	-14895
▁St	-14896
▁ol	-14897
Amen	-14898
Eɗen	-14899
OORE	-14900
alak	-14901
arii	-14902
aɗen	-14903
bble	-14904
faar	-14905
iram	-14906
iril	-14907
irus	-14908
kiir	-14909
limp	-14910
ppoo	-14911
roid	-14912
ruɗe	-14913
▁159	-14914
▁GUN	-14915
▁Gah	-14916
▁Hap	-14917
▁Ish	-14918
▁Puɗ	-14919
▁Tak	-14920
▁feu	-14921
▁feƴ	-14922
▁ñir	-14923
DIINA	-14924
Sokna	-14925
diiɗi	-14926
kooji	-14927
laaɗe	-14928
ornde	-14929
poque	-14930
temps	-14931
toyta	-14932
▁1987	-14933
▁3000	-14934
▁Ball	-14935
▁Haaw	-14936
▁Norm	-14937
▁Suus	-14938
▁actu	-14939
▁anne	-14940
▁cefi	-14941
▁chef	-14942
▁fili	-14943
▁film	-14944
▁font	-14945
▁hisa	-14946
▁keel	-14947
▁nawl	-14948
▁pees	-14949
▁reli	-14950
▁rutt	-14951
▁réal	-14952
▁siiw	-14953
▁wóni	-14954
aayeer	-14955
cement	-14956
hannde	-14957
relati	-14958
ɗaagal	-14959
▁20190	-14960
▁Alqur	-14961
▁Banke	-14962
▁Beeli	-14963
▁Enɗam	-14964
▁Giɗli	-14965
▁Haawa	-14966
▁Haram	-14967
▁Huudu	-14968
▁Ifraa	-14969
▁Jolol	-14970
▁Kooni	-14971
▁Kulol	-14972
▁Liber	-14973
▁Mannd	-14974
▁Mbeɗe	-14975
▁Olimp	-14976
▁dimmb	-14977
▁finde	-14978
▁hoɗdu	-14979
▁jarib	-14980
▁kesol	-14981
▁kette	-14982
▁koɗaa	-14983
▁laiss	-14984
▁limde	-14985
▁mberl	-14986
▁ngeen	-14987
▁njari	-14988
▁njaɓa	-14989
▁nokki	-14990
▁sawta	-14991
▁sellu	-14992
▁suura	-14993
▁turii	-14994
▁wonoy	-14995
▁ñaawi	-14996
antaaki	-14997
antaako	-14998
ɗinooɓe	-14999
▁Abeydi	-15000
▁Barack	-15001
▁Baylaa	-15002
▁GUNAAS	-15003
▁Ngaree	-15004
▁Tufnde	-15005
▁Wallif	-15006
▁cuurel	-15007
▁décret	-15008
▁gasnii	-15009
▁hokkii	-15010
▁keblii	-15011
▁laaɓɗi	-15012
▁liisee	-15013
▁maures	-15014
▁mesure	-15015
▁ngonmi	-15016
▁ngulla	-15017
▁njiimi	-15018
▁puunti	-15019
▁roondi	-15020
▁sellii	-15021
▁serait	-15022
▁wojere	-15023
▁ñeeñɓe	-15024
▁Ƴeewaa	-15025
▁ɓamiri	-15026
▁Almuudo	-15027
▁Saaratu	-15028
▁Sarkosi	-15029
▁Tebegut	-15030
▁Usumaan	-15031
▁cowiiɗo	-15032
▁faalkis	-15033
▁fellude	-15034
▁heewngo	-15035
▁jelooɗe	-15036
▁jeyaaɗi	-15037
▁kaɓorɗe	-15038
▁maaynoo	-15039
▁mbaɗdii	-15040
▁mberlii	-15041
▁mettuɗi	-15042
▁misiide	-15043
▁naatnaa	-15044
▁ndeento	-15045
▁nelaani	-15046
▁ngaador	-15047
▁ngolloo	-15048
▁njaabii	-15049
▁njanngi	-15050
▁njippii	-15051
▁paytuɗe	-15052
▁rentude	-15053
▁ruttude	-15054
▁signifi	-15055
▁tijjaan	-15056
▁yooɗnde	-15057
▁ɓennuɓe	-15058
Mauritani	-15059
▁Korkaƴel	-15060
▁Ngannden	-15061
▁baañoowo	-15062
▁duumiiɗo	-15063
▁heblooɓe	-15064
▁heptinde	-15065
▁joomiiko	-15066
▁kaalaaka	-15067
▁kalfinaa	-15068
▁luurduɓe	-15069
▁memtagol	-15070
▁miijiima	-15071
▁miskiino	-15072
▁nganndon	-15073
▁njoganii	-15074
▁peccugol	-15075
▁peññinii	-15076
▁sikkeeji	-15077
▁teeŋtuɗo	-15078
▁waɗdaama	-15079
▁wuuraani	-15080
▁ñawannde	-15081
▁Purtugeec	-15082
▁Sammunnde	-15083
▁culturels	-15084
▁dummbirdu	-15085
▁goongɗina	-15086
▁heɗotooɓe	-15087
▁jalbeende	-15088
▁jommbaani	-15089
▁njuɓɓinii	-15090
▁tumaranke	-15091
▁wonnoonde	-15092
▁Commission	-15093
▁Ngenndiijo	-15094
▁gollodaade	-15095
▁informatik	-15096
▁julaŋkooɓe	-15097
▁maternelle	-15098
▁weetndoogo	-15099
mauritaniens	-15100
▁Fuutaŋkooɓe	-15101
▁cooynotoɗen	-15102
▁kuutortonoo	-15103
▁kuuɓtodinɗo	-15104
▁seppatnooɓe	-15105
▁wostondirde	-15106
▁añamnguraagu	-15107
▁jeertindaare	-15108
▁militeeruuji	-15109
▁dawriyankooɓe	-15110
▁fanniyankooɓe	-15111
IG	-15112
َي	-15113
Kor	-15114
Mis	-15115
fat	-15116
fuɗ	-15117
ici	-15118
oɗɗ	-15119
ctri	-15120
emar	-15121
hari	-15122
sere	-15123
▁11,	-15124
▁Cap	-15125
▁Egy	-15126
▁Jap	-15127
▁Jer	-15128
▁hom	-15129
▁lon	-15130
▁ras	-15131
▁ven	-15132
aasim	-15133
mosph	-15134
ornoo	-15135
ɓataa	-15136
ɗɗere	-15137
▁1948	-15138
▁1992	-15139
▁Leel	-15140
▁Miim	-15141
▁gaɗa	-15142
▁kamm	-15143
▁sang	-15144
▁tall	-15145
ndiiɗe	-15146
ndirta	-15147
▁Daari	-15148
▁Gerek	-15149
▁Ostar	-15150
▁daɓɓe	-15151
▁duhol	-15152
▁engel	-15153
▁hawru	-15154
▁lewbi	-15155
▁naane	-15156
▁point	-15157
▁suddi	-15158
▁taali	-15159
▁tekku	-15160
▁yaasi	-15161
▁ɗatal	-15162
allaahu	-15163
▁Haadii	-15164
▁ardini	-15165
▁faayde	-15166
▁farans	-15167
▁gasata	-15168
▁hebbin	-15169
▁jaawɗo	-15170
▁laawii	-15171
▁lollir	-15172
▁welnde	-15173
▁dukooji	-15174
▁jogorɗe	-15175
▁njawtii	-15176
▁waɗaaka	-15177
▁ɓadiiɓe	-15178
claration	-15179
▁Bammbara	-15180
▁Mbajjiri	-15181
▁Ndimaagu	-15182
▁heeferɓe	-15183
▁yenaande	-15184
▁yettinii	-15185
▁Ɓooyaani	-15186
▁ɓurnooɗo	-15187
▁Jubbannde	-15188
▁goongaaji	-15189
▁nanngeede	-15190
▁yowitaare	-15191
▁yuurnaade	-15192
▁winndereejo	-15193
29	-15194
:9	-15195
FƁ	-15196
Ju	-15197
MB	-15198
TS	-15199
UA	-15200
UR	-15201
bé	-15202
sy	-15203
ɲɲ	-15204
/03	-15205
/09	-15206
Bar	-15207
ENO	-15208
Sar	-15209
adh	-15210
cin	-15211
gga	-15212
htt	-15213
kop	-15214
pin	-15215
ras	-15216
uuy	-15217
yat	-15218
ète	-15219
îtr	-15220
ɓel	-15221
▁Ey	-15222
▁SA	-15223
▁SB	-15224
▁Wa	-15225
arch	-15226
ayon	-15227
budu	-15228
fant	-15229
fuur	-15230
koro	-15231
laan	-15232
laye	-15233
rend	-15234
uses	-15235
uwel	-15236
égal	-15237
état	-15238
ɓeen	-15239
ɗino	-15240
▁Adr	-15241
▁Dom	-15242
▁Jow	-15243
▁MAA	-15244
▁Mir	-15245
▁Nat	-15246
▁Nin	-15247
▁ceɗ	-15248
▁kod	-15249
▁ubr	-15250
▁Ɗos	-15251
ateer	-15252
bilik	-15253
diini	-15254
dunde	-15255
geeji	-15256
haadi	-15257
iller	-15258
liwal	-15259
ments	-15260
tiree	-15261
èrent	-15262
▁Fari	-15263
▁Good	-15264
▁Khal	-15265
▁Njiy	-15266
▁Paul	-15267
▁Seen	-15268
▁Tiis	-15269
▁adop	-15270
▁awde	-15271
▁cocc	-15272
▁coli	-15273
▁diwa	-15274
▁effe	-15275
▁fijo	-15276
▁firi	-15277
▁foɓɓ	-15278
▁jirg	-15279
▁kikk	-15280
▁maaw	-15281
▁ndir	-15282
▁nduk	-15283
▁pese	-15284
▁soko	-15285
▁teer	-15286
▁took	-15287
▁weñc	-15288
▁ñaay	-15289
▁ñoor	-15290
▁ŋati	-15291
▁ŋgol	-15292
▁Ɓaas	-15293
Laamɗo	-15294
agodin	-15295
alkule	-15296
daande	-15297
itorii	-15298
online	-15299
tirnoo	-15300
tortee	-15301
Ègypti	-15302
▁1987,	-15303
▁AVOMM	-15304
▁Boolo	-15305
▁Diiye	-15306
▁Garba	-15307
▁Mbaar	-15308
▁Ngesa	-15309
▁Sahih	-15310
▁abbii	-15311
▁ayant	-15312
▁bayri	-15313
▁berem	-15314
▁cours	-15315
▁cukki	-15316
▁imaam	-15317
▁kebor	-15318
▁kolla	-15319
▁kulii	-15320
▁layya	-15321
▁luuki	-15322
▁mbell	-15323
▁metit	-15324
▁mintu	-15325
▁muusa	-15326
▁ndiwa	-15327
▁ouver	-15328
▁renta	-15329
▁sirku	-15330
▁sooda	-15331
▁sujji	-15332
▁suuɗo	-15333
▁taari	-15334
▁welto	-15335
▁yarii	-15336
▁yiyti	-15337
▁ñawii	-15338
▁ñorgo	-15339
▁ɓaari	-15340
[...]
